{"<unk>": 0, "<pad>": 1, "の": 2, "、": 3, "。": 4, "に": 5, "を": 6, "は": 7, "た": 8, "（": 9, "が": 10, "）": 11, "で": 12, "て": 13, "と": 14, "し": 15, "-": 16, "「": 17, "」": 18, "・": 19, "れ": 20, "さ": 21, ".": 22, "『": 23, "する": 24, "いる": 25, "』": 26, "ある": 27, "^": 28, "も": 29, "(": 30, ",": 31, "から": 32, "こと": 33, "：": 34, "な": 35, "/": 36, ")": 37, "い": 38, "として": 39, "や": 40, "れる": 41, "など": 42, ":": 43, "なっ": 44, "ない": 45, "“": 46, "第": 47, "ため": 48, "閲覧": 49, "1": 50, "この": 51, "2": 52, "へ": 53, "なる": 54, "あっ": 55, ").": 56, "その": 57, "よう": 58, "あり": 59, "まで": 60, "a": 61, "という": 62, "られ": 63, "<eos>": 64, "より": 65, "また": 66, "後": 67, "もの": 68, "的": 69, "b": 70, "”.": 71, "だ": 72, "3": 73, "中": 74, "おり": 75, "により": 76, "4": 77, "による": 78, "では": 79, "か": 80, "##鉄道駅##": 81, "p": 82, "版": 83, "現在": 84, "ISBN": 85, "によって": 86, "これ": 87, "号": 88, "時": 89, "場合": 90, "##日本##": 91, "ず": 92, "放送": 93, "役": 94, "5": 95, "0": 96, "者": 97, "だっ": 98, "6": 99, "-1": 100, "について": 101, "なり": 102, "名": 103, "日本": 104, "ば": 105, "なく": 106, "c": 107, "前": 108, "せ": 109, "##昭和##": 110, "なかっ": 111, "登場": 112, "できる": 113, "他": 114, "られる": 115, "間": 116, "\"": 117, "作品": 118, "##平成##": 119, "ページ": 120, "使用": 121, "-4": 122, "発売": 123, "内": 124, "人": 125, "において": 126, "上": 127, "その後": 128, "”": 129, "のみ": 130, "頁": 131, "of": 132, "それ": 133, "2019年": 134, "〜": 135, "／": 136, "当時": 137, "編": 138, "-2": 139, "一": 140, "=": 141, "元": 142, "化": 143, "多く": 144, "d": 145, "→": 146, "しかし": 147, "等": 148, "う": 149, "存在": 150, "行わ": 151, "出演": 152, "における": 153, "8": 154, "開始": 155, "7": 156, "4月": 157, "約": 158, "3月": 159, "##2007年##": 160, "[": 161, "全": 162, "数": 163, "呼ば": 164, "2020年": 165, "2021年": 166, "際": 167, "番組": 168, "年": 169, "なお": 170, "部": 171, "線": 172, "～": 173, "および": 174, "でき": 175, "ら": 176, "10": 177, "2022年": 178, "同": 179, "://": 180, "https": 181, "'": 182, "一部": 183, "以下": 184, "監督": 185, "www": 186, "A": 187, "担当": 188, "時点": 189, "目": 190, "受け": 191, "大": 192, "各": 193, "家": 194, "※": 195, "2008年": 196, "978": 197, "{\\": 198, "シリーズ": 199, "以降": 200, "時代": 201, "2015年": 202, "同じ": 203, "変更": 204, "本": 205, "2018年": 206, "活動": 207, "だけ": 208, "にて": 209, "いう": 210, "The": 211, "{": 212, "10月": 213, "2013年": 214, "用": 215, "&": 216, "き": 217, "2016年": 218, "行っ": 219, "出身": 220, "たち": 221, "初": 222, "e": 223, "2012年": 224, "たり": 225, "2009年": 226, "収録": 227, "同年": 228, "]": 229, "事": 230, "可能": 231, "多い": 232, "the": 233, "and": 234, "旧": 235, "2010年": 236, "〈": 237, "発表": 238, "二": 239, "研究": 240, "2014年": 241, "〉": 242, "設置": 243, "2017年": 244, "主": 245, "見": 246, "でも": 247, "お": 248, "アーカイブ": 249, "2007年": 250, "持つ": 251, "9月": 252, "ほか": 253, "側": 254, "英語": 255, "オリジナル": 256, "9": 257, "f": 258, "度": 259, "頃": 260, "参加": 261, "00": 262, "現": 263, "彼": 264, "地域": 265, "利用": 266, "所属": 267, "2011年": 268, "面": 269, "-3": 270, "一つ": 271, "+": 272, "日": 273, "型": 274, "行う": 275, "以上": 276, "選手": 277, "せる": 278, "世界": 279, ".com": 280, "新": 281, "社": 282, "さらに": 283, "制作": 284, "設立": 285, "中心": 286, "用い": 287, "\\": 288, "作曲": 289, "2006年": 290, "チーム": 291, "！": 292, "意味": 293, "機": 294, "系": 295, "–": 296, "なら": 297, "開発": 298, "n": 299, "店": 300, "に関する": 301, "会": 302, "関係": 303, "7月": 304, "12月": 305, "m": 306, "6月": 307, "記録": 308, "##2006年##": 309, "及び": 310, "必要": 311, "軍": 312, "5月": 313, "ます": 314, "に対して": 315, "英語版": 316, "下": 317, "形": 318, "http://": 319, "地": 320, "B": 321, "_{": 322, "ながら": 323, "考え": 324, "2005年": 325, "),": 326, "x": 327, "三": 328, "1月": 329, "攻撃": 330, "分": 331, "と共に": 332, "とき": 333, "}": 334, "廃止": 335, "開催": 336, "万": 337, "pp": 338, "同様": 339, "当初": 340, "##2008年##": 341, "11月": 342, "_": 343, "##明治##": 344, "8月": 345, "知ら": 346, "…": 347, "通り": 348, "自分": 349, "以外": 350, "戦": 351, "情報": 352, "または": 353, "!": 354, "in": 355, "ただし": 356, "自身": 357, "事業": 358, "異なる": 359, "12": 360, "終了": 361, "ので": 362, "作詞": 363, "父": 364, "2004年": 365, "かつて": 366, "displaystyle": 367, "とともに": 368, "優勝": 369, "うち": 370, "出場": 371, "PDF": 372, "女性": 373, "##2009年##": 374, "結果": 375, "ほど": 376, "特に": 377, "統計": 378, "声": 379, "それぞれ": 380, "力": 381, "C": 382, "参照": 383, "##2011年##": 384, "リンク": 385, "式": 386, "30": 387, "名称": 388, "務め": 389, "名前": 390, "20": 391, "問題": 392, "映画": 393, "語": 394, "2003年": 395, "##2012年##": 396, "一般": 397, "以前": 398, "##2015年##": 399, "発生": 400, "##2010年##": 401, "国": 402, "事件": 403, "性": 404, "最初": 405, "位置": 406, "h": 407, "計画": 408, "人物": 409, "設定": 410, "最後": 411, "11": 412, "s": 413, "t": 414, "曲": 415, "生まれ": 416, "##フジテレビジョン##": 417, "状態": 418, "影響": 419, "路線": 420, "##アメリカ合衆国##": 421, "一方": 422, "2月": 423, "−": 424, "##2005年##": 425, "そして": 426, "R": 427, "使わ": 428, "音楽": 429, "記事": 430, "販売": 431, "##2016年##": 432, "大会": 433, "十": 434, "歴史": 435, "##東京都##": 436, "別": 437, "所": 438, "一覧": 439, "当": 440, "紹介": 441, "|": 442, "作": 443, "です": 444, "アルバム": 445, "ゲーム": 446, "地区": 447, "建設": 448, "これら": 449, "構成": 450, "【": 451, "男": 452, "史": 453, "##2019年##": 454, "場所": 455, "受賞": 456, "アメリカ": 457, "公開": 458, "複数": 459, "##2004年##": 460, "メンバー": 461, "書": 462, "】": 463, "時間": 464, "運行": 465, "##2014年##": 466, "母": 467, ";": 468, "とも": 469, "卒業": 470, "製作": 471, ">": 472, "開業": 473, "例": 474, "東京": 475, "##2021年##": 476, "しまう": 477, "##2013年##": 478, "ところ": 479, "全て": 480, "王": 481, "部分": 482, "2002年": 483, "公式サイト": 484, "株式会社": 485, "##2020年##": 486, "さん": 487, "ものの": 488, "指定": 489, "##2017年##": 490, "##TBSテレビ##": 491, "高い": 492, "P": 493, "に対する": 494, "含む": 495, "手": 496, "発行": 497, "方": 498, "月": 499, "15": 500, "持っ": 501, "##2001年##": 502, "会社": 503, "決定": 504, "2001年": 505, "﻿": 506, "向け": 507, "結婚": 508, "完成": 509, "伴い": 510, "g": 511, "web": 512, "達": 513, "近い": 514, "のち": 515, "実施": 516, "機能": 517, "企画": 518, "就任": 519, "html": 520, "娘": 521, "台": 522, "子": 523, "町": 524, "##2003年##": 525, "点": 526, "体": 527, "得": 528, "たら": 529, "人間": 530, "与え": 531, "news": 532, "M": 533, "ん": 534, "グループ": 535, "対応": 536, "本作": 537, "目的": 538, "女": 539, "##2018年##": 540, ".jp": 541, "記念": 542, "姿": 543, "獲得": 544, "##2022年##": 545, "2000年": 546, "採用": 547, "村": 548, "#": 549, "いく": 550, "##2000年##": 551, "1998年": 552, "##イギリス##": 553, "下さい": 554, "経": 555, "たい": 556, "大きな": 557, "代表": 558, "i": 559, "局": 560, "との": 561, "コーナー": 562, "＝": 563, "編曲": 564, "最も": 565, "L": 566, "表記": 567, "000": 568, "対": 569, "敵": 570, "方面": 571, "特徴": 572, "実際": 573, "S": 574, "出版": 575, "話": 576, "×": 577, "活躍": 578, "全国": 579, "k": 580, "発見": 581, "車": 582, "乗車": 583, "彼女": 584, "施設": 585, "長": 586, "次": 587, "続け": 588, "法": 589, "生活": 590, "出": 591, "キャラクター": 592, "脚本": 593, "I": 594, "相手": 595, "ほとんど": 596, "よる": 597, "製造": 598, "期": 599, "##テレビ朝日##": 600, "由来": 601, "16": 602, "初めて": 603, "始め": 604, "しか": 605, "結成": 606, "死去": 607, "技術": 608, "掲載": 609, "##フランス##": 610, "2年": 611, "内容": 612, "1999年": 613, "原作": 614, "管理": 615, "通常": 616, "##4月1日##": 617, "両": 618, "付": 619, "理由": 620, "―": 621, "学校": 622, "道": 623, "##東日本旅客鉄道##": 624, "システム": 625, "といった": 626, "何": 627, "時期": 628, "言わ": 629, "隊": 630, "演出": 631, "##2002年##": 632, "最大": 633, "にかけて": 634, "リリース": 635, "様々": 636, "整備": 637, "室": 638, "##日本テレビ放送網##": 639, "2001": 640, "日本語": 641, "デザイン": 642, "移動": 643, "3年": 644, "タイトル": 645, "人員": 646, "｜": 647, "新た": 648, "自ら": 649, "##英語##": 650, "交差点": 651, "導入": 652, "物": 653, "co.jp": 654, "項目": 655, "能力": 656, "有する": 657, "一番": 658, "妻": 659, "場": 660, "センター": 661, "北": 662, "部隊": 663, "E": 664, "に対し": 665, "%": 666, "その他": 667, "シーズン": 668, "著": 669, "氏": 670, ")”.": 671, "##日本放送協会##": 672, "区間": 673, "撮影": 674, "すべて": 675, "大きく": 676, "再": 677, "いっ": 678, "よく": 679, "同時に": 680, "協力": 681, "テレビ": 682, "歌": 683, "鉄道": 684, "加え": 685, "市": 686, "説": 687, "デビュー": 688, "初期": 689, "モデル": 690, "2人": 691, "方法": 692, "四": 693, "都市": 694, "高": 695, "）-": 696, "JR": 697, "多数": 698, "18": 699, "過去": 700, "主人公": 701, "勝利": 702, "de": 703, "にも": 704, "大学": 705, "ホーム": 706, "調査": 707, "示す": 708, "完全": 709, "提供": 710, "##声優##": 711, "字": 712, "登録": 713, "##株式会社_(日本)##": 714, "1996年": 715, "再び": 716, "試合": 717, "14": 718, "X": 719, "しまっ": 720, "物語": 721, "色": 722, "org": 723, "to": 724, "予定": 725, "先": 726, "変化": 727, "1997年": 728, "組": 729, "集": 730, "イベント": 731, "企業": 732, "組織": 733, "z": 734, "成功": 735, "東": 736, "D": 737, "状況": 738, "入っ": 739, "運営": 740, "いずれ": 741, "データ": 742, "南": 743, "訳": 744, "認め": 745, "frac": 746, "み": 747, "一人": 748, "西": 749, "19": 750, "周辺": 751, "探し": 752, "搭載": 753, "評価": 754, "部門": 755, "ほぼ": 756, "1回": 757, "公演": 758, "17": 759, "21": 760, "##大正##": 761, "非常": 762, "製": 763, "）”.": 764, "道路": 765, "on": 766, "ステージ": 767, "性格": 768, "入り": 769, "まま": 770, "付近": 771, "社長": 772, "駅": 773, "F": 774, "館": 775, "選ん": 776, "合併": 777, "程度": 778, "##映画##": 779, "科": 780, "展開": 781, "そのため": 782, "不明": 783, "表示": 784, "25": 785, "r": 786, "，": 787, "末": 788, "英": 789, "あるいは": 790, "枠": 791, "私": 792, "金": 793, "シングル": 794, "for": 795, "イタリア語": 796, "##株式会社##": 797, "編成": 798, "ここ": 799, ")、": 800, "13": 801, "山": 802, "22": 803, "水": 804, "よ": 805, "言葉": 806, "連載": 807, "関連": 808, "適切": 809, "含ま": 810, "賞": 811, "##北海道##": 812, "移転": 813, "##1997年##": 814, "べき": 815, "カード": 816, "4年": 817, "主演": 818, "五": 819, "追加": 820, "種": 821, "為": 822, "独立": 823, "##1999年##": 824, "今": 825, "本人": 826, "##1998年##": 827, "行動": 828, "1995年": 829, "改称": 830, "経営": 831, "公式": 832, "車両": 833, "くる": 834, "用語": 835, "装備": 836, "見つけ": 837, "対象": 838, "政府": 839, "重要": 840, "?": 841, "個": 842, "##国立統計研究所_(イタリア)##": 843, "24": 844, "N": 845, "J": 846, "申請": 847, "初代": 848, "高校": 849, "主張": 850, "以来": 851, "－": 852, "使っ": 853, "本社": 854, "戦闘": 855, "サービス": 856, "弟": 857, "##千葉県##": 858, "人気": 859, "生産": 860, "同じく": 861, "付け": 862, "翌": 863, "確認": 864, "経由": 865, "曖昧さ回避": 866, "以後": 867, "教授": 868, "番号": 869, "特別": 870, "好き": 871, "j": 872, "成立": 873, "移籍": 874, "工場": 875, "強い": 876, "子供": 877, "挙げ": 878, "契約": 879, "1994年": 880, "形成": 881, "彼ら": 882, "II": 883, "T": 884, "拡大": 885, "石": 886, "記述": 887, "全体": 888, "国内": 889, "設計": 890, "人口": 891, "統合": 892, "##1995年##": 893, "演奏": 894, "戦い": 895, "列車": 896, "文化": 897, "構造": 898, "工事": 899, "人々": 900, "##講談社##": 901, "50": 902, "形式": 903, "城": 904, "女子": 905, "外": 906, "立": 907, "受ける": 908, "開通": 909, "##メートル##": 910, "##1996年##": 911, "巻": 912, "馬": 913, "y": 914, "北緯": 915, "よれ": 916, "資料": 917, "2006": 918, "JR東日本": 919, "コース": 920, "唯一": 921, "来": 922, "連続": 923, "途中": 924, "頭": 925, "##ドイツ##": 926, "新しい": 927, "中央": 928, "入る": 929, "現代": 930, "群": 931, "息子": 932, "支援": 933, "東経": 934, "製品": 935, "発展": 936, "元年": 937, "兄": 938, "制度": 939, "島": 940, "年鑑": 941, "##1994年##": 942, "なけれ": 943, "はじめ": 944, "ごと": 945, "舞台": 946, "スペシャル": 947, "中国": 948, "23": 949, "舎": 950, "回": 951, "仕事": 952, "楽曲": 953, "生": 954, "行い": 955, "##1985年##": 956, "1992年": 957, "方式": 958, "そこ": 959, "共同": 960, "張り替え": 961, "開設": 962, "##俳優##": 963, "1日": 964, "ドラマ": 965, "1991年": 966, "船": 967, "類": 968, "水先案内": 969, "引退": 970, "2007": 971, "制": 972, "小": 973, "心": 974, "映像": 975, "表現": 976, "ご": 977, "音": 978, "可能性": 979, "##1993年##": 980, "夜": 981, "破壊": 982, "##イタリア##": 983, "09": 984, "クラス": 985, "品": 986, "迷鳥": 987, "取得": 988, "大型": 989, "県": 990, "顔": 991, "量": 992, "##1984年##": 993, "ゲスト": 994, "by": 995, "す": 996, "G": 997, "リンク切れ": 998, "分類": 999, "橋": 1000, "言う": 1001, "地方": 1002, "近く": 1003, "1人": 1004, "運用": 1005, "1989年": 1006, "星": 1007, "風": 1008, "archive": 1009, "効果": 1010, "pdf": 1011, "協会": 1012, "述べ": 1013, "雑誌": 1014, "解散": 1015, "##4月##": 1016, "経験": 1017, "バス": 1018, "代": 1019, "営業": 1020, "設け": 1021, "平均": 1022, "条件": 1023, "項": 1024, "100": 1025, "CD": 1026, "5年": 1027, "##1987年##": 1028, "1993年": 1029, "2つ": 1030, "口": 1031, "呼ぶ": 1032, "誕生": 1033, "^{": 1034, "教育": 1035, "ライブ": 1036, "似": 1037, "死": 1038, "いい": 1039, "かけ": 1040, "夏": 1041, "専用": 1042, "行き": 1043, "2010": 1044, "男子": 1045, "男性": 1046, "詳細": 1047, "未": 1048, "1990年": 1049, "環境": 1050, "06": 1051, "巨大": 1052, "演": 1053, "):": 1054, "クラブ": 1055, "##1991年##": 1056, "作ら": 1057, "神": 1058, "含め": 1059, "対戦": 1060, "No.": 1061, "作戦": 1062, "例えば": 1063, "監修": 1064, "にとって": 1065, "値": 1066, "写真": 1067, "合わせ": 1068, "批判": 1069, "報告": 1070, "表": 1071, "1つ": 1072, "説明": 1073, "六": 1074, "出し": 1075, "基本": 1076, "##1983年##": 1077, "ネット": 1078, "記載": 1079, "##滋賀県##": 1080, "描か": 1081, "編集": 1082, "夫": 1083, "l": 1084, "上記": 1085, "状": 1086, "事典": 1087, "原画": 1088, "求め": 1089, "##中国##": 1090, "思わ": 1091, "大阪": 1092, "復帰": 1093, "##3月##": 1094, "兵": 1095, "復活": 1096, "なし": 1097, "課": 1098, "ひとつ": 1099, "果たし": 1100, "年間": 1101, "##愛知県##": 1102, "##橋##": 1103, "事務所": 1104, "ニュース": 1105, "家族": 1106, "用法": 1107, "総合": 1108, "街": 1109, "達成": 1110, "国際": 1111, "名義": 1112, "普通": 1113, "有名": 1114, "最高": 1115, "通称": 1116, "隣接": 1117, "武器": 1118, "##1992年##": 1119, "H": 1120, "アニメ": 1121, "指摘": 1122, "支配": 1123, "持ち": 1124, "続い": 1125, "共演": 1126, "##1986年##": 1127, "つけ": 1128, "プロデューサー": 1129, "店舗": 1130, "##コムーネ##": 1131, "インタビュー": 1132, "愛": 1133, "○": 1134, "そのまま": 1135, "公園": 1136, "☆": 1137, "候補": 1138, "方向": 1139, "2008": 1140, "発足": 1141, "行": 1142, "流れ": 1143, "2009": 1144, "便": 1145, "1986年": 1146, "章": 1147, "反対": 1148, "地名": 1149, "夢": 1150, "距離": 1151, "どう": 1152, "技": 1153, "##1982年##": 1154, "##1990年##": 1155, "V": 1156, "プロ": 1157, "会長": 1158, "成績": 1159, "団体": 1160, "離れ": 1161, "停車": 1162, "配信": 1163, "海": 1164, "語句": 1165, "個人": 1166, "南部": 1167, "定義": 1168, "見る": 1169, "つつ": 1170, "地球": 1171, "使う": 1172, "翌年": 1173, "運転": 1174, "花": 1175, "期間": 1176, "死亡": 1177, "1987年": 1178, "直接": 1179, "購入": 1180, "配置": 1181, "中継": 1182, "無い": 1183, "？": 1184, "春": 1185, "至る": 1186, "刊行": 1187, "朝刊": 1188, "2回": 1189, "そう": 1190, "指揮": 1191, "運動": 1192, "＆": 1193, "員": 1194, "##1989年##": 1195, "45": 1196, "総": 1197, "身": 1198, "違い": 1199, "に関して": 1200, "残っ": 1201, "解説": 1202, "##キン肉マン##": 1203, "55": 1204, "扱い": 1205, "新設": 1206, "ユニット": 1207, "文字": 1208, "1988年": 1209, "■": 1210, "伝説": 1211, "百": 1212, "もと": 1213, "特定": 1214, "輸送": 1215, "職能": 1216, "同社": 1217, "級": 1218, "2013": 1219, "委員会": 1220, "文庫": 1221, "選択": 1222, "オープン": 1223, "シーン": 1224, "##1980年##": 1225, "主要": 1226, "10年": 1227, "##水##": 1228, "08": 1229, "ま": 1230, "直後": 1231, "自体": 1232, "最終": 1233, "正式": 1234, "篇": 1235, "置か": 1236, "35": 1237, "後半": 1238, "1984年": 1239, "4月1日": 1240, "O": 1241, "した": 1242, "之": 1243, "##1981年##": 1244, "doi": 1245, "入れ": 1246, "処理": 1247, "いわ": 1248, "逆": 1249, ".”": 1250, "務める": 1251, "指す": 1252, "##1988年##": 1253, "01": 1254, "W": 1255, "小説": 1256, "限り": 1257, "boldsymbol": 1258, "延長": 1259, "ソフト": 1260, "代わり": 1261, "原因": 1262, "地元": 1263, "論": 1264, "あまり": 1265, "え": 1266, "もっ": 1267, "基準": 1268, "わ": 1269, "まし": 1270, "##テレビ東京##": 1271, "2018": 1272, "かなり": 1273, "装置": 1274, "2005": 1275, "跡": 1276, "北部": 1277, "左": 1278, "本来": 1279, "近年": 1280, "40": 1281, "校": 1282, "迎え": 1283, "高く": 1284, "艦": 1285, "2004": 1286, "仲間": 1287, "誌": 1288, "プロフィール": 1289, "七": 1290, "徒歩": 1291, "プレスリリース": 1292, "土地": 1293, "Censimento": 1294, "Tavola": 1295, "dettaglio": 1296, "商品": 1297, "役割": 1298, "描い": 1299, "1983年": 1300, "1985年": 1301, "戦争": 1302, "書か": 1303, "父親": 1304, "位": 1305, "千": 1306, "2003": 1307, "相当": 1308, "語っ": 1309, "テーマ": 1310, "失敗": 1311, "3人": 1312, "作成": 1313, "本名": 1314, "要出典": 1315, "ベース": 1316, "八": 1317, "##岐阜県##": 1318, "機体": 1319, "独自": 1320, "04": 1321, "従来": 1322, "現れ": 1323, "小学校": 1324, "挑戦": 1325, "経済": 1326, "きっかけ": 1327, "レギュラー": 1328, "展示": 1329, "屋": 1330, "指導": 1331, "スタジオ": 1332, "出来": 1333, "明らか": 1334, "##朝日新聞##": 1335, "レベル": 1336, "新聞": 1337, "進出": 1338, "全員": 1339, "実現": 1340, "除く": 1341, "27": 1342, "フランス": 1343, "加入": 1344, "朝": 1345, "諸": 1346, "非": 1347, "かつ": 1348, "継承": 1349, "##中華人民共和国##": 1350, "あれ": 1351, "CM": 1352, "05": 1353, "団": 1354, "社会": 1355, "系統": 1356, "28": 1357, "バージョン": 1358, "公": 1359, "妹": 1360, "続く": 1361, "##栃木県##": 1362, "⁡": 1363, "拠点": 1364, "用いる": 1365, "##1971年##": 1366, "2000": 1367, "ファン": 1368, "TV": 1369, "タイプ": 1370, "各地": 1371, "要素": 1372, "##キロメートル##": 1373, ")。": 1374, "入学": 1375, "区": 1376, "進め": 1377, "article": 1378, "秋": 1379, "行く": 1380, "起こし": 1381, "業務": 1382, "発射": 1383, "##1969年##": 1384, "##茨城県##": 1385, "##静岡県##": 1386, "基本的": 1387, "増加": 1388, "戦後": 1389, "##1970年##": 1390, "6年": 1391, "後述": 1392, "木": 1393, "裏": 1394, "上げ": 1395, "派": 1396, "エリア": 1397, "(@": 1398, ".,": 1399, "スタッフ": 1400, "図": 1401, "残し": 1402, "限定": 1403, "発": 1404, "26": 1405, "st": 1406, "制限": 1407, "川": 1408, "USS": 1409, "しよ": 1410, "建物": 1411, "##1972年##": 1412, "##1974年##": 1413, "選": 1414, "##東映##": 1415, "生徒": 1416, "超": 1417, "長男": 1418, "すぐ": 1419, "強く": 1420, "旅": 1421, "結ぶ": 1422, "1981年": 1423, "ウェイバックマシン": 1424, "披露": 1425, "前後": 1426, "en": 1427, "ヶ月": 1428, "少女": 1429, "維持": 1430, "接続": 1431, "1982年": 1432, "1位": 1433, "強化": 1434, "デジタル": 1435, "成長": 1436, "規定": 1437, "##東宝##": 1438, "命": 1439, "読売新聞": 1440, "伝え": 1441, "分布": 1442, ".s": 1443, "内部": 1444, "SS": 1445, "おら": 1446, "ラジオ": 1447, "仕様": 1448, "権": 1449, "観光": 1450, "##小学館##": 1451, "しばしば": 1452, "ビル": 1453, "リーグ": 1454, "全く": 1455, "20年": 1456, "K": 1457, "分野": 1458, "司会": 1459, "##1973年##": 1460, "プレイヤー": 1461, "すれ": 1462, "作家": 1463, "定め": 1464, "広く": 1465, "2011": 1466, "もしくは": 1467, "計": 1468, "勢力": 1469, "認定": 1470, "2012": 1471, "ね": 1472, "参戦": 1473, "得る": 1474, "集め": 1475, "New": 1476, "ちゃん": 1477, "』(": 1478, "メイン": 1479, "一時": 1480, "敗れ": 1481, "文書": 1482, "言っ": 1483, "##神奈川県##": 1484, "いくつか": 1485, "研究所": 1486, "米": 1487, "光": 1488, "発言": 1489, "示し": 1490, "15年": 1491, "付属": 1492, "##投手##": 1493, "07": 1494, "始まる": 1495, "学": 1496, "将軍": 1497, "自由": 1498, "選出": 1499, "少年": 1500, "案内": 1501, "母親": 1502, "界": 1503, "進行": 1504, "コレクション": 1505, "作っ": 1506, "通過": 1507, "円": 1508, "出来る": 1509, "殺害": 1510, "見せ": 1511, "超人": 1512, "##江戸時代##": 1513, "02": 1514, "サイト": 1515, "森": 1516, "病院": 1517, "Twitter": 1518, "at": 1519, "1号": 1520, "2015": 1521, "画面": 1522, "立場": 1523, "系列": 1524, "赤": 1525, "それら": 1526, "向上": 1527, "1980年": 1528, "with": 1529, "モード": 1530, "停止": 1531, "支持": 1532, "DVD": 1533, "スタート": 1534, "所有": 1535, "気": 1536, "美術": 1537, "12年": 1538, "移行": 1539, "連絡": 1540, "国鉄": 1541, "改造": 1542, "選ば": 1543, "##10月##": 1544, "操作": 1545, "決め": 1546, "異なり": 1547, "科学": 1548, "##シングル##": 1549, "出力": 1550, "9年": 1551, "俳優": 1552, "委員": 1553, "推進": 1554, "2002": 1555, "スポーツ": 1556, "主催": 1557, "交流": 1558, "本部": 1559, "右": 1560, "番": 1561, "##ロシア##": 1562, "1970年": 1563, "特殊": 1564, "住民": 1565, "速度": 1566, "毎年": 1567, "##1978年##": 1568, "呼称": 1569, "作業": 1570, "発着": 1571, "8年": 1572, "九": 1573, "席": 1574, "継続": 1575, "2016": 1576, "プロジェクト": 1577, "判断": 1578, "愛称": 1579, "##大阪府##": 1580, "32": 1581, "vs": 1582, "長い": 1583, "ぬ": 1584, "一定": 1585, "兄弟": 1586, "様": 1587, "周囲": 1588, "文": 1589, "標準": 1590, "減少": 1591, "3回": 1592, "イギリス": 1593, "先生": 1594, "1975年": 1595, "ルート": 1596, "少ない": 1597, "条": 1598, "表す": 1599, "再開": 1600, "共通": 1601, "常に": 1602, "##1979年##": 1603, "Press": 1604, "専門": 1605, "31": 1606, "こう": 1607, "受けて": 1608, "2014": 1609, "動物": 1610, "向かう": 1611, "様子": 1612, "海外": 1613, "良い": 1614, "1年": 1615, "もう": 1616, "禁止": 1617, "を通じて": 1618, "セット": 1619, "交換": 1620, "付き": 1621, "出現": 1622, "１": 1623, "1979年": 1624, "メートル": 1625, "既に": 1626, "7年": 1627, "」(": 1628, "ー": 1629, "対策": 1630, "1978年": 1631, "29": 1632, "主題歌": 1633, "共に": 1634, "支店": 1635, "起用": 1636, "やすい": 1637, "バンド": 1638, "分離": 1639, "君": 1640, "要求": 1641, "}{": 1642, "海軍": 1643, "域": 1644, "毎週": 1645, "派遣": 1646, "消滅": 1647, "イメージ": 1648, "出る": 1649, "前作": 1650, "描写": 1651, "03": 1652, "機関": 1653, "3つ": 1654, "プログラム": 1655, "プロデュース": 1656, "前述": 1657, "報道": 1658, "政治": 1659, "<": 1660, "エネルギー": 1661, "エンジン": 1662, "二人": 1663, "議員": 1664, "お知らせ": 1665, "スタイル": 1666, "演じ": 1667, "範囲": 1668, "自然": 1669, "設備": 1670, "##1976年##": 1671, "##賞##": 1672, "訓練": 1673, "２": 1674, "無": 1675, "被害": 1676, "##1977年##": 1677, "2017": 1678, "3月21日": 1679, "しまい": 1680, "あ": 1681, "つい": 1682, "レース": 1683, "言語": 1684, "終点": 1685, "##10月1日##": 1686, "事故": 1687, "交通": 1688, "変え": 1689, "種類": 1690, "いわゆる": 1691, "困難": 1692, "身長": 1693, "･": 1694, "ポイント": 1695, "友人": 1696, "宇宙": 1697, "段階": 1698, "中止": 1699, "創設": 1700, "4人": 1701, "}\\": 1702, "あたる": 1703, "制定": 1704, "古代": 1705, "貢献": 1706, "辞典": 1707, "##アナウンサー##": 1708, "##固有種##": 1709, "##埼玉県##": 1710, "THE": 1711, "低い": 1712, "国家": 1713, "称し": 1714, "##丁目##": 1715, "営業所": 1716, "政策": 1717, "帰国": 1718, "考える": 1719, "##1945年##": 1720, "形態": 1721, "更に": 1722, "編入": 1723, "普及": 1724, "##1975年##": 1725, "ブランド": 1726, "単位": 1727, "幅": 1728, "書い": 1729, "竣工": 1730, "韓国": 1731, "500": 1732, "場面": 1733, "工業": 1734, "門": 1735, "1番": 1736, "わけ": 1737, "アイテム": 1738, "感じ": 1739, "登場人物": 1740, "18年": 1741, "どの": 1742, "向かっ": 1743, "客": 1744, "思っ": 1745, "##日本国有鉄道##": 1746, "2番": 1747, "市民": 1748, "弾": 1749, "注目": 1750, "適用": 1751, "黒": 1752, "19年": 1753, "白": 1754, "年度": 1755, "姉": 1756, "年齢": 1757, "建築": 1758, "比較的": 1759, "10月1日": 1760, "だが": 1761, "まだ": 1762, "メーカー": 1763, "命令": 1764, "戦う": 1765, "ボス": 1766, "伴う": 1767, "土": 1768, "大規模": 1769, "提案": 1770, "最終的": 1771, "観測": 1772, "##大韓民国##": 1773, "11年": 1774, "ずつ": 1775, "命名": 1776, "特集": 1777, "##横浜市##": 1778, "。.": 1779, "作る": 1780, "理論": 1781, "直前": 1782, "終わっ": 1783, "起点": 1784, "##第二次世界大戦##": 1785, "u": 1786, "る": 1787, "保存": 1788, "始める": 1789, "棟": 1790, "目標": 1791, "魔": 1792, "##大阪市##": 1793, "v": 1794, "こ": 1795, "ドイツ": 1796, "改名": 1797, "足": 1798, "##1961年##": 1799, "##キン肉マンの登場人物##": 1800, "伝": 1801, "戻っ": 1802, "規模": 1803, "建て": 1804, "漫画": 1805, "2019": 1806, "恋": 1807, "訪れ": 1808, "ヨーロッパ": 1809, "人生": 1810, "単独": 1811, "傾向": 1812, "博士": 1813, "大きい": 1814, "学会": 1815, "昭和": 1816, "更新": 1817, "隻": 1818, "##1965年##": 1819, ")（": 1820, "火": 1821, "わずか": 1822, "動き": 1823, "器": 1824, "沿い": 1825, "人名": 1826, "在籍": 1827, "応じ": 1828, "##ヨーロッパ##": 1829, "1977年": 1830, "ノ": 1831, "与える": 1832, "入口": 1833, "入社": 1834, "回復": 1835, "往復": 1836, "植物": 1837, "目指し": 1838, "領": 1839, "らしい": 1840, "区別": 1841, "コーチ": 1842, "地点": 1843, "族": 1844, "皇帝": 1845, "ください": 1846, "ストーリー": 1847, "前身": 1848, "後期": 1849, "所在地": 1850, "率": 1851, "知っ": 1852, "郡": 1853, "##西日本旅客鉄道##": 1854, "大量": 1855, "##1968年##": 1856, "80": 1857, "]。": 1858, "今日": 1859, "供給": 1860, "元々": 1861, "妃": 1862, "統一": 1863, "誰": 1864, "60": 1865, "進学": 1866, "ホームページ": 1867, "見える": 1868, "1976年": 1869, "こちら": 1870, "到着": 1871, "市場": 1872, "検討": 1873, "確保": 1874, "記憶": 1875, "通信": 1876, "魔法": 1877, "ID": 1878, "対立": 1879, "段": 1880, "空": 1881, "置く": 1882, "##アルバム##": 1883, "##集英社##": 1884, "54": 1885, "合体": 1886, "思い": 1887, "改正": 1888, "行為": 1889, "##糸満##": 1890, "意見": 1891, "趣味": 1892, "2位": 1893, "半": 1894, "地下": 1895, "比べ": 1896, "部長": 1897, "録音": 1898, "面積": 1899, "from": 1900, "′": 1901, "メディア": 1902, "体制": 1903, "基づく": 1904, "学生": 1905, "層": 1906, "##町##": 1907, "」”.": 1908, "の子": 1909, "許可": 1910, "通算": 1911, "200": 1912, "一族": 1913, "勤務": 1914, "多かっ": 1915, "市内": 1916, "過ぎ": 1917, "食べ": 1918, "##東京##": 1919, "差": 1920, "術": 1921, "すなわち": 1922, "カテゴリ": 1923, "スーパー": 1924, "宣言": 1925, "拡張": 1926, "##る##": 1927, "##ソビエト連邦##": 1928, "丸": 1929, "共著": 1930, "呼ん": 1931, "料理": 1932, "##スペイン##": 1933, "30年": 1934, "‐": 1935, "やや": 1936, "少なく": 1937, "高さ": 1938, "##東京大学##": 1939, "出す": 1940, "性能": 1941, "指名": 1942, "##長野県##": 1943, "34": 1944, "log": 1945, "得意": 1946, "像": 1947, "夕刊": 1948, "子会社": 1949, "施行": 1950, "1974年": 1951, "NHK": 1952, "こうした": 1953, "各種": 1954, "基礎": 1955, "持た": 1956, "業": 1957, "無料": 1958, "要": 1959, "##1966年##": 1960, "1999": 1961, "会員": 1962, "備え": 1963, "再生": 1964, "回転": 1965, "球団": 1966, "なさ": 1967, "保護": 1968, "初登場": 1969, "撤退": 1970, "治療": 1971, "生息": 1972, "略称": 1973, "Y": 1974, "副": 1975, "そこで": 1976, "入団": 1977, "比較": 1978, "ed": 1979, "ホール": 1980, "否定": 1981, "##沖縄県##": 1982, "3位": 1983, "7月3日": 1984, "属する": 1985, "University": 1986, "キャラ": 1987, "依頼": 1988, "板": 1989, "産": 1990, "青年": 1991, "不定期": 1992, "京都": 1993, "提出": 1994, "##1967年##": 1995, "*": 1996, "1998": 1997, "22年": 1998, "中学校": 1999, "入門": 2000, "兼": 2001, "意識": 2002, "決勝": 2003, "生物": 2004, "モンスター": 2005, "創立": 2006, "歴代": 2007, "画": 2008, "計算": 2009, "謎": 2010, "くれ": 2011, "国民": 2012, "実験": 2013, "横浜": 2014, "空間": 2015, "##バンド_(音楽)##": 2016, "ばかり": 2017, "サポート": 2018, "執筆": 2019, "絵": 2020, "続ける": 2021, "記": 2022, "制御": 2023, "変形": 2024, "建造": 2025, "残り": 2026, "!!": 2027, "1972年": 2028, "1巻": 2029, "2020": 2030, "44": 2031, "et": 2032, "ネタ": 2033, "出演者": 2034, "吸収": 2035, "当主": 2036, "産業": 2037, "話題": 2038, "##日本語##": 2039, "##朝鮮##": 2040, "13年": 2041, "ただ": 2042, "ヒット": 2043, "始まっ": 2044, "小さな": 2045, "形状": 2046, "期待": 2047, "田中": 2048, "起き": 2049, "##1943年##": 2050, "3月31日": 2051, "取材": 2052, "文学": 2053, "集団": 2054, "17年": 2055, "1971年": 2056, "同士": 2057, "所在": 2058, "最": 2059, "運航": 2060, "高速": 2061, "魚": 2062, "ツアー": 2063, "劇場": 2064, "地上": 2065, "天": 2066, "死後": 2067, "##1963年##": 2068, "##天正##": 2069, "30分": 2070, "理解": 2071, "空港": 2072, "結局": 2073, "青": 2074, "##千代田区##": 2075, "q": 2076, "放映": 2077, "枚": 2078, "王座": 2079, "部屋": 2080, "33": 2081, "right": 2082, "ソロ": 2083, "図書館": 2084, "応援": 2085, "歌詞": 2086, "}{\\": 2087, "—": 2088, "ケース": 2089, "現場": 2090, "試験": 2091, "優れ": 2092, "全線": 2093, "同盟": 2094, "増え": 2095, "昇格": 2096, "##漫画##": 2097, "14年": 2098, "Japan": 2099, "こそ": 2100, "作り": 2101, "第1話": 2102, "高橋": 2103, "なか": 2104, "アーティスト": 2105, "任務": 2106, "少し": 2107, "改良": 2108, "部下": 2109, "1本": 2110, "36": 2111, "4月21日": 2112, "飛行": 2113, "##1964年##": 2114, "助け": 2115, "卒業後": 2116, "寺": 2117, "米国": 2118, "left": 2119, "ダメージ": 2120, "ブログ": 2121, "会議": 2122, "完了": 2123, "2号": 2124, "分け": 2125, "師": 2126, "記さ": 2127, "領域": 2128, "1973年": 2129, "World": 2130, "つ": 2131, "反応": 2132, "古く": 2133, "固定": 2134, "概念": 2135, "歌手": 2136, "流れる": 2137, "進む": 2138, "##令和##": 2139, "コンビ": 2140, "判明": 2141, "区域": 2142, "取っ": 2143, "夫人": 2144, "長さ": 2145, ".;": 2146, "Vulnerable": 2147, "アナウンサー": 2148, "収め": 2149, "合流": 2150, "小型": 2151, "準備": 2152, "閉鎖": 2153, "SP": 2154, "ころ": 2155, "つまり": 2156, "やがて": 2157, "兵士": 2158, "基地": 2159, "官": 2160, "残る": 2161, "組み合わせ": 2162, "首": 2163, "どちら": 2164, "傘下": 2165, "刊": 2166, "原則": 2167, "概要": 2168, "用意": 2169, "認識": 2170, "##福島県##": 2171, "##群馬県##": 2172, "だろ": 2173, "両親": 2174, "供用": 2175, "保有": 2176, "前年": 2177, "大幅": 2178, "語る": 2179, "議会": 2180, "km": 2181, "のり": 2182, "エピソード": 2183, "国立国会図書館": 2184, "背景": 2185, "HP": 2186, "January": 2187, "そのもの": 2188, "合計": 2189, "日曜": 2190, "全長": 2191, "帯": 2192, "率い": 2193, "方針": 2194, "腕": 2195, "逮捕": 2196, "##台湾##": 2197, "7月1日": 2198, "バス停": 2199, "初版": 2200, "剣": 2201, "占領": 2202, "著作": 2203, "西部": 2204, "鈴木": 2205, "##妖怪##": 2206, "##植物園##": 2207, "事実": 2208, "件": 2209, "描く": 2210, "流": 2211, "##カナダ##": 2212, "##年##": 2213, "1968年": 2214, "U": 2215, "住宅": 2216, "個体": 2217, "出さ": 2218, "さまざま": 2219, "告示": 2220, "土曜": 2221, "求める": 2222, "生じ": 2223, "見え": 2224, "限ら": 2225, "鬼": 2226, "北側": 2227, "正確": 2228, "着": 2229, "64": 2230, "めぐる": 2231, "カラー": 2232, "コンサート": 2233, "売却": 2234, "移管": 2235, "西側": 2236, "##世界遺産##": 2237, "21年": 2238, "リニューアル": 2239, "不": 2240, "作中": 2241, "広場": 2242, "機械": 2243, "縁": 2244, "1997": 2245, "300": 2246, "パワー": 2247, "低下": 2248, "古い": 2249, "固有種": 2250, "壁": 2251, "東部": 2252, "確定": 2253, "祭": 2254, "職": 2255, "自動車": 2256, "1967年": 2257, "Q": 2258, "女優": 2259, "帝国": 2260, "本編": 2261, "注意": 2262, "登板": 2263, "真": 2264, "予選": 2265, "民": 2266, "立て": 2267, "進ん": 2268, "野球": 2269, "長く": 2270, "##教授##": 2271, "##歌手##": 2272, "かかわら": 2273, "やっ": 2274, "姓": 2275, "御": 2276, "57": 2277, "International": 2278, "共": 2279, "模様": 2280, "親": 2281, "##い##": 2282, "べく": 2283, "加盟": 2284, "##兵庫県##": 2285, "まとめ": 2286, "トップ": 2287, "実は": 2288, "意": 2289, "表明": 2290, "##2月##": 2291, "##パリ##": 2292, "1995": 2293, "って": 2294, "もつ": 2295, "クリア": 2296, "ランキング": 2297, "実": 2298, "軸": 2299, "分析": 2300, "報": 2301, "日記": 2302, "生き": 2303, "院": 2304, "}}": 2305, "}}}": 2306, "平日": 2307, "戻る": 2308, "##1月##": 2309, "status": 2310, "よい": 2311, "侵攻": 2312, "出典": 2313, "姫": 2314, "横": 2315, "!」": 2316, "##1947年##": 2317, "ちなみに": 2318, "イラスト": 2319, "士": 2320, "守る": 2321, "教え": 2322, "知る": 2323, "近代": 2324, "##大阪##": 2325, "1969年": 2326, "47": 2327, "Population": 2328, "作者": 2329, "公表": 2330, "引き続き": 2331, "機構": 2332, "5回": 2333, "id": 2334, "事実上": 2335, "休止": 2336, "再現": 2337, "変わっ": 2338, "外部": 2339, "観客": 2340, "重": 2341, "離脱": 2342, "##1944年##": 2343, "まず": 2344, "孫": 2345, "現地": 2346, "置い": 2347, "週": 2348, "選挙": 2349, "額": 2350, "70": 2351, "上昇": 2352, "現役": 2353, "買収": 2354, "##1962年##": 2355, "コード": 2356, "ナレーション": 2357, "プレイ": 2358, "ロシア": 2359, "党": 2360, "大き": 2361, "崩壊": 2362, "繰り返し": 2363, "防衛": 2364, "16年": 2365, "上の": 2366, "東口": 2367, "}}\\": 2368, "データベース": 2369, "使い": 2370, "公式ウェブサイト": 2371, "暮らし": 2372, "案": 2373, "結ん": 2374, "脱退": 2375, "##怪獣##": 2376, "2巻": 2377, "――": 2378, "テレビアニメ": 2379, "ファイル": 2380, "倒さ": 2381, "十分": 2382, "次男": 2383, "立ち": 2384, "調整": 2385, "＞": 2386, "##新潟県##": 2387, "##福岡県##": 2388, "とっ": 2389, "ディレクター": 2390, "前半": 2391, "危険": 2392, "子孫": 2393, "率いる": 2394, "運輸": 2395, "##岩波書店##": 2396, "##神##": 2397, "1994": 2398, "2本": 2399, "sex": 2400, "あたり": 2401, "なぜ": 2402, "実行": 2403, "旅客": 2404, "東側": 2405, "詩": 2406, "ごろ": 2407, "チャンネル": 2408, "体重": 2409, "冊": 2410, "分割": 2411, "刑事": 2412, "地位": 2413, "始まり": 2414, "当たる": 2415, "都": 2416, "録": 2417, "##高等学校##": 2418, "III": 2419, "一種": 2420, "会場": 2421, "命じ": 2422, "大半": 2423, "失っ": 2424, "手段": 2425, "現存": 2426, "送っ": 2427, "通っ": 2428, "冬": 2429, "##鉄道##": 2430, "o": 2431, "住む": 2432, "襲撃": 2433, "路": 2434, "##3月31日##": 2435, "43": 2436, "ホテル": 2437, "果たす": 2438, "正": 2439, "港": 2440, "読み": 2441, "Total": 2442, "コメント": 2443, "変遷": 2444, "超える": 2445, "52": 2446, "カバー": 2447, "経路": 2448, "若い": 2449, "##7月##": 2450, "##中学校##": 2451, "NAID": 2452, "Web": 2453, "投げ": 2454, "拒否": 2455, "政権": 2456, "末期": 2457, "江戸": 2458, "深夜": 2459, "講師": 2460, "集落": 2461, "順": 2462, "##言語##": 2463, "##関西テレビ放送##": 2464, "Resident": 2465, "エンディング": 2466, "性質": 2467, "扱う": 2468, "指導者": 2469, "自宅": 2470, "転換": 2471, "違う": 2472, "関西": 2473, "当該": 2474, "指示": 2475, "株式": 2476, "##9月##": 2477, "1000": 2478, "メッセージ": 2479, "一切": 2480, "取り上げ": 2481, "基づい": 2482, "対抗": 2483, "改善": 2484, "機会": 2485, "関東": 2486, "38": 2487, "サイズ": 2488, "即位": 2489, "強": 2490, "構内": 2491, "解体": 2492, "2021": 2493, "アクセス": 2494, "マップ": 2495, "リーダー": 2496, "数字": 2497, "極めて": 2498, "角": 2499, "##1959年##": 2500, "1996": 2501, "3月24日": 2502, "4回": 2503, "53": 2504, "books": 2505, "ほう": 2506, "交渉": 2507, "秘密": 2508, "解釈": 2509, "週刊": 2510, "##名古屋市##": 2511, "La": 2512, "世": 2513, "主題": 2514, "側面": 2515, "同日": 2516, "広報": 2517, "援助": 2518, "教会": 2519, "緑": 2520, "要請": 2521, "##1958年##": 2522, "51": 2523, "一般的": 2524, "伝統": 2525, "史料": 2526, "目指す": 2527, "管轄": 2528, "練習": 2529, "貨物": 2530, "集中": 2531, "##サッカー##": 2532, "42": 2533, "48": 2534, "オープニング": 2535, "作画監督": 2536, "創業": 2537, "史上": 2538, "校舎": 2539, "次第に": 2540, "議論": 2541, "関係者": 2542, "##小学校##": 2543, "リスト": 2544, "変身": 2545, "容易": 2546, "左右": 2547, "思想": 2548, "文献": 2549, "23年": 2550, "Popolazione": 2551, "abitate": 2552, "comunale": 2553, "is": 2554, "loc": 2555, "marital": 2556, "mathrm": 2557, "residente": 2558, "堂": 2559, "有力": 2560, "芸術": 2561, "下車": 2562, "地図": 2563, "盤": 2564, "知識": 2565, "編著": 2566, "超え": 2567, "交点": 2568, "希望": 2569, "役所": 2570, "推定": 2571, "活用": 2572, "譲渡": 2573, "##1949年##": 2574, "##基礎自治体##": 2575, "Kmq": 2576, "Superficie": 2577, "territoriale": 2578, "事例": 2579, "敗北": 2580, "殺さ": 2581, "深い": 2582, "解決": 2583, "訪問": 2584, "隣": 2585, "＜": 2586, "37": 2587, "go": 2588, "もっとも": 2589, "トン": 2590, "不可能": 2591, "残さ": 2592, "第一": 2593, "里": 2594, "##ニューヨーク##": 2595, "9月30日": 2596, "ライン": 2597, "仏": 2598, "低": 2599, "学科": 2600, "競技": 2601, "経緯": 2602, "書籍": 2603, "林": 2604, "29年": 2605, "TBS": 2606, "articles": 2607, "とおり": 2608, "ビデオ": 2609, "列": 2610, "原": 2611, "安定": 2612, "官報": 2613, "強力": 2614, "恐れ": 2615, "手法": 2616, "脱出": 2617, "##6月##": 2618, "##岐阜市##": 2619, "あと": 2620, "プロ野球": 2621, "停留所": 2622, "受け入れ": 2623, "炎": 2624, "無く": 2625, "知事": 2626, "至っ": 2627, "##1951年##": 2628, "75": 2629, "合格": 2630, "箇所": 2631, "##1948年##": 2632, "##大学##": 2633, "9.": 2634, "ISSN": 2635, "オンライン": 2636, "下り": 2637, "付い": 2638, "僕": 2639, "戦略": 2640, "授業": 2641, "続き": 2642, "良く": 2643, "資格": 2644, "2代目": 2645, "al": 2646, "★": 2647, "じ": 2648, "にわたって": 2649, "り": 2650, "パーツ": 2651, "マーク": 2652, "中世": 2653, "敗退": 2654, "旅行": 2655, "聞い": 2656, "著書": 2657, "％": 2658, "5月9日": 2659, "90": 2660, "ポジション": 2661, "家臣": 2662, "手紙": 2663, "臨時": 2664, "金曜": 2665, "階級": 2666, "##NHK総合テレビジョン##": 2667, "波": 2668, "物質": 2669, "美": 2670, "##1950年##": 2671, "41": 2672, "H.": 2673, "α": 2674, "パート": 2675, "ルール": 2676, "九州": 2677, "任命": 2678, "分かれ": 2679, "同一": 2680, "広島": 2681, "日本人": 2682, "表面": 2683, "関数": 2684, "24年": 2685, "di": 2686, "すぎ": 2687, "上位": 2688, "初頭": 2689, "各国": 2690, "武田": 2691, "艦隊": 2692, "##1946年##": 2693, "allcinema": 2694, "価格": 2695, "半分": 2696, "家庭": 2697, "幹部": 2698, "庫": 2699, "改革": 2700, "有し": 2701, "殺し": 2702, "生涯": 2703, "確立": 2704, "節": 2705, "締結": 2706, "##1955年##": 2707, "’": 2708, "スター": 2709, "中間": 2710, "吉田": 2711, "基": 2712, "属": 2713, "後継": 2714, "必ず": 2715, "撤去": 2716, "権利": 2717, "爆発": 2718, "着用": 2719, "行政": 2720, "）.": 2721, "＋": 2722, "##イラン##": 2723, "##フランス語##": 2724, "ガイド": 2725, "下記": 2726, "中学": 2727, "同名": 2728, "支部": 2729, "継い": 2730, "過程": 2731, "\",": 2732, "##日本の鉄道駅一覧##": 2733, "JBIS": 2734, "住ん": 2735, "取る": 2736, "姉妹": 2737, "選手権": 2738, "開局": 2739, "たとえば": 2740, "はず": 2741, "ビジネス": 2742, "攻略": 2743, "複雑": 2744, "##12月##": 2745, "##オーストラリア##": 2746, "たる": 2747, "のに": 2748, "乗っ": 2749, "併設": 2750, "入手": 2751, "動作": 2752, "同期": 2753, "安全": 2754, "戦死": 2755, "投入": 2756, "構築": 2757, "現象": 2758, "生じる": 2759, "警察": 2760, "##1954年##": 2761, "##1960年##": 2762, "##インド##": 2763, "##朝日新聞出版##": 2764, "##自由民主党_(日本)##": 2765, "##都道府県道##": 2766, "_{\\": 2767, "すでに": 2768, "ぶり": 2769, "事情": 2770, "又は": 2771, "渡辺": 2772, "犬": 2773, "精神": 2774, "翻訳": 2775, "##1941年##": 2776, "##読売ジャイアンツ##": 2777, ")」": 2778, "せん": 2779, "ネットワーク": 2780, "ボタン": 2781, "再建": 2782, "国道": 2783, "州": 2784, "座": 2785, "改修": 2786, "東北": 2787, "E3": 2788, "In": 2789, "〔": 2790, "アジア": 2791, "不足": 2792, "小さい": 2793, "教師": 2794, "混乱": 2795, "物件": 2796, "発揮": 2797, "発達": 2798, "職員": 2799, "航空": 2800, "郎": 2801, "6月1日": 2802, "or": 2803, "仕え": 2804, "南側": 2805, "卵": 2806, "当選": 2807, "普": 2808, "月曜": 2809, "称さ": 2810, "解消": 2811, "##DVD##": 2812, "##トン##": 2813, "MC": 2814, "うえ": 2815, "プレー": 2816, "入れる": 2817, "反乱": 2818, "最近": 2819, "生成": 2820, "責任": 2821, "赤い": 2822, "##トンネル##": 2823, "28年": 2824, "かかる": 2825, "コミック": 2826, "丁目": 2827, "億": 2828, "未来": 2829, "通": 2830, "閉店": 2831, "食べる": 2832, "1993": 2833, "History": 2834, "再度": 2835, "宣伝": 2836, "座標": 2837, "架空": 2838, "構想": 2839, "機器": 2840, "立候補": 2841, "翼": 2842, "身体": 2843, "関与": 2844, "鳥": 2845, "##プロジェクト:アニメ##": 2846, "冒頭": 2847, "山本": 2848, "25年": 2849, "2枚": 2850, "59": 2851, "9月1日": 2852, "アシスタント": 2853, "二つ": 2854, "獣": 2855, "現れる": 2856, "考慮": 2857, "薬": 2858, "附属": 2859, "陸軍": 2860, "##日本宣伝賞##": 2861, "〕": 2862, "中心部": 2863, "優秀": 2864, "取り": 2865, "沖縄": 2866, "研究会": 2867, "移住": 2868, "負け": 2869, "連盟": 2870, "しない": 2871, "危機": 2872, "大部分": 2873, "委託": 2874, "正体": 2875, "陣": 2876, "除い": 2877, "##地球##": 2878, "10月7日": 2879, "一家": 2880, "処分": 2881, "存続": 2882, "来る": 2883, "決意": 2884, "略": 2885, "開店": 2886, "##ピアノ##": 2887, "2月25日": 2888, "2期": 2889, "62年": 2890, "キャスター": 2891, "ロック": 2892, "商業": 2893, "定期": 2894, "対決": 2895, "帰還": 2896, "明確": 2897, "最終回": 2898, "検査": 2899, "死ん": 2900, "渡っ": 2901, "王国": 2902, "生まれる": 2903, "盛ん": 2904, "連携": 2905, "養子": 2906, "##1952年##": 2907, "##1956年##": 2908, "##日曜日##": 2909, "1回戦": 2910, "サーチ": 2911, "トーク": 2912, "健康": 2913, "山田": 2914, "時間帯": 2915, "書誌": 2916, "有効": 2917, "管": 2918, "自社": 2919, "##人口##": 2920, "##地震##": 2921, "##宮城県##": 2922, "##競走馬##": 2923, "1月1日": 2924, "3月1日": 2925, "レーベル": 2926, "学ぶ": 2927, "普段": 2928, "準決勝": 2929, "育成": 2930, "資金": 2931, "連れ": 2932, "##弁護士##": 2933, "56": 2934, "レコード": 2935, "ロボット": 2936, "大学院": 2937, "次々": 2938, "法律": 2939, "画像": 2940, "短い": 2941, "終え": 2942, "言え": 2943, "跡地": 2944, "開か": 2945, "．": 2946, "##種_(分類学)##": 2947, "2月15日": 2948, "NEWS": 2949, "ミュージカル": 2950, "将来": 2951, "新潟": 2952, "桁": 2953, "組ん": 2954, "##7月1日##": 2955, "5人": 2956, "Love": 2957, "partial": 2958, "クレジット": 2959, "ブロック": 2960, "ボール": 2961, "マン": 2962, "両者": 2963, "境": 2964, "理事長": 2965, "落ち": 2966, "規制": 2967, "起源": 2968, "退団": 2969, "長女": 2970, "##ギター##": 2971, "49": 2972, "μ": 2973, "シナリオ": 2974, "テスト": 2975, "パーソナリティ": 2976, "服": 2977, "衝突": 2978, "該当": 2979, "3月25日": 2980, "ひ": 2981, "わかる": 2982, "事態": 2983, "恋人": 2984, "悪い": 2985, "改め": 2986, "本格": 2987, "業界": 2988, "社名": 2989, "聖": 2990, "裁判": 2991, "1966年": 2992, "1期": 2993, "Near": 2994, "la": 2995, "両方": 2996, "募集": 2997, "専攻": 2998, "扱わ": 2999, "昇進": 3000, "東西": 3001, "編纂": 3002, "論文": 3003, "##1923年##": 3004, "##グラム##": 3005, "##タイ王国##": 3006, "##テレビ##": 3007, "##京都市##": 3008, "1964年": 3009, "39": 3010, "Z": 3011, "いえる": 3012, "ざる": 3013, "コンピュータ": 3014, "団地": 3015, "国王": 3016, "燃料": 3017, "結合": 3018, "連": 3019, "電気": 3020, "髪": 3021, "##1939年##": 3022, "##アイドル##": 3023, "##松竹##": 3024, "58": 3025, "77": 3026, "コトバンク": 3027, "ドル": 3028, "動画": 3029, "抵抗": 3030, "翌日": 3031, "試み": 3032, "農業": 3033, "通る": 3034, "開校": 3035, "##1920年##": 3036, "##無人駅##": 3037, "8月17日": 3038, "IMDb": 3039, "人類": 3040, "仲": 3041, "医師": 3042, "味": 3043, "在位": 3044, "学者": 3045, "定着": 3046, "捜査": 3047, "旨": 3048, "未満": 3049, "異常": 3050, "網": 3051, "起こっ": 3052, "達し": 3053, "##データベース##": 3054, "3番": 3055, "あなた": 3056, "せい": 3057, "ユーザー": 3058, "学園": 3059, "標高": 3060, "組合": 3061, "経過": 3062, "##テレビドラマ##": 3063, "12月1日": 3064, "1990": 3065, "6回": 3066, "88": 3067, "Aquila": 3068, "John": 3069, "スポンサー": 3070, "保持": 3071, "全域": 3072, "初め": 3073, "単に": 3074, "尊": 3075, "言える": 3076, "車線": 3077, "##スクラム_(ソフトウェア開発)##": 3078, "##日本における死刑##": 3079, "1965年": 3080, "代目": 3081, "反": 3082, "承認": 3083, "敷地": 3084, "病気": 3085, "相": 3086, "研究者": 3087, "藩主": 3088, "証言": 3089, "首都": 3090, "高度": 3091, "1960年": 3092, "York": 3093, "およそ": 3094, "しばらく": 3095, "サブ": 3096, "一緒": 3097, "先発": 3098, "取り入れ": 3099, "展": 3100, "演技": 3101, "用途": 3102, "相互": 3103, "胸": 3104, "車体": 3105, "選定": 3106, "重量": 3107, "雨": 3108, "［": 3109, "##陰謀論##": 3110, "27年": 3111, "7回": 3112, "レコーディング": 3113, "先輩": 3114, "別名": 3115, "名付け": 3116, "実家": 3117, "教室": 3118, "曰く": 3119, "独特": 3120, "玉": 3121, "5月1日": 3122, "65": 3123, "threatened": 3124, "いえ": 3125, "博物館": 3126, "工": 3127, "戦っ": 3128, "本体": 3129, "血": 3130, "視": 3131, "郵便局": 3132, "##12月1日##": 3133, "##毎日放送##": 3134, "91": 3135, "K.": 3136, "Ⅱ": 3137, "ジャック": 3138, "価値": 3139, "大字": 3140, "終わる": 3141, "鉄": 3142, "長年": 3143, "光線": 3144, "属し": 3145, "昔": 3146, "藤田": 3147, "類似": 3148, "##山梨県##": 3149, "##教育##": 3150, "11月1日": 3151, "8月1日": 3152, "モチーフ": 3153, "ロゴ": 3154, "中村": 3155, "優先": 3156, "勝": 3157, "提携": 3158, "攻め": 3159, "材料": 3160, "民族": 3161, "王子": 3162, "重視": 3163, "頭部": 3164, "##を##": 3165, "##新潮社##": 3166, "10分": 3167, "1階": 3168, "26年": 3169, "後任": 3170, "決まっ": 3171, "鋼": 3172, "##政党##": 3173, "11月29日": 3174, "いつも": 3175, "上部": 3176, "交代": 3177, "佐藤": 3178, "修了": 3179, "修正": 3180, "参考": 3181, "大人": 3182, "将": 3183, "打ち上げ": 3184, "渡り": 3185, "眼": 3186, "解放": 3187, "話し": 3188, "軌道": 3189, "開い": 3190, "##スウェーデン##": 3191, "1時間": 3192, "6月30日": 3193, "《": 3194, "信仰": 3195, "寺院": 3196, "影": 3197, "異なっ": 3198, "穴": 3199, "続編": 3200, "谷": 3201, "黒い": 3202, ".net": 3203, "IC": 3204, "LIVE": 3205, "せよ": 3206, "ニ": 3207, "パイロット": 3208, "伝承": 3209, "児童": 3210, "地形": 3211, "球": 3212, "許さ": 3213, "##スイス##": 3214, "40年": 3215, "4月4日": 3216, "63": 3217, "ガス": 3218, "一緒に": 3219, "今後": 3220, "到達": 3221, "外見": 3222, "大賞": 3223, "尻": 3224, "当日": 3225, "毎日": 3226, "没": 3227, "消え": 3228, "激しい": 3229, "音声": 3230, "##奈良県##": 3231, "2度目": 3232, "3巻": 3233, "協議会": 3234, "古": 3235, "変換": 3236, "多": 3237, "平和": 3238, "建立": 3239, "窓": 3240, "答え": 3241, "簡単": 3242, "軍隊": 3243, "##11月1日##": 3244, "##江戸##": 3245, "##船##": 3246, "##葉##": 3247, "##鹿児島県##": 3248, "400": 3249, "8回": 3250, "∞": 3251, "あの": 3252, "とる": 3253, "アレンジ": 3254, "エース": 3255, "ジャンル": 3256, "同時": 3257, "得点": 3258, "放つ": 3259, "##1937年##": 3260, "##ロンドン##": 3261, "American": 3262, "じゃ": 3263, "そんな": 3264, "ピアノ": 3265, "世代": 3266, "分岐": 3267, "問わ": 3268, "新人": 3269, "早く": 3270, "植民地": 3271, "準優勝": 3272, "立っ": 3273, "繁殖": 3274, "触れ": 3275, "連合": 3276, "遅れ": 3277, "３": 3278, "!（": 3279, "##イラク##": 3280, "##郷##": 3281, "w": 3282, "ヲ": 3283, "中期": 3284, "戦史叢書": 3285, "民間": 3286, "深く": 3287, "理事": 3288, "負担": 3289, "##読売新聞##": 3290, ")\\": 3291, "1991": 3292, "く": 3293, "ともに": 3294, "キャンペーン": 3295, "マシン": 3296, "上り": 3297, "以内": 3298, "患者": 3299, "本拠地": 3300, "流通": 3301, "自治体": 3302, "規則": 3303, "貴族": 3304, "開館": 3305, "##1919年##": 3306, "##オランダ##": 3307, "##コマーシャルメッセージ##": 3308, "##タレント##": 3309, "1975": 3310, "98": 3311, "Life": 3312, "int": 3313, "sin": 3314, "助": 3315, "南口": 3316, "原型": 3317, "幕府": 3318, "悪化": 3319, "涙": 3320, "統治": 3321, "輸入": 3322, "通学": 3323, "郊外": 3324, "開幕": 3325, "防御": 3326, "障害": 3327, "音源": 3328, "##プロ野球選手##": 3329, "##地上駅##": 3330, "1958年": 3331, "86": 3332, "マスター": 3333, "一員": 3334, "上映": 3335, "平成": 3336, "弟子": 3337, "復興": 3338, "投票": 3339, "指": 3340, "政治家": 3341, "沿っ": 3342, "無かっ": 3343, "被害者": 3344, "装着": 3345, "諸国": 3346, "費用": 3347, "酒": 3348, "電話": 3349, "革命": 3350, "##1922年##": 3351, "きた": 3352, "を通して": 3353, "半ば": 3354, "歌う": 3355, "程": 3356, "突破": 3357, "育て": 3358, "##11月##": 3359, "##漢字##": 3360, "をもって": 3361, "主体": 3362, "体験": 3363, "引用": 3364, "搭乗": 3365, "整理": 3366, "負傷": 3367, "遺跡": 3368, "銃": 3369, "離婚": 3370, "霊": 3371, "食": 3372, "##ポーランド##": 3373, "##京都府##": 3374, "##文藝春秋##": 3375, "##新羅##": 3376, "11月30日": 3377, "ソフトウェア": 3378, "出発": 3379, "勝負": 3380, "悪魔": 3381, "朝日新聞": 3382, "株": 3383, "歌唱": 3384, "競走": 3385, "箱": 3386, "見せる": 3387, "重ね": 3388, "##1953年##": 3389, "##ブラジル##": 3390, "##有斐閣##": 3391, "もともと": 3392, "主力": 3393, "判定": 3394, "商号": 3395, "外国": 3396, "後藤": 3397, "数多く": 3398, "楽章": 3399, "止め": 3400, "現実": 3401, "紙": 3402, "軍事": 3403, "食品": 3404, "##岡山県##": 3405, "リング": 3406, "井上": 3407, "創刊": 3408, "名古屋": 3409, "呼び": 3410, "図鑑": 3411, "実況": 3412, "小林": 3413, "打撃": 3414, "歴任": 3415, "突然": 3416, "編集部": 3417, "親友": 3418, "##1942年##": 3419, "##渤海_(国)##": 3420, "1963年": 3421, "72": 3422, "87": 3423, "∂": 3424, "さえ": 3425, "ゲスト出演": 3426, "全集": 3427, "功績": 3428, "南北": 3429, "夫婦": 3430, "寄せ": 3431, "機種": 3432, "熱": 3433, "神田": 3434, "秀吉": 3435, "第2話": 3436, "表紙": 3437, "通行": 3438, "降板": 3439, "除き": 3440, "1959年": 3441, "You": 3442, "あらゆる": 3443, "イタリア": 3444, "ライバル": 3445, "ロケ": 3446, "一致": 3447, "倒し": 3448, "再編": 3449, "合同": 3450, "哲": 3451, "太陽": 3452, "山口": 3453, "後者": 3454, "照明": 3455, "特性": 3456, "自動": 3457, "葉": 3458, "記し": 3459, "記者": 3460, "隠し": 3461, "０": 3462, "2nd": 3463, "4つ": 3464, "95": 3465, "つき": 3466, "コマンド": 3467, "伊藤": 3468, "伴っ": 3469, "北方": 3470, "授与": 3471, "毛": 3472, "病": 3473, "端": 3474, "終わり": 3475, "若干": 3476, "##バス_(交通機関)##": 3477, "2度": 3478, "4月8日": 3479, "PR": 3480, "feat": 3481, "カメラ": 3482, "テレビ番組": 3483, "バトル": 3484, "一帯": 3485, "在住": 3486, "基づき": 3487, "守備": 3488, "態度": 3489, "救助": 3490, "新版": 3491, "日々": 3492, "海岸": 3493, "縮刷": 3494, "肉": 3495, "解除": 3496, "講談社": 3497, "関": 3498, "青春": 3499, "##インドネシア##": 3500, "3号": 3501, "5分": 3502, "Journal": 3503, "亡くなっ": 3504, "単行本": 3505, "居住": 3506, "支社": 3507, "白い": 3508, "社員": 3509, "祖父": 3510, "脚": 3511, "興味": 3512, "課程": 3513, "費": 3514, "銀": 3515, "電車": 3516, "##ニッポン放送##": 3517, "8月30日": 3518, "NEC": 3519, "あげ": 3520, "すら": 3521, "てる": 3522, "仮": 3523, "変わら": 3524, "姿勢": 3525, "小松": 3526, "屋敷": 3527, "役員": 3528, "歌っ": 3529, "毎": 3530, "渡る": 3531, "筋": 3532, "読む": 3533, "重複": 3534, "##TBSラジオ##": 3535, "4位": 3536, "Live": 3537, "φ": 3538, "かも": 3539, "にあたる": 3540, "アイドル": 3541, "カット": 3542, "パターン": 3543, "ポール": 3544, "一丁目": 3545, "伝える": 3546, "信じ": 3547, "働く": 3548, "劇中": 3549, "推測": 3550, "改訂": 3551, "沖": 3552, "積極": 3553, "輪": 3554, "##テレビアニメ##": 3555, "##中国語##": 3556, "##判決_(日本法)##": 3557, "##広島県##": 3558, "1988": 3559, "83": 3560, "NC": 3561, "キャラクターデザイン": 3562, "ゴール": 3563, "タレント": 3564, "パッケージ": 3565, "一軍": 3566, "争い": 3567, "任意": 3568, "伯": 3569, "出会い": 3570, "出来事": 3571, "及": 3572, "墓": 3573, "掛け": 3574, "桜": 3575, "私立": 3576, "記号": 3577, "関心": 3578, "1957年": 3579, "66": 3580, "OP": 3581, "an": 3582, "》": 3583, "ターミナル": 3584, "免許": 3585, "劇場版": 3586, "坂": 3587, "忘れ": 3588, "撃破": 3589, "新規": 3590, "正義": 3591, "正面": 3592, "班": 3593, "魂": 3594, "］": 3595, "##5月##": 3596, "##慶長##": 3597, "##社長##": 3598, "##神社##": 3599, "20世紀": 3600, "2月1日": 3601, "76": 3602, "78": 3603, "しょう": 3604, "フリー": 3605, "丘": 3606, "回避": 3607, "嫌い": 3608, "戦士": 3609, "来日": 3610, "生命": 3611, "総称": 3612, "線路": 3613, "走る": 3614, "迎える": 3615, "長期": 3616, "##1936年##": 3617, "##1940年##": 3618, "...": 3619, "1987": 3620, "1月30日": 3621, "させ": 3622, "らしく": 3623, "キャスト": 3624, "予想": 3625, "加わっ": 3626, "実績": 3627, "実装": 3628, "審査": 3629, "数々": 3630, "書き": 3631, "源": 3632, "駐車場": 3633, "##1957年##": 3634, "##オペラ##": 3635, "##角川書店##": 3636, "46": 3637, "93": 3638, "Music": 3639, "YouTube": 3640, "}(": 3641, "どこ": 3642, "アダムズ": 3643, "利用者": 3644, "化し": 3645, "吹替": 3646, "変わる": 3647, "大手": 3648, "失わ": 3649, "実力": 3650, "延伸": 3651, "接する": 3652, "掲げ": 3653, "放送開始": 3654, "特": 3655, "男女": 3656, "相談": 3657, "空気": 3658, "第4話": 3659, "罪": 3660, "要因": 3661, "証拠": 3662, "顧問": 3663, "##神戸市##": 3664, "61": 3665, "KINENOTE": 3666, "Me": 3667, "infty": 3668, "⇒": 3669, "ヒロイン": 3670, "リスナー": 3671, "一環": 3672, "代替": 3673, "倒す": 3674, "停車場": 3675, "単純": 3676, "取引": 3677, "合成": 3678, "投稿": 3679, "検索": 3680, "着工": 3681, "逃れ": 3682, "過ごし": 3683, "配布": 3684, "##天文_(元号)##": 3685, "1962年": 3686, "National": 3687, "ごく": 3688, "ジョン": 3689, "事前": 3690, "公認": 3691, "勝ち": 3692, "学ん": 3693, "底": 3694, "教員": 3695, "最終話": 3696, "流行": 3697, "称号": 3698, "終盤": 3699, "衆": 3700, "規格": 3701, "走行": 3702, "起こり": 3703, "##クリボー_(ゲームキャラクター)##": 3704, "##名古屋鉄道##": 3705, "3日": 3706, "4月5日": 3707, "π": 3708, "ちなん": 3709, "ふ": 3710, "ドイツ語": 3711, "人形": 3712, "判決": 3713, "加工": 3714, "封": 3715, "広告": 3716, "推薦": 3717, "改装": 3718, "最新": 3719, "砲": 3720, "票": 3721, "防止": 3722, "##8月##": 3723, "ミス": 3724, "中国語": 3725, "予算": 3726, "兵器": 3727, "太郎": 3728, "支え": 3729, "決戦": 3730, "真実": 3731, "総務省": 3732, "観察": 3733, "証明": 3734, "送る": 3735, "##1929年##": 3736, "10月25日": 3737, "3月30日": 3738, "My": 3739, "News": 3740, "こうして": 3741, "それでも": 3742, "ジャンプ": 3743, "ダンス": 3744, "ベスト": 3745, "先行": 3746, "出会っ": 3747, "医療": 3748, "取扱": 3749, "噂": 3750, "回数": 3751, "声優": 3752, "放送局": 3753, "松本": 3754, "樹": 3755, "監視": 3756, "約束": 3757, "著者": 3758, "言及": 3759, "遠征": 3760, "雪": 3761, "##京都駅##": 3762, "##毎日新聞##": 3763, "1986": 3764, "1992": 3765, "99": 3766, "ど": 3767, "やすく": 3768, "占め": 3769, "同級生": 3770, "奪わ": 3771, "小さく": 3772, "屋根": 3773, "惑星": 3774, "感": 3775, "戻り": 3776, "日本代表": 3777, "最強": 3778, "殺人": 3779, "短編": 3780, "診断": 3781, "違反": 3782, "闇": 3783, "##富山県##": 3784, "4分": 3785, "85": 3786, "OF": 3787, "接触": 3788, "故郷": 3789, "柱": 3790, "難しい": 3791, "2階": 3792, "79": 3793, "NDLJP": 3794, "ρ": 3795, "ち文": 3796, "つく": 3797, "パートナー": 3798, "労働": 3799, "千葉": 3800, "境界": 3801, "委員長": 3802, "威力": 3803, "実質": 3804, "床": 3805, "従事": 3806, "想定": 3807, "放送時間": 3808, "耳": 3809, "講演": 3810, "##1921年##": 3811, "##廃線##": 3812, "8月31日": 3813, "ali": 3814, "オウム": 3815, "デモ": 3816, "ボーカル": 3817, "一旦": 3818, "仙台": 3819, "出資": 3820, "可": 3821, "合戦": 3822, "学年": 3823, "平": 3824, "徐々に": 3825, "接近": 3826, "歌集": 3827, "河川": 3828, "羽": 3829, "芸人": 3830, "血液型": 3831, "起こす": 3832, "越え": 3833, "退任": 3834, "進み": 3835, "長野": 3836, "降伏": 3837, "隊長": 3838, "##作曲##": 3839, "##潜水艦##": 3840, "150": 3841, "1丁目": 3842, "2日": 3843, "5位": 3844, "くれる": 3845, "なくなっ": 3846, "め": 3847, "ギター": 3848, "一連": 3849, "作画": 3850, "加藤": 3851, "和": 3852, "子ども": 3853, "引き継い": 3854, "循環": 3855, "括弧": 3856, "暗殺": 3857, "気持ち": 3858, "第5話": 3859, "自己": 3860, "蔵": 3861, "言い": 3862, "講座": 3863, "部品": 3864, "鍵": 3865, "##1933年##": 3866, "##1938年##": 3867, "##作曲家##": 3868, "##戦国時代_(日本)##": 3869, "4月2日": 3870, "7月31日": 3871, "9回": 3872, "いけ": 3873, "一度": 3874, "仕掛け": 3875, "会話": 3876, "報告書": 3877, "女の子": 3878, "居": 3879, "広い": 3880, "度々": 3881, "明治": 3882, "校長": 3883, "武装": 3884, "法人": 3885, "清水": 3886, "湖": 3887, "画家": 3888, "象徴": 3889, "起こる": 3890, "##商店街##": 3891, "##早稲田大学##": 3892, "##武田信玄##": 3893, "3本": 3894, "68": 3895, "WEB": 3896, "あろ": 3897, "しよう": 3898, "にくい": 3899, "タッグ": 3900, "チャンピオン": 3901, "但し": 3902, "入": 3903, "取り扱い": 3904, "大陸": 3905, "建国": 3906, "意図": 3907, "戦前": 3908, "既存": 3909, "楽器": 3910, "洞": 3911, "測定": 3912, "疑問": 3913, "示さ": 3914, "考え方": 3915, "調": 3916, "退社": 3917, "配備": 3918, "順位": 3919, "！”.": 3920, "12月15日": 3921, "it": 3922, "トラック": 3923, "モントゴメリー": 3924, "修行": 3925, "勃発": 3926, "単行": 3927, "演じる": 3928, "猫": 3929, "発音": 3930, "直径": 3931, "落選": 3932, "表し": 3933, "豊富": 3934, "軍人": 3935, "##1##": 3936, "##1924年##": 3937, "##1931年##": 3938, "##9月1日##": 3939, "##国鉄分割民営化##": 3940, "##湖西線##": 3941, "73": 3942, "VOL": 3943, "ナタリー": 3944, "ミュージック": 3945, "上流": 3946, "使える": 3947, "北陸": 3948, "変える": 3949, "当て": 3950, "役場": 3951, "急速": 3952, "書く": 3953, "爆弾": 3954, "素材": 3955, "縮小": 3956, "若手": 3957, "##札幌市##": 3958, "##火葬##": 3959, "##角川文庫##": 3960, "##香港##": 3961, "94": 3962, "VTR": 3963, "end": 3964, "いき": 3965, "ちょう": 3966, "ところが": 3967, "エンディングテーマ": 3968, "オプション": 3969, "ミュージシャン": 3970, "係": 3971, "俺": 3972, "区分": 3973, "名乗る": 3974, "尾": 3975, "当たり": 3976, "意向": 3977, "所蔵": 3978, "県道": 3979, "知り": 3980, "追放": 3981, "関わる": 3982, "雰囲気": 3983, "##味の素##": 3984, "##明##": 3985, "##朝日放送テレビ##": 3986, "##第一次世界大戦##": 3987, "3月23日": 3988, "3月29日": 3989, "50年": 3990, "mm": 3991, "とそ": 3992, "バイパス": 3993, "命中": 3994, "大統領": 3995, "幼い": 3996, "引退後": 3997, "手がけ": 3998, "料": 3999, "木村": 4000, "王妃": 4001, "着手": 4002, "祖": 4003, "第3話": 4004, "自称": 4005, "資源": 4006, "題材": 4007, "騎士": 4008, "##1926年##": 4009, "##団地##": 4010, "##親水##": 4011, "12月21日": 4012, "9月3日": 4013, "Official": 4014, "パソコン": 4015, "予約": 4016, "働き": 4017, "別に": 4018, "図書": 4019, "子供たち": 4020, "学び": 4021, "宗教": 4022, "悪く": 4023, "感情": 4024, "支所": 4025, "文化財": 4026, "晩年": 4027, "朝鮮": 4028, "沿岸": 4029, "消費": 4030, "課題": 4031, "隊員": 4032, "（株）": 4033, "##スタジオ##": 4034, "##空港##": 4035, "10月10日": 4036, "1989": 4037, "71": 4038, "des": 4039, "かかっ": 4040, "か所": 4041, "くらい": 4042, "べ": 4043, "みんな": 4044, "上陸": 4045, "並行": 4046, "代理": 4047, "刷": 4048, "勢": 4049, "反映": 4050, "成果": 4051, "滅亡": 4052, "滞在": 4053, "王者": 4054, "生きる": 4055, "金曜日": 4056, "##ABO式血液型##": 4057, "##カリフォルニア州##": 4058, "##ダブリン##": 4059, "##福井県##": 4060, "##竜##": 4061, "##讀賣テレビ放送##": 4062, "1961年": 4063, "2分": 4064, "3月27日": 4065, "press": 4066, "かん": 4067, "とても": 4068, "ブーム": 4069, "プロセス": 4070, "中部": 4071, "出席": 4072, "夫妻": 4073, "救出": 4074, "本店": 4075, "王さま": 4076, "航路": 4077, "試作": 4078, "軍団": 4079, "10月26日": 4080, "12月31日": 4081, "92": 4082, "BGM": 4083, "IV": 4084, "System": 4085, "du": 4086, "ジャパン": 4087, "スーツ": 4088, "タイム": 4089, "ペア": 4090, "以": 4091, "作用": 4092, "促進": 4093, "列伝": 4094, "少なくとも": 4095, "抑え": 4096, "指し": 4097, "提唱": 4098, "有": 4099, "木曜": 4100, "球場": 4101, "訴え": 4102, "##2月1日##": 4103, "##JTB##": 4104, "##センチメートル##": 4105, "..": 4106, "2回戦": 4107, "4月30日": 4108, "67": 4109, "81": 4110, "。,": 4111, "ゲート": 4112, "ミッション": 4113, "ライ": 4114, "伸び": 4115, "出走": 4116, "名乗っ": 4117, "基盤": 4118, "属性": 4119, "思う": 4120, "旗": 4121, "時刻表": 4122, "無視": 4123, "特番": 4124, "留学": 4125, "破り": 4126, "絶対": 4127, "英国": 4128, "西口": 4129, "退職": 4130, "##国家##": 4131, "##山形県##": 4132, ")}": 4133, "15分": 4134, "1985": 4135, "FM": 4136, "かける": 4137, "フジテレビ": 4138, "上げる": 4139, "初出": 4140, "北東": 4141, "合意": 4142, "周り": 4143, "図る": 4144, "守": 4145, "広": 4146, "強調": 4147, "扉": 4148, "描き": 4149, "日常": 4150, "毎回": 4151, "発明": 4152, "行なっ": 4153, "##1934年##": 4154, "##チューリッヒ##": 4155, "##プラットホーム##": 4156, "10月20日": 4157, "11月25日": 4158, "3月15日": 4159, "82": 4160, "8月10日": 4161, "ついに": 4162, "ませ": 4163, "カトリーヌ": 4164, "スペース": 4165, "一時期": 4166, "上下": 4167, "修理": 4168, "削除": 4169, "北口": 4170, "司令部": 4171, "名誉": 4172, "坂本": 4173, "実在": 4174, "宿": 4175, "本塁打": 4176, "無し": 4177, "称する": 4178, "稀": 4179, "質問": 4180, "近隣": 4181, "防ぐ": 4182, "##オリコンチャート##": 4183, "##中継局##": 4184, "##日本経済新聞##": 4185, "12月10日": 4186, "12月25日": 4187, "3月26日": 4188, "96": 4189, "マイル": 4190, "三男": 4191, "公式ホームページ": 4192, "前期": 4193, "半年": 4194, "印象": 4195, "強制": 4196, "悪": 4197, "文明": 4198, "最多": 4199, "演劇": 4200, "特急": 4201, "研修": 4202, "福岡": 4203, "終結": 4204, "逆転": 4205, "銀行": 4206, "##アメリカ海軍##": 4207, "##女性##": 4208, "10月15日": 4209, "11月5日": 4210, "2022": 4211, "4月10日": 4212, "7月2日": 4213, "7月8日": 4214, "U.": 4215, "sum": 4216, "アクション": 4217, "マリア": 4218, "並ん": 4219, "入院": 4220, "取ら": 4221, "太": 4222, "巨人": 4223, "時に": 4224, "発動": 4225, "簡易": 4226, "落とし": 4227, "電力": 4228, "電子": 4229, "黄": 4230, "黒澤": 4231, "）/": 4232, "##8月1日##": 4233, "##メキシコ##": 4234, "##人間##": 4235, "##山##": 4236, "##微分##": 4237, "##政権##": 4238, "##政治家##": 4239, "##沖縄バス##": 4240, "1980年代": 4241, "5日": 4242, "97": 4243, "9月15日": 4244, "e.mu": 4245, "nat": 4246, "だい": 4247, "ち": 4248, "トラブル": 4249, "利益": 4250, "収入": 4251, "取り付け": 4252, "国境": 4253, "大正": 4254, "小学生": 4255, "山下": 4256, "岩": 4257, "所持": 4258, "欧州": 4259, "続": 4260, "著名": 4261, "行なわ": 4262, "見解": 4263, "\".": 4264, "##サンリオ##": 4265, "##ボーカル##": 4266, "1月2日": 4267, "as": 4268, "htm": 4269, "pi": 4270, "かい": 4271, "つける": 4272, "もらっ": 4273, "コーラス": 4274, "サウンド": 4275, "並ぶ": 4276, "今回": 4277, "令": 4278, "休日": 4279, "例外": 4280, "侵入": 4281, "北海道": 4282, "固有": 4283, "少将": 4284, "就航": 4285, "後輩": 4286, "投手": 4287, "捨て": 4288, "歩": 4289, "策": 4290, "輸出": 4291, "通じ": 4292, "頻繁": 4293, "｢": 4294, "｣": 4295, "##:File:PIA19559-Ceres-DwarfPlanet-Dawn-OpNav8-image1-20150516.jpg##": 4296, "##ドイツ語##": 4297, "##新潟市##": 4298, "10月6日": 4299, "12月19日": 4300, "1984": 4301, "250": 4302, "2代": 4303, "4月25日": 4304, "69": 4305, "6月28日": 4306, "Information": 4307, "London": 4308, "PS": 4309, "●": 4310, "コンセプト": 4311, "ヒーロー": 4312, "信頼": 4313, "入力": 4314, "占める": 4315, "反発": 4316, "地帯": 4317, "太字": 4318, "急": 4319, "感染": 4320, "抱い": 4321, "##1980年代##": 4322, "##ニュース##": 4323, "##小説家##": 4324, "1月31日": 4325, "74": 4326, "DJ": 4327, "Reference": 4328, "したがって": 4329, "トンネル": 4330, "トーナメント": 4331, "リード": 4332, "一面": 4333, "下部": 4334, "乗り": 4335, "今作": 4336, "何らかの": 4337, "併せ": 4338, "化学": 4339, "印": 4340, "及ぶ": 4341, "双方": 4342, "圏": 4343, "奥": 4344, "広がっ": 4345, "意思": 4346, "提示": 4347, "異動": 4348, "第6話": 4349, "虎": 4350, "視点": 4351, "集まっ": 4352, "##日本の鉄道駅##": 4353, "##自動車##": 4354, "##茶##": 4355, "##道路##": 4356, "(\\": 4357, "11月19日": 4358, "4月6日": 4359, "62": 4360, "9月28日": 4361, "9月8日": 4362, "NR": 4363, "Online": 4364, "ST": 4365, "ω": 4366, "々": 4367, "やはり": 4368, "タイ": 4369, "一本": 4370, "世界中": 4371, "主流": 4372, "出版社": 4373, "土曜日": 4374, "増": 4375, "月曜日": 4376, "池": 4377, "移植": 4378, "突入": 4379, "結ば": 4380, "課長": 4381, "遺体": 4382, "電脳": 4383, "##ICOCA##": 4384, "##カトリック教会##": 4385, "##石川県##": 4386, "101": 4387, "10月3日": 4388, "2時間": 4389, "3月8日": 4390, "5月15日": 4391, "7月25日": 4392, "GT": 4393, "∑": 4394, "ある程度": 4395, "しん": 4396, "ぞ": 4397, "にわたり": 4398, "プラス": 4399, "体系": 4400, "何度": 4401, "倒れ": 4402, "帰っ": 4403, "放棄": 4404, "故障": 4405, "死ぬ": 4406, "江戸時代": 4407, "短縮": 4408, "移っ": 4409, "航空機": 4410, "認可": 4411, "運賃": 4412, "長らく": 4413, "食事": 4414, "首相": 4415, "!」（": 4416, "##1932年##": 4417, "##村##": 4418, "##漫画家##": 4419, "--": 4420, "10回": 4421, "120": 4422, "1981": 4423, "6月10日": 4424, "MB": 4425, "に際して": 4426, "ウェブサイト": 4427, "ペット": 4428, "中将": 4429, "共同運行": 4430, "出産": 4431, "弱い": 4432, "美人": 4433, "走": 4434, "転向": 4435, "##1927年##": 4436, "##ColdFusion##": 4437, "##オウム真理教##": 4438, "##大日本帝国陸軍##": 4439, "##永禄##": 4440, "##琉球バス交通##": 4441, "##花##": 4442, "##高句麗##": 4443, "007": 4444, "1955年": 4445, "1974": 4446, "4号": 4447, "4番": 4448, "5月30日": 4449, "9月4日": 4450, "Baseball": 4451, "rho": 4452, "ある日": 4453, "不満": 4454, "健": 4455, "出生": 4456, "前提": 4457, "圧力": 4458, "大公": 4459, "実践": 4460, "家督": 4461, "師匠": 4462, "恋愛": 4463, "石川": 4464, "考案": 4465, "誇る": 4466, "議席": 4467, "運命": 4468, "鏡": 4469, "##ロシア帝国##": 4470, "11月3日": 4471, "18歳": 4472, "1枚": 4473, "2月10日": 4474, "2月28日": 4475, "2着": 4476, "9月25日": 4477, "もっと": 4478, "ゆく": 4479, "下流": 4480, "事業者": 4481, "信号": 4482, "刃": 4483, "包囲": 4484, "取締役": 4485, "告白": 4486, "売上": 4487, "平成19年": 4488, "憧れ": 4489, "持ち主": 4490, "放出": 4491, "数値": 4492, "特技": 4493, "自立": 4494, "衣装": 4495, "補助": 4496, "話す": 4497, "質": 4498, "風景": 4499, "魅力": 4500, "##三重県##": 4501, "##町丁##": 4502, "10月17日": 4503, "11月21日": 4504, "4月13日": 4505, "くん": 4506, "しかしながら": 4507, "ようやく": 4508, "カラオケ": 4509, "マウント": 4510, "出店": 4511, "切り替え": 4512, "奴隷": 4513, "実用": 4514, "必ずしも": 4515, "接し": 4516, "政治的": 4517, "沿線": 4518, "温泉": 4519, "絵画": 4520, "観": 4521, "読者": 4522, "難易度": 4523, "##1925年##": 4524, "##TeX##": 4525, "##アメリカ軍##": 4526, "##ケレス_(準惑星)##": 4527, "##野球##": 4528, "7月15日": 4529, "オーディション": 4530, "プレゼント": 4531, "ミニ": 4532, "リポーター": 4533, "会館": 4534, "元気": 4535, "全部": 4536, "処刑": 4537, "厳密": 4538, "向かい": 4539, "報じ": 4540, "手掛け": 4541, "担っ": 4542, "暴走": 4543, "権力": 4544, "火曜": 4545, "物理": 4546, "第7話": 4547, "細胞": 4548, "語ら": 4549, "進化": 4550, "高校生": 4551, "##アブルッツォ州##": 4552, "##敦賀駅##": 4553, "##新潟交通##": 4554, "11月15日": 4555, "1953年": 4556, "4月15日": 4557, "4月9日": 4558, "6月26日": 4559, "F1": 4560, "PC": 4561, "アナ": 4562, "オフィシャルブログ": 4563, "キャリア": 4564, "グラフィック": 4565, "ザ": 4566, "ダブルス": 4567, "侯": 4568, "出て": 4569, "剤": 4570, "土木": 4571, "対談": 4572, "廃": 4573, "才能": 4574, "押し": 4575, "模": 4576, "正解": 4577, "牛": 4578, "縦": 4579, "豊か": 4580, "財政": 4581, "進める": 4582, "関わっ": 4583, "##3月1日##": 4584, "##ICカード##": 4585, "##糸満市##": 4586, "##群像##": 4587, "##衛満##": 4588, "##選挙##": 4589, "##阪神タイガース##": 4590, "12月20日": 4591, "3月20日": 4592, "84": 4593, "Facebook": 4594, "JR西日本": 4595, "まったく": 4596, "むら": 4597, "テレビ番組表": 4598, "ドア": 4599, "上杉": 4600, "創作": 4601, "帝": 4602, "弁護士": 4603, "恐怖": 4604, "想い": 4605, "指揮官": 4606, "措置": 4607, "数え": 4608, "美しい": 4609, "訪れる": 4610, "違っ": 4611, "黄色": 4612, "##1935年##": 4613, "##広島東洋カープ##": 4614, "11月11日": 4615, "1月15日": 4616, "3月28日": 4617, "5月21日": 4618, "9月27日": 4619, "On": 4620, "ゆえ": 4621, "オブ": 4622, "ショップ": 4623, "テレビドラマ": 4624, "不思議": 4625, "代わっ": 4626, "働い": 4627, "先端": 4628, "再会": 4629, "別れ": 4630, "味方": 4631, "庁": 4632, "改題": 4633, "旅団": 4634, "明": 4635, "水曜": 4636, "背": 4637, "苦手": 4638, "落下": 4639, "衝撃": 4640, "通う": 4641, "高級": 4642, "＊": 4643, "##アイルランド##": 4644, "##キャラクター##": 4645, "10月2日": 4646, "1年間": 4647, "5月10日": 4648, "cm": 4649, "伝わる": 4650, "依存": 4651, "偶然": 4652, "劇団": 4653, "右手": 4654, "含ん": 4655, "在": 4656, "審": 4657, "愛し": 4658, "推移": 4659, "日本国内": 4660, "次ぐ": 4661, "毒": 4662, "炉": 4663, "種族": 4664, "立つ": 4665, "貿易": 4666, "送ら": 4667, "選ぶ": 4668, "開放": 4669, "10月31日": 4670, "1月19日": 4671, "2月11日": 4672, "2月16日": 4673, "5月7日": 4674, "6号": 4675, "8月16日": 4676, "9月29日": 4677, "mu": 4678, "~": 4679, "しかも": 4680, "ひとり": 4681, "アナウンス": 4682, "オーナー": 4683, "二丁目": 4684, "低く": 4685, "公式戦": 4686, "古典": 4687, "同上": 4688, "囲ま": 4689, "挙げる": 4690, "新宿": 4691, "有料": 4692, "毎日新聞": 4693, "直線": 4694, "秋山": 4695, "秒": 4696, "競馬": 4697, "系図": 4698, "融合": 4699, "語り": 4700, "講義": 4701, "財団法人": 4702, "近郊": 4703, "##ゆでたまご##": 4704, "##キリスト教##": 4705, "##促音##": 4706, "##属_(分類学)##": 4707, "##新潮##": 4708, "10月30日": 4709, "10月5日": 4710, "11月27日": 4711, "12月5日": 4712, "1980": 4713, "5月16日": 4714, "5月25日": 4715, "6月25日": 4716, "8月20日": 4717, "あわせ": 4718, "サッカー": 4719, "ショー": 4720, "テレビ東京": 4721, "フロア": 4722, "上田": 4723, "券": 4724, "匹": 4725, "宮": 4726, "成分": 4727, "振興": 4728, "排除": 4729, "改築": 4730, "断念": 4731, "満": 4732, "王位": 4733, "県内": 4734, "示唆": 4735, "紫": 4736, "職業": 4737, "要望": 4738, "観点": 4739, "連結": 4740, "都合": 4741, "領土": 4742, "##1930年##": 4743, "##イギリス軍##": 4744, "##病院##": 4745, "11月2日": 4746, "2種類": 4747, "C1": 4748, "きょう": 4749, "ないし": 4750, "アタッチメント": 4751, "乗客": 4752, "北西": 4753, "向き": 4754, "外側": 4755, "後に": 4756, "控え": 4757, "札幌": 4758, "根拠": 4759, "犯罪": 4760, "現行": 4761, "甥": 4762, "避け": 4763, "需要": 4764, "##1928年##": 4765, "##中日ドラゴンズ##": 4766, "##京都##": 4767, "##名護市##": 4768, "##小説##": 4769, ".）": 4770, "31年": 4771, "533": 4772, "9月20日": 4773, "∫": 4774, "チャート": 4775, "フィルム": 4776, "享年": 4777, "付録": 4778, "努力": 4779, "園": 4780, "外国人": 4781, "審査員": 4782, "市街地": 4783, "日曜日": 4784, "最古": 4785, "核": 4786, "石野": 4787, "終戦": 4788, "置き": 4789, "説得": 4790, "近世": 4791, "達する": 4792, "阪神": 4793, "##キン肉マンのタッグ##": 4794, "##チェアリフト##": 4795, "##文學界##": 4796, "##火葬場##": 4797, "(#": 4798, "4巻": 4799, "6月6日": 4800, "8月8日": 4801, "Co": 4802, "Of": 4803, "co": 4804, "page": 4805, "}^{": 4806, "}^{\\": 4807, "なれ": 4808, "もらう": 4809, "アップ": 4810, "グリーン": 4811, "シート": 4812, "スピード": 4813, "ハンター": 4814, "ビット": 4815, "上京": 4816, "主導": 4817, "乗り入れ": 4818, "冒険": 4819, "判": 4820, "夕方": 4821, "師事": 4822, "彼方": 4823, "従軍": 4824, "文章": 4825, "構え": 4826, "正しい": 4827, "殿": 4828, "満たす": 4829, "看板": 4830, "第8話": 4831, "補佐": 4832, "認める": 4833, "道具": 4834, "重傷": 4835, "骨": 4836, "15歳": 4837, "20分": 4838, "ac.jp": 4839, "}}{": 4840, "うる": 4841, "もし": 4842, "ナターシャ": 4843, "共有": 4844, "厳しい": 4845, "友": 4846, "各社": 4847, "同月": 4848, "回収": 4849, "塔": 4850, "増設": 4851, "変動": 4852, "外れ": 4853, "幕": 4854, "復讐": 4855, "打ち": 4856, "歳": 4857, "激しく": 4858, "珍しい": 4859, "聞く": 4860, "電": 4861, "養成": 4862, "５": 4863, "##6月1日##": 4864, "##バレーボール##": 4865, "##広島市##": 4866, "10月18日": 4867, "89": 4868, "info": 4869, "すぎる": 4870, "まつり": 4871, "オープニングテーマ": 4872, "バック": 4873, "内側": 4874, "午後": 4875, "売り上げ": 4876, "太田": 4877, "幼稚園": 4878, "広がる": 4879, "当社": 4880, "扱っ": 4881, "挟ん": 4882, "救援": 4883, "母体": 4884, "永山": 4885, "犯人": 4886, "移し": 4887, "移り": 4888, "芸能人": 4889, "辞任": 4890, "金属": 4891, "長官": 4892, "##1914年##": 4893, "##フランス書院##": 4894, "##ホテル##": 4895, "##千葉ロッテマリーンズ##": 4896, "##大陸軍_(アメリカ)##": 4897, "##植物##": 4898, "##武田氏##": 4899, "10月24日": 4900, "12月6日": 4901, "140": 4902, "1956年": 4903, "4月3日": 4904, "5月31日": 4905, "8月12日": 4906, "8月15日": 4907, "8月26日": 4908, "be": 4909, "おき": 4910, "っ": 4911, "ジャケット": 4912, "レーザー": 4913, "不能": 4914, "作曲家": 4915, "保管": 4916, "全面": 4917, "削減": 4918, "前者": 4919, "夜間": 4920, "所収": 4921, "業者": 4922, "準": 4923, "現状": 4924, "築い": 4925, "純": 4926, "調べ": 4927, "請求": 4928, "資本": 4929, "魔女": 4930, "##バラエティ番組##": 4931, "##ベルギー##": 4932, "##千葉駅##": 4933, "##惑星##": 4934, "##捕手##": 4935, "##金曜日##": 4936, "14日": 4937, "4月19日": 4938, "6月27日": 4939, "@": 4940, "alpha": 4941, "おく": 4942, "たく": 4943, "むしろ": 4944, "アフリカ": 4945, "コスト": 4946, "一日": 4947, "事項": 4948, "余": 4949, "制し": 4950, "割合": 4951, "南東": 4952, "南西": 4953, "収容": 4954, "受託": 4955, "喫し": 4956, "変わり": 4957, "寄り": 4958, "小規模": 4959, "怪獣": 4960, "抗議": 4961, "放っ": 4962, "故": 4963, "日中": 4964, "決める": 4965, "渡し": 4966, "神社": 4967, "自": 4968, "華": 4969, "鶴": 4970, "）(": 4971, "##Category:日本の鉄道駅_ひ##": 4972, "##データ##": 4973, "##大学院##": 4974, "##青森県##": 4975, "108": 4976, "10日": 4977, "11月24日": 4978, "4月18日": 4979, "5月13日": 4980, "5月28日": 4981, "600": 4982, "60年": 4983, "9月10日": 4984, "9月24日": 4985, "Version": 4986, "cos": 4987, "°": 4988, "クイズ": 4989, "テレビ朝日": 4990, "パフォーマンス": 4991, "ロシア語": 4992, "前田": 4993, "南方": 4994, "後方": 4995, "戦場": 4996, "招待": 4997, "新作": 4998, "派生": 4999, "流し": 5000, "浅野": 5001, "済み": 5002, "確実": 5003, "空中": 5004, "衰退": 5005, "陥っ": 5006, "##イ_(音名)##": 5007, "##愛媛県##": 5008, "##文化放送##": 5009, "11月10日": 5010, "1954年": 5011, "3月4日": 5012, "4月27日": 5013, "4月7日": 5014, "5月27日": 5015, "9月6日": 5016, "みる": 5017, "アリス": 5018, "スカウト": 5019, "使え": 5020, "協議": 5021, "史上初": 5022, "市長": 5023, "快速": 5024, "怒り": 5025, "最短": 5026, "死者": 5027, "牧野": 5028, "第9話": 5029, "考": 5030, "肩": 5031, "資産": 5032, "野": 5033, "##PHP研究所##": 5034, "##時間##": 5035, "##発音##": 5036, ")”": 5037, ".)": 5038, "100年": 5039, "11回": 5040, "11月8日": 5041, "1月11日": 5042, "1月5日": 5043, "42年": 5044, "9月5日": 5045, "いれ": 5046, "インターネット": 5047, "バランス": 5048, "メジャー": 5049, "中退": 5050, "助手": 5051, "国立": 5052, "庭": 5053, "役者": 5054, "後ろ": 5055, "後継者": 5056, "検証": 5057, "沿革": 5058, "百科": 5059, "競争": 5060, "親子": 5061, "誕生日": 5062, "難": 5063, "雲": 5064, "##九州##": 5065, "##東京駅##": 5066, "##琵琶##": 5067, "##香川県##": 5068, "-」（": 5069, "1982": 5070, "19世紀": 5071, "1月18日": 5072, "45年": 5073, "4月14日": 5074, "5月26日": 5075, "6人": 5076, "ここに": 5077, "まち": 5078, "イン": 5079, "ジョージ": 5080, "世紀": 5081, "主宰": 5082, "交番": 5083, "余儀なく": 5084, "保全": 5085, "創業者": 5086, "協定": 5087, "哲学": 5088, "学習": 5089, "容量": 5090, "巻き込ま": 5091, "待合室": 5092, "所長": 5093, "手術": 5094, "月刊": 5095, "木造": 5096, "栽培": 5097, "直通": 5098, "相次い": 5099, "神戸": 5100, "窓口": 5101, "立地": 5102, "英雄": 5103, "装飾": 5104, "護衛": 5105, "軒": 5106, "配慮": 5107, "阻止": 5108, "魚雷": 5109, "##1月1日##": 5110, "##ロボット##": 5111, "##日本プロサッカーリーグ##": 5112, "##産経新聞##": 5113, "26日": 5114, "5月29日": 5115, "8月23日": 5116, "p2": 5117, "ツイート": 5118, "ランク": 5119, "主義": 5120, "全身": 5121, "出馬": 5122, "効率": 5123, "受章": 5124, "固め": 5125, "少数": 5126, "応用": 5127, "捕らえ": 5128, "敗戦": 5129, "料金": 5130, "最中": 5131, "純粋": 5132, "草": 5133, "覚え": 5134, "読書": 5135, "運休": 5136, "##1912年##": 5137, "##UFC##": 5138, "##イスラエル##": 5139, "##ラクイラ県##": 5140, "##ロック_(音楽)##": 5141, "##土曜日##": 5142, "##燕_(春秋)##": 5143, "##童謡##": 5144, "##舞台##": 5145, "12回": 5146, "2月22日": 5147, "2月24日": 5148, "3月16日": 5149, "3月5日": 5150, "4月23日": 5151, "4本": 5152, "5月23日": 5153, "6月14日": 5154, "7日": 5155, "9月13日": 5156, "ORICON": 5157, "あゆみ": 5158, "しれ": 5159, "レポート": 5160, "上演": 5161, "任": 5162, "割": 5163, "友達": 5164, "同僚": 5165, "増大": 5166, "外観": 5167, "宮廷": 5168, "家康": 5169, "年代": 5170, "改編": 5171, "本種": 5172, "材": 5173, "玩具": 5174, "発掘": 5175, "移入種": 5176, "選考": 5177, "陥落": 5178, "飼育": 5179, "##フィリピン##": 5180, "##大分県##": 5181, "##山口県##": 5182, "##戦闘機##": 5183, "##横浜DeNAベイスターズ##": 5184, "##船橋市##": 5185, "##蒸気機関車##": 5186, "12月18日": 5187, "1950年": 5188, "1983": 5189, "6月21日": 5190, "6月3日": 5191, "6月4日": 5192, "7月17日": 5193, "9月18日": 5194, "9月21日": 5195, "Instagram": 5196, "One": 5197, "θ": 5198, "いま": 5199, "ミサイル": 5200, "レッド": 5201, "ヶ": 5202, "具体": 5203, "勉強": 5204, "呪文": 5205, "国土交通省": 5206, "壊滅": 5207, "担う": 5208, "振り": 5209, "書店": 5210, "温度": 5211, "祭り": 5212, "編集委員会": 5213, "船舶": 5214, "芸名": 5215, "誠": 5216, "通路": 5217, "速": 5218, "郷": 5219, "##1918年##": 5220, "##Microsoft_Windows##": 5221, "##朝日新聞社##": 5222, "##歌舞伎##": 5223, "##編曲##": 5224, "10月23日": 5225, "12月22日": 5226, "1979": 5227, "1月28日": 5228, "28日": 5229, "3月19日": 5230, "5月14日": 5231, "7月14日": 5232, "7月24日": 5233, "8月3日": 5234, "It": 5235, "google": 5236, "ing": 5237, "λ": 5238, "どんな": 5239, "シアター": 5240, "ソ連": 5241, "タクシー": 5242, "ブルー": 5243, "ベスト8": 5244, "主役": 5245, "亜": 5246, "体内": 5247, "商店": 5248, "奏者": 5249, "当地": 5250, "当然": 5251, "政": 5252, "日本語版": 5253, "有利": 5254, "次に": 5255, "歴史的": 5256, "発覚": 5257, "確率": 5258, "総裁": 5259, "誘導": 5260, "走っ": 5261, "配属": 5262, "長編": 5263, "）[": 5264, "##レース_(手芸)##": 5265, "##ローマ##": 5266, "##人##": 5267, "10月4日": 5268, "20日": 5269, "3月3日": 5270, "8月14日": 5271, "9月7日": 5272, "no": 5273, "von": 5274, "}+": 5275, "}}{\\": 5276, "〇": 5277, "パリ": 5278, "プロダクション": 5279, "内蔵": 5280, "勧め": 5281, "卒": 5282, "回答": 5283, "増刊": 5284, "大隊": 5285, "妨害": 5286, "容疑": 5287, "封印": 5288, "山崎": 5289, "教育委員会": 5290, "松": 5291, "泉": 5292, "牧場": 5293, "生放送": 5294, "経済的": 5295, "背中": 5296, "視聴": 5297, "逃亡": 5298, "高田": 5299, "##:File:PIA19560-Ceres-DwarfPlanet-Dawn-OpNav8-image2-20150516.jpg##": 5300, "##Ruby##": 5301, "##テニス##": 5302, "##毎日新聞社##": 5303, "##芥川龍之介賞##": 5304, "##高速バス##": 5305, "-（": 5306, "11月22日": 5307, "11月6日": 5308, "136": 5309, "27日": 5310, "2部": 5311, "4月28日": 5312, "8月7日": 5313, "9月26日": 5314, "All": 5315, "Machine": 5316, "Science": 5317, "Society": 5318, "オフィシャルサイト": 5319, "オフィス": 5320, "ドライバー": 5321, "マネージャー": 5322, "一体": 5323, "勤め": 5324, "印刷": 5325, "去っ": 5326, "双子": 5327, "台詞": 5328, "図っ": 5329, "塗装": 5330, "大佐": 5331, "復元": 5332, "戦時": 5333, "施さ": 5334, "李": 5335, "棒": 5336, "火曜日": 5337, "瞬間": 5338, "組み": 5339, "軍勢": 5340, "避ける": 5341, "配給": 5342, "雄": 5343, "青い": 5344, "##C言語##": 5345, "##フランス王国##": 5346, "##年金##": 5347, "##日本軍##": 5348, "-）": 5349, "10月21日": 5350, "3月11日": 5351, "4月26日": 5352, "8日": 5353, "To": 5354, "War": 5355, "やってき": 5356, "やる": 5357, "バースト": 5358, "レギュラー出演": 5359, "予告": 5360, "互いに": 5361, "今井": 5362, "介し": 5363, "修復": 5364, "公式ブログ": 5365, "兼ね": 5366, "切れ": 5367, "劇": 5368, "収集": 5369, "契機": 5370, "女王": 5371, "岡田": 5372, "数学": 5373, "新型": 5374, "昼": 5375, "枝": 5376, "流用": 5377, "義": 5378, "荘": 5379, "負っ": 5380, "階": 5381, "##妄想##": 5382, "##岩手県##": 5383, "({\\": 5384, "001": 5385, "10月27日": 5386, "139": 5387, "2丁目": 5388, "2月18日": 5389, "5月20日": 5390, "とう": 5391, "とり": 5392, "もたらし": 5393, "ジダン": 5394, "トイレ": 5395, "上級": 5396, "他人": 5397, "創造": 5398, "周": 5399, "多様": 5400, "大好き": 5401, "容姿": 5402, "従業員": 5403, "戦闘機": 5404, "探偵": 5405, "最低": 5406, "残す": 5407, "藩": 5408, "速報": 5409, "降格": 5410, "##MARRION##": 5411, "##ダム##": 5412, "##首都##": 5413, "02980": 5414, "10月22日": 5415, "11月12日": 5416, "11月23日": 5417, "23日": 5418, "4月22日": 5419, "7月4日": 5420, "Database": 5421, "に従って": 5422, "ねじ込み": 5423, "パネル": 5424, "ボディ": 5425, "レンズ": 5426, "乗る": 5427, "体育館": 5428, "傷": 5429, "兵力": 5430, "再婚": 5431, "分裂": 5432, "別冊": 5433, "天才": 5434, "局長": 5435, "幻": 5436, "抜擢": 5437, "村上": 5438, "殺人事件": 5439, "直": 5440, "省略": 5441, "竜": 5442, "第9": 5443, "若者": 5444, "表さ": 5445, "評し": 5446, "読ん": 5447, "豊": 5448, "４": 5449, "##ソウル特別市##": 5450, "##ドラムセット##": 5451, "##大日本帝国海軍##": 5452, "##武将##": 5453, ")^{": 5454, "11月28日": 5455, "1969": 5456, "1月7日": 5457, "29日": 5458, "2月20日": 5459, "2月21日": 5460, "3月17日": 5461, "4月20日": 5462, "5つ": 5463, "Ver": 5464, "おお": 5465, "コート": 5466, "ボーナス": 5467, "中央部": 5468, "人事": 5469, "兼任": 5470, "参謀": 5471, "告知": 5472, "封じ": 5473, "左手": 5474, "平成18年": 5475, "径": 5476, "改めて": 5477, "最優秀": 5478, "朝日": 5479, "格": 5480, "次いで": 5481, "消し": 5482, "##1909年##": 5483, "##MBSテレビ##": 5484, "##YouTube##": 5485, "##作家##": 5486, "##作詞##": 5487, "##平凡社##": 5488, "##福岡市##": 5489, "##路線バス##": 5490, "3D": 5491, "P2": 5492, "ウィキメディア・コモンズ": 5493, "オペラ": 5494, "ダイヤ改正": 5495, "ピン": 5496, "ラスト": 5497, "京": 5498, "代表作": 5499, "原理": 5500, "右衛門": 5501, "同市": 5502, "同等": 5503, "大将": 5504, "娘。": 5505, "季節": 5506, "岸": 5507, "必殺技": 5508, "怪我": 5509, "感謝": 5510, "教": 5511, "条例": 5512, "殆ど": 5513, "湯": 5514, "無効": 5515, "特典": 5516, "牽引": 5517, "省": 5518, "私鉄": 5519, "航海": 5520, "視聴者": 5521, "詳しく": 5522, "遭遇": 5523, "関わら": 5524, "\"（": 5525, "##ジャズ##": 5526, "##ノコノコ##": 5527, "##ブログ##": 5528, "##マーズ_(漫画)##": 5529, "##東海旅客鉄道##": 5530, "##金##": 5531, "107": 5532, "11月20日": 5533, "135": 5534, "15日": 5535, "2月23日": 5536, "4月11日": 5537, "5号": 5538, "5巻": 5539, "AD": 5540, "kg": 5541, "じょう": 5542, "グランプリ": 5543, "ショット": 5544, "ノミネート": 5545, "ハ": 5546, "バイク": 5547, "フランス語": 5548, "ロータリー": 5549, "出土": 5550, "分かっ": 5551, "同時ネット": 5552, "延期": 5553, "後年": 5554, "抱え": 5555, "改定": 5556, "書房": 5557, "木曜日": 5558, "楽しむ": 5559, "比": 5560, "清": 5561, "漢字": 5562, "症状": 5563, "論集": 5564, "題し": 5565, "##1911年##": 5566, "##1917年##": 5567, "##コンパクトディスク##": 5568, "##モスクワ##": 5569, "##信濃国##": 5570, "##河出書房新社##": 5571, "##男性##": 5572, "##鎮##": 5573, "1947年": 5574, "2m": 5575, "6月13日": 5576, "7月19日": 5577, "その間": 5578, "ゼロ": 5579, "レストラン": 5580, "一貫": 5581, "受信": 5582, "峰": 5583, "弦": 5584, "心配": 5585, "思い出": 5586, "敷設": 5587, "新田": 5588, "権限": 5589, "結び": 5590, "脇": 5591, "降り": 5592, "騒動": 5593, "##1889年##": 5594, "##1915年##": 5595, "##ふるさと納税##": 5596, "##アンモニア##": 5597, "##サマリウム##": 5598, "##名誉教授##": 5599, "##朝鮮半島##": 5600, "##民主党_(日本_1998-2016)##": 5601, "##駆逐艦##": 5602, "))": 5603, "1948年": 5604, "30日": 5605, "6月19日": 5606, "8月28日": 5607, "9月2日": 5608, "Data": 5609, "United": 5610, "この間": 5611, "一時的": 5612, "上がっ": 5613, "人数": 5614, "出会う": 5615, "名鑑": 5616, "告げ": 5617, "商人": 5618, "在学": 5619, "坊": 5620, "完結": 5621, "定める": 5622, "市立": 5623, "幅員": 5624, "弱": 5625, "決して": 5626, "流域": 5627, "美術館": 5628, "肉体": 5629, "肌": 5630, "自分たち": 5631, "表彰": 5632, "##アッツ島##": 5633, "##アニメ##": 5634, "##アメリカ##": 5635, "##インターネット##": 5636, "##インターネットアーカイブ##": 5637, "##匁##": 5638, "##宇都宮市##": 5639, "##歌##": 5640, "12月24日": 5641, "12月30日": 5642, "2月3日": 5643, "36年": 5644, "4日": 5645, "7月30日": 5646, "Airport": 5647, "ほしい": 5648, "アニメーション": 5649, "キャンパス": 5650, "ディスク": 5651, "交付": 5652, "使者": 5653, "刀": 5654, "問": 5655, "圧倒的": 5656, "多用": 5657, "実態": 5658, "庁舎": 5659, "弁": 5660, "挿入": 5661, "改札": 5662, "朝鮮語": 5663, "注": 5664, "海域": 5665, "破っ": 5666, "祖母": 5667, "結論": 5668, "繰り広げ": 5669, "考察": 5670, "行事": 5671, "親交": 5672, "論争": 5673, "金メダル": 5674, "開": 5675, "開く": 5676, "非難": 5677, "面し": 5678, "願い": 5679, "##ドラゴン##": 5680, "##プロジェクト:漫画##": 5681, "##大河ドラマ##": 5682, "##徳川家康##": 5683, "##新潟駅##": 5684, "##日本のアナウンサー##": 5685, "10月19日": 5686, "1月21日": 5687, "1月4日": 5688, "3月13日": 5689, "3月18日": 5690, "6月9日": 5691, "8月9日": 5692, "League": 5693, "sqrt": 5694, "とら": 5695, "よし": 5696, "コミックス": 5697, "マス": 5698, "予備": 5699, "初回": 5700, "地面": 5701, "塾": 5702, "失い": 5703, "幼少": 5704, "急激": 5705, "敷地内": 5706, "策定": 5707, "習得": 5708, "船団": 5709, "艦艇": 5710, "評さ": 5711, "近鉄": 5712, "追跡": 5713, "送信": 5714, "順次": 5715, "##0##": 5716, "##1990年代##": 5717, "##アーチ##": 5718, "##コカ・コーラ##": 5719, "##シンガポール##": 5720, "##バスケットボール##": 5721, "##加藤泰通##": 5722, "##北陸新幹線##": 5723, "##指揮者##": 5724, "##柔道##": 5725, "##楽章##": 5726, "##筋肉##": 5727, "10月8日": 5728, "16歳": 5729, "1990年代": 5730, "1月25日": 5731, "24時間": 5732, "6月2日": 5733, "6月7日": 5734, "8月25日": 5735, "Ltd": 5736, "No": 5737, "たびたび": 5738, "オフ": 5739, "セーブ": 5740, "プール": 5741, "ライト": 5742, "事務局": 5743, "付く": 5744, "位置づけ": 5745, "倶楽部": 5746, "初勝利": 5747, "割り当て": 5748, "参加者": 5749, "叔父": 5750, "地獄": 5751, "寄付": 5752, "年表": 5753, "引き継が": 5754, "拘束": 5755, "損害": 5756, "改訂版": 5757, "楽": 5758, "気候": 5759, "水曜日": 5760, "生まれる。": 5761, "缶": 5762, "腹": 5763, "艦長": 5764, "詞": 5765, "警戒": 5766, "転じ": 5767, "遊び": 5768, "道場": 5769, "配下": 5770, "限界": 5771, "雅": 5772, "##倒産##": 5773, "##日本の郵便番号##": 5774, "16日": 5775, "1分": 5776, "1月24日": 5777, "34年": 5778, "44年": 5779, "6月15日": 5780, "6月24日": 5781, "6月5日": 5782, "7月10日": 5783, "7月21日": 5784, "David": 5785, "V3": 5786, "phi": 5787, "ϕ": 5788, "─": 5789, "アプリケーション": 5790, "アメリカ合衆国": 5791, "コラム": 5792, "コンテンツ": 5793, "ダブル": 5794, "個々": 5795, "兼務": 5796, "叙任": 5797, "名誉教授": 5798, "境内": 5799, "大切": 5800, "天皇": 5801, "就職": 5802, "暴力": 5803, "期間中": 5804, "本線": 5805, "条約": 5806, "欧米": 5807, "水中": 5808, "海洋": 5809, "狙っ": 5810, "生存": 5811, "疑い": 5812, "相続": 5813, "真相": 5814, "自殺": 5815, "補給": 5816, "走り": 5817, "龍": 5818, "##5月1日##": 5819, "##フィギュアスケート##": 5820, "##大字##": 5821, "##平安時代##": 5822, "##徳島県##": 5823, "##米##": 5824, "##長崎県##": 5825, ".S": 5826, "10月9日": 5827, "11月26日": 5828, "12月8日": 5829, "1943年": 5830, "1月6日": 5831, "3代目": 5832, "3月10日": 5833, "3月12日": 5834, "7月12日": 5835, "Man": 5836, "かけて": 5837, "け": 5838, "つもり": 5839, "ふるさと": 5840, "事務": 5841, "入居": 5842, "出張所": 5843, "初演": 5844, "前方": 5845, "原題": 5846, "受験": 5847, "同局": 5848, "塩": 5849, "寄贈": 5850, "支": 5851, "業績": 5852, "活発": 5853, "詩人": 5854, "金沢": 5855, "##キン肉マンの技一覧##": 5856, "##ダーター_(SS-227)##": 5857, "##ネコ##": 5858, "##世界##": 5859, "##光文社##": 5860, "##分離集落##": 5861, "##単式ホーム##": 5862, "##国土交通省##": 5863, "##徳間書店##": 5864, "100人": 5865, "11月13日": 5866, "12月2日": 5867, "1960年代": 5868, "1月13日": 5869, "1月17日": 5870, "24日": 5871, "3rd": 5872, "3回戦": 5873, "3月2日": 5874, "5月12日": 5875, "5月5日": 5876, "6月29日": 5877, "9月17日": 5878, "DB2": 5879, "Edition": 5880, "Robert": 5881, "Vol": 5882, "us": 5883, "うた": 5884, "けど": 5885, "はっきり": 5886, "スタンド": 5887, "バー": 5888, "フラツィオーネ": 5889, "中隊": 5890, "候補者": 5891, "共編": 5892, "具体的": 5893, "内閣": 5894, "区立": 5895, "友情": 5896, "司令官": 5897, "埋葬": 5898, "幸せ": 5899, "所領": 5900, "打者": 5901, "挑む": 5902, "曜日": 5903, "比例": 5904, "焼失": 5905, "研究室": 5906, "第1部": 5907, "衛星": 5908, "追悼": 5909, "通報": 5910, "間もなく": 5911, "隠れ": 5912, "##デンマーク##": 5913, "##仙台市##": 5914, "##仮面ライダー##": 5915, "##保険##": 5916, "##医師##": 5917, "##守護##": 5918, "##日活##": 5919, "##映画監督##": 5920, "##江戸幕府##": 5921, "##船体##": 5922, "10月13日": 5923, "128": 5924, "12月4日": 5925, "1月12日": 5926, "1話": 5927, "38年": 5928, "4月17日": 5929, "6月23日": 5930, "7月13日": 5931, "7月20日": 5932, "7月29日": 5933, "Company": 5934, "Part": 5935, "あくまで": 5936, "いち": 5937, "グラウンド": 5938, "乗せ": 5939, "大場": 5940, "師団": 5941, "当局": 5942, "徹底": 5943, "抜け": 5944, "攻撃力": 5945, "時刻": 5946, "望む": 5947, "深刻": 5948, "番組内": 5949, "耐え": 5950, "興行": 5951, "訴訟": 5952, "評判": 5953, "車種": 5954, "退役": 5955, "陸上": 5956, "題": 5957, "##3月15日##": 5958, "##の##": 5959, "##ヴァイオリン##": 5960, "##東京ヤクルトスワローズ##": 5961, "##鉄道省##": 5962, "10月28日": 5963, "1952年": 5964, "25日": 5965, "3分": 5966, "7月7日": 5967, "800": 5968, "いつ": 5969, "どこか": 5970, "なかなか": 5971, "につき": 5972, "スポット": 5973, "ナンバー": 5974, "ノート": 5975, "マスク": 5976, "三つ": 5977, "中盤": 5978, "佐々木": 5979, "体力": 5980, "倉庫": 5981, "前日": 5982, "副会長": 5983, "取り組み": 5984, "専念": 5985, "嵐": 5986, "我々": 5987, "所属事務所": 5988, "抗争": 5989, "拍子": 5990, "採掘": 5991, "損傷": 5992, "支払い": 5993, "様式": 5994, "死体": 5995, "特別編": 5996, "理想": 5997, "結婚式": 5998, "結果的": 5999, "老人": 6000, "芝": 6001, "部員": 6002, "難民": 6003, "青木": 6004, "飛行機": 6005, "高校時代": 6006, "##F-86_(戦闘機)##": 6007, "##NHK教育テレビジョン##": 6008, "##ケンシロウ##": 6009, "##マニ教##": 6010, "##天皇##": 6011, "100%": 6012, "10月11日": 6013, "1月22日": 6014, "3枚": 6015, "5月19日": 6016, "5月22日": 6017, "7月23日": 6018, "7月9日": 6019, "83%": 6020, "8月5日": 6021, "FC": 6022, "LOVE": 6023, "PA": 6024, "PM": 6025, "VS": 6026, "]（": 6027, "けん": 6028, "ぜ": 6029, "にあたって": 6030, "もん": 6031, "コンテスト": 6032, "スケジュール": 6033, "チップ": 6034, "トレーニング": 6035, "フェスティバル": 6036, "上述": 6037, "不詳": 6038, "中断": 6039, "会見": 6040, "全般": 6041, "冬季": 6042, "叢書": 6043, "好意": 6044, "幅広い": 6045, "府": 6046, "得て": 6047, "志": 6048, "擁立": 6049, "本土": 6050, "洋": 6051, "流さ": 6052, "王女": 6053, "紀": 6054, "買っ": 6055, "##1907年##": 6056, "##オーストリア##": 6057, "##サンリオキャラクター大賞##": 6058, "##交通新聞##": 6059, "##任天堂##": 6060, "##公園##": 6061, "##台風##": 6062, "##憲法##": 6063, "##時報##": 6064, "##本塁打##": 6065, "##浜松市##": 6066, "##漫才##": 6067, "1970": 6068, "3月7日": 6069, "5月18日": 6070, "7月26日": 6071, "7月28日": 6072, "JAPAN": 6073, "JP": 6074, "Le": 6075, "させる": 6076, "は元": 6077, "ひと": 6078, "インド": 6079, "キャプテン": 6080, "シティ": 6081, "フロント": 6082, "モノ": 6083, "ランド": 6084, "不安": 6085, "並び": 6086, "傑作": 6087, "公共": 6088, "功": 6089, "加速": 6090, "司令": 6091, "四国": 6092, "増補": 6093, "安打": 6094, "容疑者": 6095, "日本一": 6096, "概ね": 6097, "海上": 6098, "渡": 6099, "無事": 6100, "独占": 6101, "砦": 6102, "観光協会": 6103, "譜": 6104, "議長": 6105, "贈ら": 6106, "運搬": 6107, "邸": 6108, "集会": 6109, "##1913年##": 6110, "##Suica##": 6111, "##アメリカ合衆国ドル##": 6112, "##カシオペア_(バンド)##": 6113, "##ニクバエ##": 6114, "##ミサイル##": 6115, "##モンツァ##": 6116, "##上海市##": 6117, "##水木しげる##": 6118, "10月14日": 6119, "12月12日": 6120, "12月13日": 6121, "1937年": 6122, "19日": 6123, "1度": 6124, "7月11日": 6125, "9月11日": 6126, "A型": 6127, "theta": 6128, "あまりに": 6129, "なき": 6130, "もうけ": 6131, "ろ": 6132, "キー": 6133, "ダンジョン": 6134, "ミカ": 6135, "ヶ所": 6136, "上がる": 6137, "付ける": 6138, "伸ばし": 6139, "反撃": 6140, "収録曲": 6141, "司会者": 6142, "執行": 6143, "尾崎": 6144, "恵まれ": 6145, "抑制": 6146, "持": 6147, "水系": 6148, "満たし": 6149, "物体": 6150, "発し": 6151, "置き換え": 6152, "解": 6153, "財団": 6154, "附": 6155, "集合": 6156, "魔力": 6157, "鶴瓶": 6158, "!』": 6159, "##19世紀##": 6160, "##ラジオ##": 6161, "##仏教##": 6162, "##元素##": 6163, "##新快速##": 6164, "##陸奥国##": 6165, "##電子##": 6166, "##高崎市##": 6167, "11月7日": 6168, "12月11日": 6169, "1935年": 6170, "1976": 6171, "20回": 6172, "2月19日": 6173, "2月26日": 6174, "3月6日": 6175, "3期": 6176, "8月27日": 6177, "9月16日": 6178, "Cambridge": 6179, "cc": 6180, "ome": 6181, "がっ": 6182, "やり": 6183, "カップ": 6184, "ガット": 6185, "コール": 6186, "ライダー": 6187, "不可": 6188, "中学生": 6189, "二次": 6190, "交際": 6191, "代行": 6192, "使": 6193, "再放送": 6194, "利用可能": 6195, "前回": 6196, "動員": 6197, "勘助": 6198, "単": 6199, "単語": 6200, "名乗り": 6201, "在学中": 6202, "帽子": 6203, "平成20年": 6204, "急行": 6205, "息": 6206, "戦力": 6207, "替え": 6208, "本格的": 6209, "検出": 6210, "極": 6211, "歌い": 6212, "歴": 6213, "生前": 6214, "積極的": 6215, "統括": 6216, "緑色": 6217, "美女": 6218, "聞き": 6219, "街道": 6220, "解析": 6221, "通し": 6222, "連隊": 6223, "部族": 6224, "銀メダル": 6225, "##3月14日##": 6226, "##OVA##": 6227, "##ナマコ##": 6228, "##済州島##": 6229, "##蒸気##": 6230, "12月27日": 6231, "1940年": 6232, "1972": 6233, "21世紀": 6234, "2月27日": 6235, "2月2日": 6236, "4月24日": 6237, "50周年": 6238, "6位": 6239, "9月19日": 6240, "9月22日": 6241, "LP": 6242, "Sterna": 6243, "TOKYO": 6244, "operatorname": 6245, "ℓ": 6246, "いない": 6247, "おか": 6248, "テーマ曲": 6249, "ドラム": 6250, "ファミリー": 6251, "中日": 6252, "交易": 6253, "住宅地": 6254, "公式ページ": 6255, "単発": 6256, "原曲": 6257, "唄": 6258, "唱え": 6259, "実質的": 6260, "川崎": 6261, "拳": 6262, "施し": 6263, "柄": 6264, "欄": 6265, "正式名称": 6266, "短編集": 6267, "装": 6268, "西村": 6269, "送り": 6270, "逃げ": 6271, "##ゴールキーパー_(サッカー)##": 6272, "##ラージャ##": 6273, "##住居表示##": 6274, "##大映##": 6275, "##太平洋##": 6276, "##戦車##": 6277, "##皇帝##": 6278, "##落語家##": 6279, "11日": 6280, "12月16日": 6281, "12月23日": 6282, "1949年": 6283, "1978": 6284, "detail": 6285, "featuring": 6286, "にあたり": 6287, "まもなく": 6288, "ガラス": 6289, "キック": 6290, "キーボード": 6291, "テキスト": 6292, "ママ": 6293, "リー": 6294, "レンジャー": 6295, "不安定": 6296, "乾燥": 6297, "亭": 6298, "代表取締役社長": 6299, "信者": 6300, "公益社団法人": 6301, "出口": 6302, "前面": 6303, "台湾": 6304, "回り": 6305, "好": 6306, "小川": 6307, "尚": 6308, "就い": 6309, "工作": 6310, "応募": 6311, "成": 6312, "打率": 6313, "技法": 6314, "正月": 6315, "目撃": 6316, "秘書": 6317, "背後": 6318, "近": 6319, "##1905年##": 6320, "##IBM##": 6321, "##後秦##": 6322, "##星座##": 6323, "##温泉##": 6324, "102": 6325, "110": 6326, "125": 6327, "12月17日": 6328, "3月14日": 6329, "6月12日": 6330, "AV": 6331, "Inc": 6332, "Oxford": 6333, "San": 6334, "jp": 6335, "}}}\\": 6336, "△": 6337, "それ以降": 6338, "たび": 6339, "ちょっと": 6340, "アート": 6341, "ウルトラ": 6342, "ツール": 6343, "フィールド": 6344, "ロケット": 6345, "世界的": 6346, "伊": 6347, "住居": 6348, "倍": 6349, "具": 6350, "勝手": 6351, "医者": 6352, "原料": 6353, "参入": 6354, "国外": 6355, "尽力": 6356, "平成15年": 6357, "引き": 6358, "引く": 6359, "教科書": 6360, "映画化": 6361, "歩く": 6362, "準々決勝": 6363, "甲": 6364, "発祥": 6365, "盾": 6366, "社会的": 6367, "補": 6368, "解雇": 6369, "討伐": 6370, "財産": 6371, "貴重": 6372, "軌跡": 6373, "返還": 6374, "適し": 6375, "開拓": 6376, "除去": 6377, "頻度": 6378, "香港": 6379, "高等学校": 6380, "##サイエンス・フィクション##": 6381, "##ファミ通##": 6382, "##ペルシア語##": 6383, "##ポルトガル##": 6384, "##モデル_(職業)##": 6385, "##内戦##": 6386, "##南海放送##": 6387, "##師団##": 6388, "##新幹線##": 6389, "##自転車##": 6390, "##華族##": 6391, ")-": 6392, "111": 6393, "11月14日": 6394, "11月17日": 6395, "2勝": 6396, "6月20日": 6397, "8月21日": 6398, "CH": 6399, "Calidris": 6400, "F2": 6401, "Home": 6402, "asahi.com": 6403, "entertainment": 6404, "n/": 6405, "はるか": 6406, "やめ": 6407, "カフェ": 6408, "テレビ欄": 6409, "ビリー": 6410, "マニュアル": 6411, "リスク": 6412, "交差": 6413, "低迷": 6414, "住人": 6415, "全日本": 6416, "全米": 6417, "公立": 6418, "典型": 6419, "制約": 6420, "動機": 6421, "哨戒": 6422, "多少": 6423, "妊娠": 6424, "家系": 6425, "序盤": 6426, "弱点": 6427, "後日": 6428, "把握": 6429, "挿絵": 6430, "教団": 6431, "斎藤": 6432, "楽譜": 6433, "欲しい": 6434, "民衆": 6435, "無人": 6436, "狙う": 6437, "珍しく": 6438, "発売元": 6439, "矢": 6440, "神話": 6441, "空母": 6442, "筆頭": 6443, "糸": 6444, "緊急": 6445, "見直し": 6446, "##ミュージカル##": 6447, "##ミラノ##": 6448, "##世帯##": 6449, "##双葉社##": 6450, "##太平洋戦争##": 6451, "##寄付##": 6452, "##日本標準時##": 6453, "##退学##": 6454, "##逮捕##": 6455, "11月16日": 6456, "1951年": 6457, "1月29日": 6458, "1週間": 6459, "2.0": 6460, "2月5日": 6461, "3歳": 6462, "5月4日": 6463, "8月13日": 6464, "Album": 6465, "City": 6466, "Site": 6467, "どれ": 6468, "ジュニア": 6469, "パーティー": 6470, "先祖": 6471, "同行": 6472, "外交": 6473, "学名": 6474, "平成16年": 6475, "役職": 6476, "懸念": 6477, "操縦": 6478, "欠点": 6479, "残留": 6480, "汚染": 6481, "法廷": 6482, "要する": 6483, "言動": 6484, "評論": 6485, "警備": 6486, "辞令": 6487, "野生": 6488, "食用": 6489, "##イングランド##": 6490, "##トヨタ自動車##": 6491, "##ビホルダー##": 6492, "##企業##": 6493, "##創価学会##": 6494, "##取締役##": 6495, "##学校##": 6496, "##島##": 6497, "##懲役##": 6498, "##日本共産党##": 6499, "##暗殺##": 6500, "##爆撃機##": 6501, ")』": 6502, "1941年": 6503, "1944年": 6504, "1971": 6505, "2年連続": 6506, "2月8日": 6507, "3階": 6508, "5000": 6509, "5月11日": 6510, "5月2日": 6511, "8月11日": 6512, "MHz": 6513, "SI": 6514, "lambda": 6515, "つか": 6516, "ぶ": 6517, "もちろん": 6518, "コントロール": 6519, "ソング": 6520, "ドリーム": 6521, "ナイター": 6522, "ブラック": 6523, "メモリ": 6524, "ライヴ": 6525, "介": 6526, "余り": 6527, "個性": 6528, "入会": 6529, "厚": 6530, "厳しく": 6531, "喧嘩": 6532, "大変": 6533, "学部": 6534, "定数": 6535, "山中": 6536, "巡る": 6537, "広がり": 6538, "戦術": 6539, "支配下": 6540, "朗読": 6541, "森林": 6542, "現在地": 6543, "生み出し": 6544, "異": 6545, "皇后": 6546, "端末": 6547, "精": 6548, "舞": 6549, "蝦夷": 6550, "記者会見": 6551, "鑑賞": 6552, "高木": 6553, "高等": 6554, "##1970年代##": 6555, "##3月17日##": 6556, "##9月30日##": 6557, "##アルゼンチン##": 6558, "##イワナ##": 6559, "##ウクライナ##": 6560, "##メジャーリーグベースボール##": 6561, "##ラテン語##": 6562, "##携帯電話##": 6563, "##数学##": 6564, "##総務省##": 6565, "##駐車場##": 6566, "10月29日": 6567, "13.": 6568, "18日": 6569, "1939年": 6570, "1967": 6571, "1月8日": 6572, "1月9日": 6573, "2月9日": 6574, "59年": 6575, "8月18日": 6576, "8月22日": 6577, "BOX": 6578, "CG": 6579, "FA": 6580, "OS": 6581, "O型": 6582, "Red": 6583, "USA": 6584, "der": 6585, "つながる": 6586, "オーケストラ": 6587, "セリフ": 6588, "ハウス": 6589, "ヘッド": 6590, "ラジオ番組": 6591, "レーン": 6592, "上空": 6593, "予測": 6594, "個別": 6595, "因ん": 6596, "工程": 6597, "平凡社": 6598, "早い": 6599, "沢": 6600, "河口": 6601, "演説": 6602, "番台": 6603, "編集長": 6604, "藤井": 6605, "軽": 6606, "通算成績": 6607, "選抜": 6608, "関わり": 6609, "高め": 6610, "##BS-TBS##": 6611, "##NHK_BSプレミアム##": 6612, "##クロ_(サイボーグクロちゃん)##": 6613, "##ゼウス##": 6614, "##宇宙##": 6615, "##寺院##": 6616, "##快速列車##": 6617, "105": 6618, "12月28日": 6619, "1945年": 6620, "1月26日": 6621, "2年間": 6622, "3代": 6623, "8月24日": 6624, "BN": 6625, "VHS": 6626, "とか": 6627, "にわたる": 6628, "に際し": 6629, "ストーン": 6630, "チャージ": 6631, "ドライブ": 6632, "ベスト4": 6633, "ポスト": 6634, "ワールド": 6635, "不在": 6636, "任じ": 6637, "係数": 6638, "借り": 6639, "傍ら": 6640, "公民館": 6641, "分かる": 6642, "助監督": 6643, "動": 6644, "取れ": 6645, "増し": 6646, "宝塚": 6647, "対岸": 6648, "工学部": 6649, "年報": 6650, "強度": 6651, "挨拶": 6652, "無関係": 6653, "犠牲": 6654, "短く": 6655, "神々": 6656, "署名": 6657, "襲わ": 6658, "西日本": 6659, "覆わ": 6660, "解答": 6661, "誤り": 6662, "迫る": 6663, "週刊朝日": 6664, "週間": 6665, "音響": 6666, "##KADOKAWA##": 6667, "##アフリカ##": 6668, "##アムステルダム##": 6669, "##アルバコア_(SS-218)##": 6670, "##川崎市##": 6671, "##建設省##": 6672, "##戦争##": 6673, "##監督##": 6674, "11月4日": 6675, "12月14日": 6676, "12月9日": 6677, "1977": 6678, "1月10日": 6679, "3月22日": 6680, "6巻": 6681, "7人": 6682, "7月6日": 6683, "8月2日": 6684, "BS": 6685, "MUSIC": 6686, "Time": 6687, "Wayback": 6688, "ε": 6689, "キン": 6690, "コピー": 6691, "スタジアム": 6692, "ド": 6693, "ムービー": 6694, "三丁目": 6695, "不正": 6696, "不要": 6697, "中核": 6698, "今度": 6699, "以南": 6700, "入賞": 6701, "冠": 6702, "天使": 6703, "忠": 6704, "感覚": 6705, "戦国": 6706, "捕獲": 6707, "方言": 6708, "景観": 6709, "本当に": 6710, "油": 6711, "皆": 6712, "皮": 6713, "目的地": 6714, "知名度": 6715, "紀要": 6716, "至ら": 6717, "良": 6718, "苦戦": 6719, "連動": 6720, "黄金": 6721, "鼻": 6722, "##チッキ##": 6723, "##テリーマン##": 6724, "##動員##": 6725, "##唐##": 6726, "##筑摩書房##": 6727, "##那覇市##": 6728, "103": 6729, "10月16日": 6730, "17日": 6731, "1946年": 6732, "21日": 6733, "2曲": 6734, "2月6日": 6735, "6日": 6736, "7位": 6737, ":「": 6738, "Archived": 6739, "Biography": 6740, "For": 6741, "James": 6742, "ell": 6743, "world": 6744, "づくり": 6745, "りつ": 6746, "グレード": 6747, "シナモン": 6748, "ノイズ": 6749, "一角": 6750, "中心地": 6751, "主任": 6752, "人材": 6753, "代打": 6754, "伝達": 6755, "信玄": 6756, "僅か": 6757, "分から": 6758, "名づけ": 6759, "大地": 6760, "定員": 6761, "支える": 6762, "救う": 6763, "日本初": 6764, "最長": 6765, "松下": 6766, "正規": 6767, "浅田": 6768, "濃度": 6769, "特許": 6770, "甲羅": 6771, "福島": 6772, "要覧": 6773, "赴任": 6774, "##3##": 6775, "##エフエム東京##": 6776, "##オリックス・バファローズ##": 6777, "##サッカー選手##": 6778, "##デイス_(潜水艦)##": 6779, "##パンくん##": 6780, "##佐賀県##": 6781, "##北陸本線##": 6782, "##河川##": 6783, "##経済##": 6784, "##豊臣秀吉##": 6785, "##鼻毛##": 6786, "11月18日": 6787, "12月29日": 6788, "1月3日": 6789, "2月12日": 6790, "3年間": 6791, "5月3日": 6792, "6月18日": 6793, "9日": 6794, "9月14日": 6795, "An": 6796, "Isernia": 6797, "Ref": 6798, "^{\\": 6799, "pg": 6800, "げ": 6801, "アマチュア": 6802, "オーストリア": 6803, "オール": 6804, "スコア": 6805, "スタック": 6806, "ダウンロード": 6807, "バレー": 6808, "ラウンド": 6809, "ワン": 6810, "三井": 6811, "上がり": 6812, "京阪": 6813, "人たち": 6814, "仁": 6815, "会合": 6816, "作動": 6817, "充実": 6818, "剛": 6819, "加える": 6820, "動力": 6821, "動向": 6822, "区画": 6823, "単なる": 6824, "吉": 6825, "呼びかけ": 6826, "増える": 6827, "大いに": 6828, "守護": 6829, "平成17年": 6830, "思考": 6831, "戦隊": 6832, "明かし": 6833, "朝鮮人": 6834, "校歌": 6835, "氷": 6836, "決勝戦": 6837, "碑": 6838, "第10話": 6839, "経歴": 6840, "美少女": 6841, "芸能": 6842, "調達": 6843, "警官": 6844, "賞金": 6845, "遠く": 6846, "開き": 6847, "面倒": 6848, "､": 6849, "##ニュージーランド##": 6850, "##ハーダー_(SS-257)##": 6851, "##レコードレーベル##": 6852, "##中世##": 6853, "##情報##": 6854, "##日本書紀##": 6855, "##木曽川##": 6856, "##番組##": 6857, "##石炭##": 6858, "##震度##": 6859, "1970年代": 6860, "1月20日": 6861, "5月17日": 6862, "9月23日": 6863, "DS": 6864, "DX": 6865, "IN": 6866, "Paris": 6867, "♥": 6868, "お前": 6869, "きゅう": 6870, "わかっ": 6871, "シード": 6872, "ドン": 6873, "世間": 6874, "事業所": 6875, "出入口": 6876, "北東部": 6877, "北米": 6878, "司令長官": 6879, "山頂": 6880, "数年": 6881, "新装": 6882, "横断": 6883, "比率": 6884, "留まっ": 6885, "翔": 6886, "育っ": 6887, "誇り": 6888, "誤解": 6889, "賛成": 6890, "賭け": 6891, "転用": 6892, "転送": 6893, "連邦": 6894, "適応": 6895, "集める": 6896, "##DOUBLE_(歌手)##": 6897, "##ノルウェー##": 6898, "##ハンプトン_(サウスカロライナ州)##": 6899, "##プロデューサー##": 6900, "##京都大学##": 6901, "##歌人##": 6902, "##甲陽軍鑑##": 6903, "##石油##": 6904, "##金沢市##": 6905, "##長岡市##": 6906, "12月26日": 6907, "132": 6908, "1月23日": 6909, "41年": 6910, "5月6日": 6911, "6月22日": 6912, "7月16日": 6913, "7月18日": 6914, "8月19日": 6915, "8月6日": 6916, "F-4": 6917, "NO": 6918, "bmatrix": 6919, "}}(": 6920, "がち": 6921, "そのほか": 6922, "エッセイ": 6923, "ギャグ": 6924, "ダイヤ": 6925, "チャンス": 6926, "メニュー": 6927, "レアアース": 6928, "付与": 6929, "使用可能": 6930, "兵衛": 6931, "友好": 6932, "和解": 6933, "回想": 6934, "国会": 6935, "大臣": 6936, "専門学校": 6937, "平成25年": 6938, "店員": 6939, "当たっ": 6940, "改札口": 6941, "数少ない": 6942, "時には": 6943, "東方": 6944, "極端": 6945, "武": 6946, "湾": 6947, "発症": 6948, "組み込ま": 6949, "義務": 6950, "老朽化": 6951, "諸説": 6952, "転": 6953, "連合会": 6954, "金額": 6955, "開け": 6956, "領主": 6957, "##1916年##": 6958, "##KOTOKO##": 6959, "##代表取締役##": 6960, "##横浜駅##": 6961, "##種牡馬##": 6962, "##関数_(数学)##": 6963, "##駅ナンバリング##": 6964, "12日": 6965, "138": 6966, "1966": 6967, "2月7日": 6968, "3月9日": 6969, "4月29日": 6970, "7月22日": 6971, "AVANTI": 6972, "Black": 6973, "Blog": 6974, "Blue": 6975, "Maria": 6976, "States": 6977, "dt": 6978, "php": 6979, "あい": 6980, "ずっと": 6981, "つながっ": 6982, "まつ": 6983, "ガン": 6984, "ゲージ": 6985, "シンボル": 6986, "タウン": 6987, "フル": 6988, "下げ": 6989, "不動産": 6990, "人質": 6991, "介入": 6992, "切っ": 6993, "動く": 6994, "医": 6995, "幸": 6996, "必要性": 6997, "忠実": 6998, "戦績": 6999, "投資": 7000, "根": 7001, "河": 7002, "消す": 7003, "狭い": 7004, "現況": 7005, "生え": 7006, "生かし": 7007, "目立つ": 7008, "石井": 7009, "綱": 7010, "繋がっ": 7011, "繰り返す": 7012, "芸": 7013, "芸能界": 7014, "被告": 7015, "複合": 7016, "込め": 7017, "阪急": 7018, "阿部": 7019, "飾っ": 7020, "##フェリー##": 7021, "##ベルリン##": 7022, "##ボストン##": 7023, "##交差点##": 7024, "##周##": 7025, "##奈良線##": 7026, "##日本コロムビア##": 7027, "##東京ガス##": 7028, "##相撲##": 7029, "##福岡ソフトバンクホークス##": 7030, "##秋田県##": 7031, "##衆議院##": 7032, "11月9日": 7033, "12月3日": 7034, "17歳": 7035, "20周年": 7036, "22日": 7037, "700": 7038, "7月27日": 7039, "Business": 7040, "aligned": 7041, "おい": 7042, "そのうち": 7043, "でし": 7044, "インターフェイス": 7045, "ステーション": 7046, "デカ": 7047, "ニュー": 7048, "メス": 7049, "リズム": 7050, "人工": 7051, "再興": 7052, "出撃": 7053, "出荷": 7054, "初戦": 7055, "原案": 7056, "団員": 7057, "多岐": 7058, "寿": 7059, "川島": 7060, "平成27年": 7061, "明るい": 7062, "樹立": 7063, "池田": 7064, "満足": 7065, "秋田": 7066, "競合": 7067, "米軍": 7068, "系譜": 7069, "胴体": 7070, "自転車": 7071, "茶": 7072, "警告": 7073, "越": 7074, "述べる": 7075, "追わ": 7076, "顕著": 7077, "鳥類": 7078, "##1908年##": 7079, "##Wii##": 7080, "##コンピュータゲーム##": 7081, "##ベトナム##": 7082, "##前秦##": 7083, "##半減期##": 7084, "##学名##": 7085, "##日本人##": 7086, "##東日本大震災##": 7087, "##生産##": 7088, "##自衛隊##": 7089, "##西崎_(糸満市)##": 7090, "10周年": 7091, "117": 7092, "1m": 7093, "20歳": 7094, "4月16日": 7095, "7月5日": 7096, "8分": 7097, "8月4日": 7098, "AI": 7099, "Be": 7100, "Project": 7101, "Thomas": 7102, "over": 7103, "にあ": 7104, "カナダ": 7105, "サイド": 7106, "ショーン": 7107, "ゾーン": 7108, "マシロ": 7109, "メガネ": 7110, "リア": 7111, "ロード": 7112, "他社": 7113, "令和元年": 7114, "会い": 7115, "便利": 7116, "僧": 7117, "優しい": 7118, "再開発": 7119, "冷却": 7120, "反面": 7121, "同国": 7122, "婦人": 7123, "学院": 7124, "宅": 7125, "守っ": 7126, "峠": 7127, "崎": 7128, "左衛門": 7129, "差し替え": 7130, "廃棄": 7131, "建築物": 7132, "引い": 7133, "念": 7134, "怪人": 7135, "愛人": 7136, "慎重": 7137, "戦線": 7138, "新編": 7139, "新聞社": 7140, "旋律": 7141, "暮らす": 7142, "有限会社": 7143, "毎月": 7144, "法令": 7145, "法学": 7146, "物資": 7147, "福井": 7148, "究極": 7149, "素人": 7150, "総会": 7151, "育ち": 7152, "腰": 7153, "芝居": 7154, "行使": 7155, "見方": 7156, "資料館": 7157, "車庫": 7158, "連覇": 7159, "階段": 7160, "露": 7161, "青山": 7162, "静岡": 7163, "##イタリア語##": 7164, "##オリコン##": 7165, "##ポニーキャニオン##": 7166, "##停車場##": 7167, "##千葉市##": 7168, "##実録出版##": 7169, "##川##": 7170, "##月##": 7171, "##水泳##": 7172, "##法律##": 7173, "##花火##": 7174, "##魔術##": 7175, "##鳥類##": 7176, "##麻_(繊維)##": 7177, "1959": 7178, "1月14日": 7179, "1月16日": 7180, "39年": 7181, "6月17日": 7182, "6枚": 7183, "8月29日": 7184, "Volume": 7185, "お金": 7186, "さくら": 7187, "しながら": 7188, "そうした": 7189, "もとで": 7190, "アイデア": 7191, "オレンジ": 7192, "テレビシリーズ": 7193, "バッテリー": 7194, "並びに": 7195, "主として": 7196, "優": 7197, "北西部": 7198, "原著": 7199, "周年": 7200, "失う": 7201, "平成29年": 7202, "征服": 7203, "必須": 7204, "斜め": 7205, "最期": 7206, "有無": 7207, "未明": 7208, "本科": 7209, "永遠": 7210, "浦": 7211, "町域": 7212, "総選挙": 7213, "西方": 7214, "要塞": 7215, "観光客": 7216, "許し": 7217, "談": 7218, "赤色": 7219, "起きる": 7220, "通勤": 7221, "逝去": 7222, "運": 7223, "量産": 7224, "集まり": 7225, "食べ物": 7226, "麓": 7227, "麻原": 7228, "##Category:仮名文字##": 7229, "##インターチェンジ##": 7230, "##スキー場##": 7231, "##ナイロビ##": 7232, "##モンゴル##": 7233, "##ラーメン##": 7234, "##北海道旅客鉄道##": 7235, "##建武_(漢)##": 7236, "##月曜日##": 7237, "##訴訟##": 7238, "##間##": 7239, ".).": 7240, "13回": 7241, "2世": 7242, "35度": 7243, "4月12日": 7244, "5%": 7245, "mathbf": 7246, "∈": 7247, "ものまね": 7248, "カーブ": 7249, "コミュニティ": 7250, "ドキュメンタリー": 7251, "パーク": 7252, "プレミアム": 7253, "マンション": 7254, "ワイド": 7255, "一新": 7256, "一般社団法人": 7257, "上巻": 7258, "両国": 7259, "乗降人員": 7260, "人妻": 7261, "伯爵": 7262, "併合": 7263, "備える": 7264, "出身地": 7265, "司": 7266, "同意": 7267, "商": 7268, "嘘": 7269, "天然": 7270, "安価": 7271, "宝": 7272, "専門家": 7273, "届出": 7274, "従っ": 7275, "急遽": 7276, "手前": 7277, "携帯": 7278, "敵対": 7279, "日テレ": 7280, "映": 7281, "服部": 7282, "東洋": 7283, "正しく": 7284, "殺す": 7285, "決まる": 7286, "浜田": 7287, "火災": 7288, "独": 7289, "畑": 7290, "発電": 7291, "眼鏡": 7292, "科学者": 7293, "調教": 7294, "逸話": 7295, "銅": 7296, "餌": 7297, "##Category:リッジレーサー##": 7298, "##アニメーション##": 7299, "##単位##": 7300, "##史跡##": 7301, "##昆虫##": 7302, "##朝鮮語##": 7303, "##東京大学大学院法学政治学研究科・法学部##": 7304, "##東芝##": 7305, "##清##": 7306, "##詩人##": 7307, "##越後交通##": 7308, "##鹿児島市##": 7309, ")：": 7310, "14回": 7311, "1942年": 7312, "1勝": 7313, "1月27日": 7314, "Association": 7315, "Times": 7316, "you": 7317, "いろいろ": 7318, "お互い": 7319, "ゆき": 7320, "チケット": 7321, "世帯": 7322, "仕組み": 7323, "住友": 7324, "住所": 7325, "体格": 7326, "先駆け": 7327, "勇": 7328, "千尋": 7329, "吸収合併": 7330, "奪還": 7331, "幻想": 7332, "当てる": 7333, "成り立つ": 7334, "支流": 7335, "早朝": 7336, "本当": 7337, "本物": 7338, "歌わ": 7339, "特別賞": 7340, "猛": 7341, "理念": 7342, "県立": 7343, "突如": 7344, "笑い": 7345, "築城": 7346, "自治": 7347, "蛇": 7348, "記念碑": 7349, "謝罪": 7350, "進": 7351, "間違い": 7352, "難しく": 7353, "##ゲーム##": 7354, "##チンギス・カン##": 7355, "##フィンランド##": 7356, "##ラジオパーソナリティ##": 7357, "##元_(王朝)##": 7358, "##幕末##": 7359, "##港区_(東京都)##": 7360, "##癌##": 7361, "##第四艦隊_(日本海軍)##": 7362, "##落語##": 7363, ".\"": 7364, "13日": 7365, "1936年": 7366, "1965": 7367, "1部": 7368, "2月13日": 7369, "2話": 7370, "31日": 7371, "43年": 7372, "6月8日": 7373, "9月9日": 7374, "B1": 7375, "KO": 7376, "Radio": 7377, "Sm": 7378, "WORLD": 7379, "rpm": 7380, "times": 7381, "·": 7382, "⋅": 7383, "かね": 7384, "きれ": 7385, "すると": 7386, "なす": 7387, "をめぐって": 7388, "インターナショナル": 7389, "ジャン": 7390, "チャレンジ": 7391, "デザイナー": 7392, "ナレーター": 7393, "ピンキッシュ": 7394, "プラザ": 7395, "上場": 7396, "下し": 7397, "中山": 7398, "主人": 7399, "代役": 7400, "儀式": 7401, "名目": 7402, "地震": 7403, "増強": 7404, "大使": 7405, "大正9年": 7406, "嫡男": 7407, "学術": 7408, "守り": 7409, "宛": 7410, "宮崎": 7411, "岡山": 7412, "巡っ": 7413, "幼少期": 7414, "建造物": 7415, "捉え": 7416, "日本版": 7417, "江内": 7418, "注文": 7419, "浮上": 7420, "白川": 7421, "第2部": 7422, "組む": 7423, "見た目": 7424, "視覚": 7425, "農民": 7426, "造": 7427, "間隔": 7428, "闘い": 7429, "馬場": 7430, "騎": 7431, "鹿児島": 7432, "##Category:韓国陸軍##": 7433, "##ウェルギリウス##": 7434, "##ルートヴィヒ・ヴァン・ベートーヴェン##": 7435, "##売春##": 7436, "##外野手##": 7437, "##島根県##": 7438, "##日光市##": 7439, "##物理単位##": 7440, ")=": 7441, "119": 7442, "12月7日": 7443, "130": 7444, "1930年": 7445, "1933年": 7446, "1934年": 7447, "2月14日": 7448, "2月4日": 7449, "CS": 7450, "EX": 7451, "Institute": 7452, "Shelton": 7453, "Tringa": 7454, "]、": 7455, "ne": 7456, "nikkei": 7457, "u.": 7458, "こんな": 7459, "さま": 7460, "それほど": 7461, "だり": 7462, "どれみ": 7463, "めぐり": 7464, "もたらす": 7465, "アン": 7466, "ビーム": 7467, "メジャーデビュー": 7468, "代々": 7469, "作風": 7470, "保証": 7471, "信濃": 7472, "切断": 7473, "制覇": 7474, "助ける": 7475, "名物": 7476, "大敗": 7477, "大正12年": 7478, "好み": 7479, "実行委員会": 7480, "寮": 7481, "射程": 7482, "市町村": 7483, "常": 7484, "広げ": 7485, "徳川": 7486, "悩み": 7487, "憲法": 7488, "抽選": 7489, "撃退": 7490, "文芸": 7491, "模型": 7492, "水平": 7493, "渋谷": 7494, "灰": 7495, "熱心": 7496, "特別番組": 7497, "現役時代": 7498, "第12話": 7499, "精度": 7500, "絵コンテ": 7501, "語源": 7502, "誤っ": 7503, "造ら": 7504, "鎮圧": 7505, "陽": 7506, "駆動": 7507, "駐在所": 7508, "##1900年##": 7509, "##3月29日##": 7510, "##3月30日##": 7511, "##エジプト##": 7512, "##スポーツ##": 7513, "##ミドル級##": 7514, "##ヴィルヘルム2世_(ドイツ皇帝)##": 7515, "##反日##": 7516, "##地名##": 7517, "##大日本帝国##": 7518, "##天城_(未成空母)##": 7519, "##家老##": 7520, "##慰安婦##": 7521, "##慶應義塾大学##": 7522, "##放送##": 7523, "##本##": 7524, "##称号##": 7525, "##航空母艦##": 7526, "##街道##": 7527, "##骨##": 7528, "104": 7529, "1938年": 7530, "1964": 7531, "2月17日": 7532, "61年": 7533, "IUCN": 7534, "MA": 7535, "NPB": 7536, "Night": 7537, "Research": 7538, "SF": 7539, "ndl": 7540, "β": 7541, "まい": 7542, "グッズ": 7543, "コイン": 7544, "ワシントン": 7545, "上限": 7546, "円形": 7547, "及ん": 7548, "取り組ん": 7549, "同校": 7550, "商店街": 7551, "大野": 7552, "学長": 7553, "射": 7554, "広大": 7555, "庭園": 7556, "招い": 7557, "新井": 7558, "早期": 7559, "本館": 7560, "次女": 7561, "混合": 7562, "準拠": 7563, "王族": 7564, "稼働": 7565, "絵本": 7566, "総括": 7567, "褐色": 7568, "路線バス": 7569, "車内": 7570, "農場": 7571, "週末": 7572, "過剰": 7573, "開戦": 7574, "露出": 7575, "##1906年##": 7576, "##いちご新聞##": 7577, "##エネルギー##": 7578, "##プロレス##": 7579, "##マッハ数##": 7580, "##マンモス##": 7581, "##三丁目の夕日##": 7582, "##中華民国##": 7583, "##北魏##": 7584, "##日刊スポーツ##": 7585, "##特撮##": 7586, "##皇族##": 7587, "##練馬区##": 7588, "##鎌倉時代##": 7589, "##陸上競技##": 7590, "106": 7591, "49年": 7592, "9月12日": 7593, "ASIN": 7594, "BA": 7595, "F3": 7596, "Festival": 7597, "GO": 7598, "List": 7599, "ON": 7600, "Star": 7601, "cdot": 7602, "いか": 7603, "とらのあな": 7604, "まれ": 7605, "みたい": 7606, "カタログ": 7607, "キング": 7608, "コミュニケーション": 7609, "トリオ": 7610, "ローカル": 7611, "三島": 7612, "上回る": 7613, "不良": 7614, "乗員": 7615, "前進": 7616, "創建": 7617, "加": 7618, "加熱": 7619, "化さ": 7620, "受付": 7621, "国土": 7622, "埋め立て": 7623, "太平洋": 7624, "導": 7625, "布": 7626, "建": 7627, "張": 7628, "従って": 7629, "悲劇": 7630, "我": 7631, "戸": 7632, "故に": 7633, "明日": 7634, "東大": 7635, "気温": 7636, "決議": 7637, "泥": 7638, "社名変更": 7639, "移る": 7640, "罠": 7641, "著しく": 7642, "訂": 7643, "進展": 7644, "進路": 7645, "鎮": 7646, "集積": 7647, "雷": 7648, "##10月20日##": 7649, "##1910年##": 7650, "##Category:ポンティアックの車種##": 7651, "##WOWOW##": 7652, "##キロワット##": 7653, "##ビートルズ##": 7654, "##世界フィギュアスケート選手権##": 7655, "##中央公論新社##": 7656, "##北九州市##": 7657, "##北涼##": 7658, "##司会##": 7659, "##天保##": 7660, "##富山市##": 7661, "##日産自動車##": 7662, "##条約##": 7663, "##東海道##": 7664, "##詩##": 7665, "109": 7666, "1918年": 7667, "1億": 7668, "A1": 7669, "B面": 7670, "From": 7671, "ONLINE": 7672, "Phylloscopus": 7673, "rm": 7674, "うまく": 7675, "これから": 7676, "すけ": 7677, "とりわけ": 7678, "なん": 7679, "もらい": 7680, "ゆかり": 7681, "カンパニー": 7682, "スペイン": 7683, "ブック": 7684, "ランクイン": 7685, "リポート": 7686, "リメイク": 7687, "中島": 7688, "中野": 7689, "入場": 7690, "分解": 7691, "判定勝ち": 7692, "原稿": 7693, "図説": 7694, "地下鉄": 7695, "大名": 7696, "対処": 7697, "専属": 7698, "小学館": 7699, "彦": 7700, "待つ": 7701, "戻し": 7702, "摂取": 7703, "日刊スポーツ": 7704, "時計": 7705, "望ん": 7706, "松平": 7707, "架": 7708, "架け": 7709, "栄": 7710, "比べる": 7711, "決断": 7712, "片": 7713, "狩り": 7714, "破": 7715, "胴": 7716, "自動的": 7717, "薄い": 7718, "行方不明": 7719, "見つかっ": 7720, "親会社": 7721, "踊り": 7722, "輩出": 7723, "重大": 7724, "鐘": 7725, "黒人": 7726, "##1902年##": 7727, "##アフガニスタン##": 7728, "##セルビア##": 7729, "##主要地方道##": 7730, "##吉本興業##": 7731, "##地域##": 7732, "##多摩美術大学##": 7733, "##夫余##": 7734, "##寛永##": 7735, "##戦争画##": 7736, "##料理##": 7737, "##高知県##": 7738, "-』": 7739, "1973": 7740, "2倍": 7741, "2週間": 7742, "3丁目": 7743, "4時間": 7744, "6月16日": 7745, "7巻": 7746, "Ameba": 7747, "First": 7748, "OB": 7749, "Paul": 7750, "vol": 7751, "‘": 7752, "″": 7753, "ことば": 7754, "そば": 7755, "わから": 7756, "コンテナ": 7757, "ゴム": 7758, "ジョブ": 7759, "パロディ": 7760, "ボイス": 7761, "メール": 7762, "ライセンス": 7763, "乗降": 7764, "併用": 7765, "借金": 7766, "写真集": 7767, "加わる": 7768, "医学": 7769, "取り戻し": 7770, "受賞者": 7771, "可決": 7772, "合う": 7773, "堀": 7774, "実体": 7775, "小野": 7776, "怪物": 7777, "挿入歌": 7778, "採取": 7779, "携わっ": 7780, "新曲": 7781, "暫定": 7782, "本拠": 7783, "東京商工リサーチ": 7784, "栄え": 7785, "煙": 7786, "生誕": 7787, "発信": 7788, "短期間": 7789, "補強": 7790, "触れる": 7791, "起動": 7792, "辺り": 7793, "返し": 7794, "金融": 7795, "鉱山": 7796, "銅メダル": 7797, "長崎": 7798, "閉じ": 7799, "青色": 7800, "騎乗": 7801, "!”.": 7802, "##4月3日##": 7803, "##ITER##": 7804, "##アタリ_(企業)##": 7805, "##エレベーター##": 7806, "##キン肉マンII世##": 7807, "##スペイン語##": 7808, "##ソ連##": 7809, "##プロ野球コーチ##": 7810, "##吉川弘文館##": 7811, "##店##": 7812, "##新宿区##": 7813, "##海津市##": 7814, "##財閥##": 7815, "##長良川##": 7816, "##韓国##": 7817, "1928年": 7818, "2年後": 7819, "3着": 7820, "6月11日": 7821, "CO": 7822, "Europe": 7823, "Group": 7824, "Larus": 7825, "No.1": 7826, "Pescara": 7827, "all": 7828, "いったん": 7829, "まる": 7830, "みなさ": 7831, "わが": 7832, "シール": 7833, "スキー": 7834, "スクール": 7835, "タイミング": 7836, "タツヒコ": 7837, "ドキュメント": 7838, "ポスター": 7839, "マガジン": 7840, "マッチ": 7841, "マンガ": 7842, "一気に": 7843, "上司": 7844, "世界観": 7845, "作品集": 7846, "保つ": 7847, "勝っ": 7848, "可愛い": 7849, "右腕": 7850, "國": 7851, "城主": 7852, "天井": 7853, "座席": 7854, "捜索": 7855, "支給": 7856, "新築": 7857, "時折": 7858, "會": 7859, "歩み": 7860, "残存": 7861, "王朝": 7862, "福祉": 7863, "紳士": 7864, "総長": 7865, "総集編": 7866, "菊地": 7867, "虫": 7868, "解任": 7869, "論じ": 7870, "追う": 7871, "連続ドラマ": 7872, "駐在": 7873, "高温": 7874, "##PlayStation_2##": 7875, "##主題歌##": 7876, "##佐世保市##": 7877, "##和歌山県##": 7878, "##日本中央競馬会##": 7879, "##明治神宮野球場##": 7880, "##暗号##": 7881, "##百貨店##": 7882, "##跨線橋##": 7883, "##近畿日本鉄道##": 7884, "##鋼##": 7885, ")(": 7886, "002": 7887, "26回": 7888, "2回目": 7889, "4枚": 7890, "5代": 7891, "5月24日": 7892, "CMソング": 7893, "MBS": 7894, "Review": 7895, "Richard": 7896, "SUPER": 7897, "comic": 7898, "δ": 7899, "きん": 7900, "に従い": 7901, "ぼく": 7902, "わたし": 7903, "ビッグ": 7904, "ピンク": 7905, "ベクトル": 7906, "モルガン": 7907, "亡命": 7908, "会派": 7909, "侵略": 7910, "全世界": 7911, "公募": 7912, "原子": 7913, "和名": 7914, "和歌山": 7915, "回っ": 7916, "地理": 7917, "大山": 7918, "定": 7919, "実務": 7920, "就": 7921, "就役": 7922, "徹": 7923, "手がける": 7924, "手続き": 7925, "操る": 7926, "旧道": 7927, "有志": 7928, "東海": 7929, "架かる": 7930, "止める": 7931, "歩兵": 7932, "江": 7933, "没収": 7934, "演習": 7935, "犯行": 7936, "男子シングルス": 7937, "異名": 7938, "砂": 7939, "社団法人": 7940, "編制": 7941, "脅威": 7942, "自作": 7943, "自機": 7944, "見習い": 7945, "身分": 7946, "遂げ": 7947, "遺産": 7948, "韓": 7949, "首席": 7950, "７": 7951, "##1901年##": 7952, "##アニメ_(日本のアニメーション作品)##": 7953, "##キーボード_(楽器)##": 7954, "##フリーアナウンサー##": 7955, "##ベース_(弦楽器)##": 7956, "##乃木坂46##": 7957, "##刈谷市##": 7958, "##東晋##": 7959, "##概念##": 7960, "##水木しげるロード##": 7961, "##甲斐国##": 7962, "##画像##": 7963, "##重要文化財##": 7964, "##関東地方##": 7965, "004": 7966, "10代": 7967, "10月12日": 7968, "1958": 7969, "25歳": 7970, "30秒": 7971, "3種類": 7972, "9時": 7973, "AT": 7974, "Day": 7975, "Google": 7976, "King": 7977, "full": 7978, "oricon": 7979, "ほん": 7980, "キロ": 7981, "ショート": 7982, "ダム": 7983, "プラン": 7984, "マスコミ": 7985, "ルーム": 7986, "上野": 7987, "事業部": 7988, "伝記": 7989, "先述": 7990, "制圧": 7991, "勇者": 7992, "商業施設": 7993, "大事": 7994, "天体": 7995, "始動": 7996, "射撃": 7997, "左側": 7998, "平行": 7999, "広まっ": 8000, "投げる": 8001, "捕虜": 8002, "敗れる": 8003, "最寄り": 8004, "本文": 8005, "業務提携": 8006, "標本": 8007, "武士": 8008, "民事": 8009, "水準": 8010, "環境省": 8011, "生ん": 8012, "発する": 8013, "素": 8014, "良好": 8015, "西武": 8016, "親族": 8017, "起工": 8018, "追求": 8019, "通巻": 8020, "造成": 8021, "郷土": 8022, "都道府県": 8023, "霧": 8024, "頭文字": 8025, "高まっ": 8026, "##3月25日##": 8027, "##4月5日##": 8028, "##う##": 8029, "##コーヒー##": 8030, "##サバ##": 8031, "##ハングル##": 8032, "##ミニプラ##": 8033, "##ランタン##": 8034, "##ロシア語##": 8035, "##北島三郎##": 8036, "##国際連合教育科学文化機関##": 8037, "##文化_(元号)##": 8038, "##東海テレビ放送##": 8039, "10万": 8040, "131": 8041, "47年": 8042, "5番": 8043, "Anas": 8044, "JRおでかけネット": 8045, "LIFE": 8046, "NH": 8047, "Species": 8048, "Vol.1": 8049, "new": 8050, "twitter": 8051, "あだ名": 8052, "たかっ": 8053, "ひろ": 8054, "アプローチ": 8055, "オリンピック": 8056, "カー": 8057, "コラボ": 8058, "コンクール": 8059, "ゴルフ": 8060, "タカシ": 8061, "ターン": 8062, "ダウン": 8063, "テーマソング": 8064, "ナイト": 8065, "ニューヨーク": 8066, "ブックス": 8067, "ポート": 8068, "ラ": 8069, "ランプ": 8070, "一行": 8071, "一門": 8072, "並": 8073, "主将": 8074, "伝わっ": 8075, "体育": 8076, "係る": 8077, "分かれる": 8078, "北条": 8079, "卿": 8080, "団長": 8081, "好ん": 8082, "尊敬": 8083, "就く": 8084, "山形": 8085, "帳": 8086, "平成26年": 8087, "平成28年": 8088, "広域": 8089, "後編": 8090, "後部": 8091, "意義": 8092, "支払う": 8093, "書き下ろし": 8094, "最小": 8095, "松田": 8096, "森田": 8097, "橋梁": 8098, "機材": 8099, "流入": 8100, "液体": 8101, "潜入": 8102, "現職": 8103, "生育": 8104, "番外": 8105, "登山": 8106, "私たち": 8107, "立体": 8108, "築か": 8109, "自民党": 8110, "被": 8111, "証": 8112, "認知": 8113, "論理": 8114, "踏切": 8115, "転身": 8116, "防御率": 8117, "順番": 8118, "##1960年代##": 8119, "##アッツ島玉砕##": 8120, "##アメリカ陸軍##": 8121, "##オスマン帝国##": 8122, "##カー・オブ・ザ・イヤー##": 8123, "##力士##": 8124, "##埼玉西武ライオンズ##": 8125, "##木更津駅##": 8126, "##目##": 8127, "##短歌##": 8128, "##音更町##": 8129, "##魚類##": 8130, "+\\": 8131, "/?": 8132, "141": 8133, "142": 8134, "16回": 8135, "200m": 8136, "30周年": 8137, "33年": 8138, "6番": 8139, "?」": 8140, "ALBACORE": 8141, "Dr": 8142, "Les": 8143, "pid": 8144, "そっくり": 8145, "たま": 8146, "ふたり": 8147, "アピール": 8148, "イオン": 8149, "サッカー選手": 8150, "セカンド": 8151, "パス": 8152, "マイ": 8153, "ロンドン": 8154, "丁": 8155, "乗": 8156, "互い": 8157, "以北": 8158, "位置付け": 8159, "信長": 8160, "偵察": 8161, "先発出場": 8162, "克服": 8163, "公示": 8164, "北京": 8165, "北朝鮮": 8166, "台頭": 8167, "同窓会": 8168, "名残": 8169, "名簿": 8170, "君主": 8171, "地上波": 8172, "墓地": 8173, "奪っ": 8174, "岩波書店": 8175, "巡": 8176, "帰り": 8177, "平山": 8178, "平野": 8179, "房": 8180, "排出": 8181, "新生": 8182, "施工": 8183, "本国": 8184, "津": 8185, "海底": 8186, "液": 8187, "疾患": 8188, "移築": 8189, "脱": 8190, "藤原": 8191, "血統": 8192, "被っ": 8193, "裁判所": 8194, "親しま": 8195, "誘い": 8196, "選択肢": 8197, "飛ぶ": 8198, "高崎": 8199, "##3月27日##": 8200, "##Category:チャイコフスキーの交響曲##": 8201, "##すばる_(雑誌)##": 8202, "##キャンプ##": 8203, "##ギリシャ王国##": 8204, "##京葉線##": 8205, "##助教授##": 8206, "##国際標準化機構##": 8207, "##土曜ワイド劇場##": 8208, "##小穂##": 8209, "##山本勘助##": 8210, "##島式ホーム##": 8211, "##熊本県##": 8212, "##片仮名##": 8213, "##郵便局##": 8214, "##鬼太郎##": 8215, "003": 8216, "35年": 8217, "4-1": 8218, "4回戦": 8219, "8人": 8220, "8号": 8221, "AP": 8222, "DACE": 8223, "ISDA": 8224, "Power": 8225, "dl": 8226, "f(x)": 8227, "official": 8228, "しっかり": 8229, "しま": 8230, "クラウゼヴィッツ": 8231, "シュトックハウゼン": 8232, "ジャンボ": 8233, "スイッチ": 8234, "タンク": 8235, "ターゲット": 8236, "トミー": 8237, "パック": 8238, "ヒント": 8239, "ベルト": 8240, "中川": 8241, "二重": 8242, "任さ": 8243, "優位": 8244, "八郎": 8245, "共和国": 8246, "切り": 8247, "刑": 8248, "制服": 8249, "売れ": 8250, "外し": 8251, "女子シングルス": 8252, "好む": 8253, "婿": 8254, "射殺": 8255, "引き起こす": 8256, "後世": 8257, "感じる": 8258, "戻さ": 8259, "放置": 8260, "暴行": 8261, "服装": 8262, "本数": 8263, "東日本": 8264, "棘": 8265, "歌謡": 8266, "滝": 8267, "災害": 8268, "獣医": 8269, "知り合い": 8270, "禁じ": 8271, "突撃": 8272, "紋章": 8273, "絶滅": 8274, "繁栄": 8275, "行か": 8276, "要件": 8277, "詩集": 8278, "詳しい": 8279, "認証": 8280, "軽減": 8281, "避難": 8282, "重い": 8283, "重賞": 8284, "鎧": 8285, "関節": 8286, "除外": 8287, "＠": 8288, "##1872年##": 8289, "##1896年##": 8290, "##1897年##": 8291, "##シナモロール##": 8292, "##スポンサー##": 8293, "##パチンコ##": 8294, "##ブロッケンJr.##": 8295, "##マーマイト##": 8296, "##ミリメートル##": 8297, "##仮名_(文字)##": 8298, "##坂本龍一##": 8299, "##大名##": 8300, "##官報##": 8301, "##新聞##": 8302, "##法務省##": 8303, "##航空自衛隊##": 8304, "##貴族院_(日本)##": 8305, "##足利直義##": 8306, "##阪神百貨店##": 8307, "-」": 8308, "010": 8309, "123": 8310, "170": 8311, "220": 8312, "3勝": 8313, "4th": 8314, "4階": 8315, "50mm": 8316, "5月8日": 8317, "8位": 8318, "BEST": 8319, "J-CAST": 8320, "Vol.2": 8321, "おおむね": 8322, "カップリング": 8323, "コフスキー": 8324, "ジャーナル": 8325, "セッション": 8326, "チャ": 8327, "チームメイト": 8328, "ハイ": 8329, "パーティ": 8330, "ユース": 8331, "ルイ": 8332, "レール": 8333, "一見": 8334, "不利": 8335, "中でも": 8336, "中型": 8337, "保守": 8338, "修": 8339, "側近": 8340, "児": 8341, "冠し": 8342, "出品": 8343, "努め": 8344, "協賛": 8345, "反論": 8346, "号機": 8347, "同族": 8348, "含める": 8349, "増やし": 8350, "変数": 8351, "大衆": 8352, "対峙": 8353, "市販": 8354, "平成22年": 8355, "平成23年": 8356, "庵": 8357, "強盗": 8358, "推理": 8359, "撃沈": 8360, "日付": 8361, "活かし": 8362, "流出": 8363, "減": 8364, "漢": 8365, "爆撃": 8366, "特記": 8367, "産経ニュース": 8368, "町名": 8369, "癖": 8370, "西洋": 8371, "訂正": 8372, "辞退": 8373, "逃走": 8374, "隠居": 8375, "集まる": 8376, "靴": 8377, "音楽家": 8378, "顧客": 8379, "食料": 8380, "!!」": 8381, "##11月30日##": 8382, "##コント##": 8383, "##ジョージア_(缶コーヒー)##": 8384, "##ボイラー##": 8385, "##ミュージック・ビデオ##": 8386, "##南_(糸満市)##": 8387, "##名護##": 8388, "##哲学##": 8389, "##方言##": 8390, "##日本テレビ##": 8391, "##村松駅_(新潟県)##": 8392, "##松山市##": 8393, "##王氏##": 8394, "##第三艦隊_(日本海軍)##": 8395, "##観光##": 8396, ".（": 8397, "012": 8398, "10人": 8399, "112": 8400, "126": 8401, "144": 8402, "19時": 8403, "37年": 8404, "3度目": 8405, "40分": 8406, "7号": 8407, "Club": 8408, "EP": 8409, "Family": 8410, "George": 8411, "TOP": 8412, "US": 8413, "del": 8414, "release": 8415, "おそらく": 8416, "のみで": 8417, "アルバイト": 8418, "コメンテーター": 8419, "シーズン終了": 8420, "チェック": 8421, "デッキ": 8422, "パンフレット": 8423, "パーシング": 8424, "フォーム": 8425, "プレ": 8426, "ヤクルト": 8427, "他者": 8428, "大島": 8429, "始発": 8430, "学級": 8431, "富山": 8432, "市街": 8433, "従う": 8434, "感動": 8435, "抜き": 8436, "招き": 8437, "政党": 8438, "旧制": 8439, "晴": 8440, "本家": 8441, "没し": 8442, "無線": 8443, "無限": 8444, "燁子": 8445, "甲斐": 8446, "異例": 8447, "短": 8448, "祝日": 8449, "秘": 8450, "第11話": 8451, "総合司会": 8452, "装甲": 8453, "補正": 8454, "計測": 8455, "訪ね": 8456, "豪華": 8457, "越後": 8458, "逃し": 8459, "通貨": 8460, "造形": 8461, "遊": 8462, "運ば": 8463, "部会": 8464, "門下": 8465, "）:": 8466, "～（": 8467, "##1903年##": 8468, "##DBMS##": 8469, "##イタリアの地方行政区画##": 8470, "##エレクトリックベース##": 8471, "##フジネットワーク##": 8472, "##ユダヤ人##": 8473, "##参議院##": 8474, "##大津市##": 8475, "##実業家##": 8476, "##東京地方裁判所##": 8477, "##牧場##": 8478, "##細胞診##": 8479, "##議会##": 8480, "##雷_(吹雪型駆逐艦)##": 8481, "134": 8482, "137": 8483, "13歳": 8484, "149": 8485, "2000年度": 8486, "20時": 8487, "Best": 8488, "Endangered": 8489, "Magazine": 8490, "le": 8491, "いた事": 8492, "がそ": 8493, "ざわ": 8494, "にし": 8495, "オス": 8496, "キット": 8497, "ショック": 8498, "ジム": 8499, "ス": 8500, "ソース": 8501, "ドラフト": 8502, "ライフ": 8503, "リーグ戦": 8504, "三代": 8505, "三浦": 8506, "中出し": 8507, "乗車券": 8508, "亡くなる": 8509, "仏教": 8510, "休業": 8511, "入部": 8512, "加わり": 8513, "史実": 8514, "合っ": 8515, "垂直": 8516, "夏季": 8517, "多大": 8518, "大和": 8519, "天野": 8520, "好評": 8521, "宗家": 8522, "定期的": 8523, "実業家": 8524, "富士": 8525, "寸前": 8526, "引き起こし": 8527, "影響力": 8528, "打ち切り": 8529, "折": 8530, "担任": 8531, "招聘": 8532, "新しく": 8533, "時差": 8534, "最下位": 8535, "楽しみ": 8536, "没後": 8537, "治": 8538, "激怒": 8539, "特設": 8540, "獲物": 8541, "生年": 8542, "真面目": 8543, "着陸": 8544, "移": 8545, "移さ": 8546, "繋がり": 8547, "義家": 8548, "職務": 8549, "背番号": 8550, "航行": 8551, "行方": 8552, "袖": 8553, "言": 8554, "誰か": 8555, "貝": 8556, "負う": 8557, "買い": 8558, "辞職": 8559, "農村": 8560, "追": 8561, "遠い": 8562, "雇用": 8563, "雷蔵": 8564, "領地": 8565, "高額": 8566, "；": 8567, "##1871年##": 8568, "##みどりの窓口##": 8569, "##アンドルフ##": 8570, "##イスラーム##": 8571, "##カクテル##": 8572, "##コトバンク##": 8573, "##テキサス州##": 8574, "##マフィア##": 8575, "##ワリオ##": 8576, "##世田谷区##": 8577, "##九州旅客鉄道##": 8578, "##八尾市##": 8579, "##公立学校##": 8580, "##杉山神社##": 8581, "##歴史##": 8582, "##演劇##": 8583, "##競馬の競走格付け##": 8584, "##第五艦隊_(日本海軍)##": 8585, "##都市##": 8586, "##長安##": 8587, "##鳥取県##": 8588, "100周年": 8589, "14歳": 8590, "160": 8591, "1929年": 8592, "1932年": 8593, "1960": 8594, "1年目": 8595, "3時間": 8596, "4代": 8597, "Don": 8598, "ED": 8599, "May": 8600, "Op.": 8601, "Song": 8602, "South": 8603, "Two": 8604, "William": 8605, "city": 8606, "site": 8607, "そもそも": 8608, "よしい美希": 8609, "わたる": 8610, "を以て": 8611, "アンナ": 8612, "キ": 8613, "プレス": 8614, "マイク": 8615, "マイナス": 8616, "マリー": 8617, "ユニフォーム": 8618, "リアル": 8619, "一年": 8620, "乗組員": 8621, "交戦": 8622, "仮面": 8623, "伸びる": 8624, "偽": 8625, "先頭": 8626, "全滅": 8627, "出入り": 8628, "名門": 8629, "喪失": 8630, "営": 8631, "大図鑑": 8632, "大戦": 8633, "孤立": 8634, "宮本": 8635, "宮殿": 8636, "寄与": 8637, "屋外": 8638, "巨": 8639, "帯び": 8640, "戻す": 8641, "招か": 8642, "持続": 8643, "改": 8644, "新人賞": 8645, "於": 8646, "東映": 8647, "樹木": 8648, "歩道": 8649, "残": 8650, "水深": 8651, "決着": 8652, "注釈": 8653, "活動休止": 8654, "演算": 8655, "無理": 8656, "狸": 8657, "直結": 8658, "笑顔": 8659, "組ま": 8660, "経営者": 8661, "聴く": 8662, "苦労": 8663, "茜": 8664, "落ちる": 8665, "谷口": 8666, "責任者": 8667, "赤字": 8668, "越える": 8669, "連合軍": 8670, "野球部": 8671, "隆": 8672, "隠さ": 8673, "集英社": 8674, "飾り": 8675, "##7月20日##": 8676, "##すみれ_(モデル)##": 8677, "##トルコ##": 8678, "##ハーデース##": 8679, "##ラジオ番組##": 8680, "##元禄##": 8681, "##四国##": 8682, "##市##": 8683, "##戦後##": 8684, "##普通列車##": 8685, "##東京証券取引所##": 8686, "##東海道本線##": 8687, "##細胞診断##": 8688, "##逮捕_(日本法)##": 8689, "-\\": 8690, "113": 8691, "129": 8692, "2008年度": 8693, "6時": 8694, "CPU": 8695, "KC": 8696, "begin": 8697, "my": 8698, "view": 8699, "ψ": 8700, "あらかじめ": 8701, "きり": 8702, "とくに": 8703, "ともない": 8704, "もち": 8705, "やら": 8706, "アタック": 8707, "アニメ版": 8708, "アパート": 8709, "ウィリアム": 8710, "オフィシャル": 8711, "オムニバス": 8712, "キャッチコピー": 8713, "クエスト": 8714, "ケーブル": 8715, "トレード": 8716, "ドラゴン": 8717, "ニックネーム": 8718, "パン": 8719, "ブース": 8720, "ラブ": 8721, "レンタル": 8722, "交互": 8723, "入り口": 8724, "刺激": 8725, "北条氏": 8726, "可動": 8727, "埋め": 8728, "奪取": 8729, "学区": 8730, "安藤": 8731, "実戦": 8732, "客車": 8733, "小屋": 8734, "広義": 8735, "強引": 8736, "情熱": 8737, "想像": 8738, "成る": 8739, "打っ": 8740, "抱く": 8741, "撃墜": 8742, "日産": 8743, "旧姓": 8744, "法学部": 8745, "滝川": 8746, "片方": 8747, "特撮": 8748, "産経新聞": 8749, "男児": 8750, "破損": 8751, "竹": 8752, "署": 8753, "衛生": 8754, "覚悟": 8755, "記念式典": 8756, "資本金": 8757, "転落": 8758, "通用": 8759, "運転手": 8760, "過酷": 8761, "郭": 8762, "野口": 8763, "針": 8764, "院長": 8765, "飛ん": 8766, "駆使": 8767, "駒": 8768, "驚い": 8769, "高める": 8770, "高価": 8771, "##4月4日##": 8772, "##コンピュータ##": 8773, "##バッファローマン##": 8774, "##ベツコミ##": 8775, "##内房線##": 8776, "##地下鉄##": 8777, "##基地##": 8778, "##宣伝##": 8779, "##廬山##": 8780, "##戦艦##": 8781, "##控訴##": 8782, "##朝鮮民主主義人民共和国##": 8783, "##株式##": 8784, "##検断##": 8785, "##競馬場##": 8786, "##軍人##": 8787, "##遺跡##": 8788, "##鉄##": 8789, ")）": 8790, "15回": 8791, "1920年": 8792, "19回": 8793, "2010年度": 8794, "63年": 8795, "82%": 8796, "B2": 8797, "Garrulax": 8798, "MLB": 8799, "STYLE": 8800, "Smith": 8801, "gov": 8802, "history": 8803, "index": 8804, "∶": 8805, "あたっ": 8806, "お兄ちゃん": 8807, "けんど": 8808, "アカデミー": 8809, "コラボレーション": 8810, "シェア": 8811, "タイアップ": 8812, "ネオ": 8813, "バリエーション": 8814, "ビジョン": 8815, "フレーム": 8816, "モハ": 8817, "ローマ": 8818, "下位": 8819, "不幸": 8820, "仮称": 8821, "会っ": 8822, "保健": 8823, "保育園": 8824, "信": 8825, "叔母": 8826, "各々": 8827, "否": 8828, "回路": 8829, "売り": 8830, "大橋": 8831, "天下": 8832, "室内": 8833, "巻末": 8834, "批評": 8835, "折り返し": 8836, "招く": 8837, "指令": 8838, "排気": 8839, "揃っ": 8840, "新書": 8841, "明かさ": 8842, "次郎": 8843, "武田氏": 8844, "水力": 8845, "深さ": 8846, "潜": 8847, "神奈川": 8848, "移設": 8849, "絆": 8850, "継ぐ": 8851, "編集者": 8852, "色々": 8853, "藤本": 8854, "見事": 8855, "調理": 8856, "譚": 8857, "踏襲": 8858, "農家": 8859, "選び": 8860, "還元": 8861, "長岡": 8862, "長距離": 8863, "間違え": 8864, "陸": 8865, "馬力": 8866, "##1898年##": 8867, "##3月28日##": 8868, "##4月2日##": 8869, "##7月24日##": 8870, "##7月31日##": 8871, "##アメリカ空軍##": 8872, "##オムニバス##": 8873, "##バス停留所##": 8874, "##上野国##": 8875, "##南極点##": 8876, "##只見線##": 8877, "##徴用##": 8878, "##民法##": 8879, "##租界##": 8880, "##近江今津駅##": 8881, "##重賞##": 8882, "2009年度": 8883, "8巻": 8884, "900": 8885, "France": 8886, "Remix": 8887, "School": 8888, "nikkansports.com": 8889, "ぎょ": 8890, "こなし": 8891, "はやて": 8892, "アナログ": 8893, "オファー": 8894, "オンエア": 8895, "クリスマス": 8896, "ゲームソフト": 8897, "セキュリティ": 8898, "ドラマCD": 8899, "プロモーション": 8900, "ベテラン": 8901, "ボート": 8902, "リーチ": 8903, "ロング": 8904, "上海": 8905, "両側": 8906, "伝統的": 8907, "保険": 8908, "免れ": 8909, "全国大会": 8910, "前編": 8911, "劇場アニメ": 8912, "劣る": 8913, "勢い": 8914, "合わ": 8915, "増殖": 8916, "大全": 8917, "奪い": 8918, "宿泊": 8919, "対戦相手": 8920, "将校": 8921, "小島": 8922, "工学": 8923, "待っ": 8924, "挙行": 8925, "春季": 8926, "昭和20年": 8927, "書状": 8928, "替り": 8929, "正室": 8930, "水路": 8931, "求めて": 8932, "沈没": 8933, "溝口": 8934, "焼き": 8935, "片側": 8936, "犯": 8937, "病死": 8938, "石原": 8939, "粒子": 8940, "緩和": 8941, "自信": 8942, "英文": 8943, "袋": 8944, "西経": 8945, "辞め": 8946, "近藤": 8947, "迫っ": 8948, "都内": 8949, "重要性": 8950, "鎖": 8951, "長期間": 8952, "開園": 8953, "髪型": 8954, "##1904年##": 8955, "##2##": 8956, "##4月6日##": 8957, "##Twitter##": 8958, "##アメリカ独立戦争##": 8959, "##イゼルニア県##": 8960, "##イヌ##": 8961, "##クロノス##": 8962, "##スカウト_(勧誘)##": 8963, "##ピーター・カール・ファベルジェ##": 8964, "##マグニチュード##": 8965, "##和歌山駅##": 8966, "##大垣市##": 8967, "##手術##": 8968, "##政治##": 8969, "##日本海##": 8970, "##日本郵便##": 8971, "##日本電気##": 8972, "##軍##": 8973, "##銅##": 8974, "##電車##": 8975, "##黒島_(長崎県佐世保市)##": 8976, ",\"": 8977, "0%": 8978, "100m": 8979, "100万": 8980, "122": 8981, "1927年": 8982, "1931年": 8983, "25分": 8984, "2種": 8985, "3世": 8986, "3度": 8987, "46年": 8988, "48年": 8989, "5年間": 8990, "</": 8991, "ANA": 8992, "COM": 8993, "Emberiza": 8994, "Grand": 8995, "Guide": 8996, "Museum": 8997, "OVA": 8998, "Rock": 8999, "Service": 9000, "][": 9001, "ar": 9002, "muscle": 9003, "rt": 9004, "uk": 9005, "Δ": 9006, "∗": 9007, "ある時": 9008, "たけ": 9009, "でん": 9010, "エリート": 9011, "カウンター": 9012, "カプセル": 9013, "スタンダード": 9014, "セ": 9015, "デビュー作": 9016, "ボックス": 9017, "ン": 9018, "下巻": 9019, "世界初": 9020, "世界各国": 9021, "交通量": 9022, "人気投票": 9023, "候": 9024, "出動": 9025, "副社長": 9026, "労働者": 9027, "占拠": 9028, "周期": 9029, "喜び": 9030, "土井": 9031, "圧倒": 9032, "女神": 9033, "学生時代": 9034, "宇都宮": 9035, "密か": 9036, "寝": 9037, "小柄": 9038, "干渉": 9039, "平成21年": 9040, "幽霊": 9041, "志村": 9042, "急死": 9043, "打": 9044, "扮": 9045, "投与": 9046, "拡散": 9047, "授け": 9048, "推奨": 9049, "改組": 9050, "日本野球機構": 9051, "最高裁": 9052, "有数": 9053, "木材": 9054, "杖": 9055, "極東": 9056, "標": 9057, "権威": 9058, "次第": 9059, "浴び": 9060, "減っ": 9061, "無数": 9062, "犠牲者": 9063, "生物学": 9064, "用地": 9065, "疑惑": 9066, "白色": 9067, "皮切り": 9068, "目覚め": 9069, "破棄": 9070, "祖先": 9071, "積": 9072, "習慣": 9073, "聞か": 9074, "腸": 9075, "花嫁": 9076, "若": 9077, "落成": 9078, "虐殺": 9079, "解明": 9080, "記す": 9081, "調査結果": 9082, "起": 9083, "通知": 9084, "都市計画": 9085, "野菜": 9086, "隔週": 9087, "集結": 9088, "頂点": 9089, "##10月21日##": 9090, "##SUPER_GT##": 9091, "##アラビア語##": 9092, "##キューバ##": 9093, "##グランドラピッズ_(ミシガン州)##": 9094, "##ナイツ_(お笑いコンビ)##": 9095, "##ナタリー_(ニュースサイト)##": 9096, "##卒業##": 9097, "##君津駅##": 9098, "##日本の消防##": 9099, "##東北地方##": 9100, "##氷##": 9101, "##相対式ホーム##": 9102, "##航空券##": 9103, "##誤差##": 9104, "##資生堂##": 9105, "##鎌倉##": 9106, "##長野市##": 9107, "##雑誌##": 9108, "##音読み##": 9109, "##高松市##": 9110, "##鬱陵島##": 9111, "##魔女##": 9112, "//": 9113, "10位": 9114, "115": 9115, "148": 9116, "174": 9117, "1世": 9118, "2020年度": 9119, "57年": 9120, "Air": 9121, "CB": 9122, "Dictionary": 9123, "Go": 9124, "Nature": 9125, "PC-9801": 9126, "SFC": 9127, "ankei": 9128, "hat": 9129, "psi": 9130, "こなす": 9131, "インディーズ": 9132, "オーストラリア": 9133, "シ": 9134, "パンチ": 9135, "ファッション": 9136, "三郎": 9137, "両手": 9138, "令和2年": 9139, "体長": 9140, "侍": 9141, "入れ替え": 9142, "分子": 9143, "別荘": 9144, "利点": 9145, "刻ま": 9146, "勇気": 9147, "塊": 9148, "大森": 9149, "失踪": 9150, "字形": 9151, "宝石": 9152, "実子": 9153, "実録": 9154, "容器": 9155, "対局": 9156, "寿命": 9157, "工夫": 9158, "平面": 9159, "建て替え": 9160, "心理": 9161, "手塚": 9162, "捕食": 9163, "掌握": 9164, "敦賀": 9165, "斉藤": 9166, "早川": 9167, "昼間": 9168, "時々": 9169, "木製": 9170, "深": 9171, "病変": 9172, "社会人": 9173, "福": 9174, "移民": 9175, "老": 9176, "茂吉": 9177, "行える": 9178, "襲い": 9179, "見なさ": 9180, "記念誌": 9181, "負": 9182, "選挙区": 9183, "野村": 9184, "銀河": 9185, "鎌倉": 9186, "雌": 9187, "順序": 9188, "題名": 9189, "食堂": 9190, "飾る": 9191, "魔術": 9192, "６": 9193, "##1895年##": 9194, "##ウィーン##": 9195, "##ブランド##": 9196, "##プレデター_(架空の生物)##": 9197, "##プロ野球##": 9198, "##丁銀##": 9199, "##三島由紀夫##": 9200, "##伊達政宗##": 9201, "##南九州西回り自動車道##": 9202, "##厚生労働省##": 9203, "##室町時代##": 9204, "##日本の市町村の廃置分合##": 9205, "##時代劇##": 9206, "##暴力団##": 9207, "##測定##": 9208, "##脚本##": 9209, "006": 9210, "114": 9211, "116": 9212, "127": 9213, "133": 9214, "1955": 9215, "3000": 9216, "ATM": 9217, "Archive": 9218, "Bari": 9219, "ndljp": 9220, "presents": 9221, "}-": 9222, "∇": 9223, "┃": 9224, "もらえる": 9225, "よって": 9226, "カップリング曲": 9227, "スキル": 9228, "ステップ": 9229, "ズ": 9230, "ダンサー": 9231, "パワーレンジャー": 9232, "ポーランド": 9233, "ランダム": 9234, "ロボ": 9235, "乱": 9236, "仕上げ": 9237, "付き合い": 9238, "作曲者": 9239, "倒産": 9240, "公的": 9241, "初日": 9242, "区内": 9243, "卒業生": 9244, "南緯": 9245, "収納": 9246, "召喚": 9247, "同居": 9248, "名作": 9249, "名護": 9250, "完璧": 9251, "寄稿": 9252, "密接": 9253, "山名": 9254, "巡り": 9255, "幅広く": 9256, "平成7年": 9257, "幹事": 9258, "弱く": 9259, "我が": 9260, "打つ": 9261, "抽出": 9262, "拒絶": 9263, "携帯電話": 9264, "散歩": 9265, "機動": 9266, "正当": 9267, "母方": 9268, "気づい": 9269, "法案": 9270, "洞窟": 9271, "涼": 9272, "燃焼": 9273, "産卵": 9274, "神様": 9275, "秋季": 9276, "舞踊": 9277, "荷物": 9278, "藤沢": 9279, "親戚": 9280, "角度": 9281, "読ま": 9282, "調書": 9283, "踏まえ": 9284, "退所": 9285, "透明": 9286, "速い": 9287, "過激": 9288, "隅": 9289, "電鉄": 9290, "飲食店": 9291, "｡": 9292, "##1886年##": 9293, "##20世紀##": 9294, "##7月15日##": 9295, "##アーケードゲーム##": 9296, "##ショッピングセンター##": 9297, "##ゾイド##": 9298, "##ゾロアスター教##": 9299, "##ディスクジョッキー##": 9300, "##マルタ##": 9301, "##メヌエット##": 9302, "##ラーメンマン##": 9303, "##リトアニア##": 9304, "##写真##": 9305, "##南涼##": 9306, "##合併_(企業)##": 9307, "##岩波文庫##": 9308, "##御殿場線##": 9309, "##本田技研工業##": 9310, "##核融合##": 9311, "##武田勝頼##": 9312, "##満州##": 9313, "##自由主義##": 9314, "##被告人##": 9315, "##関西大学##": 9316, "##音##": 9317, "180": 9318, "18世紀": 9319, "18回": 9320, "1925年": 9321, "19歳": 9322, "6つ": 9323, "English": 9324, "High": 9325, "White": 9326, "information": 9327, "mathbb": 9328, "あげる": 9329, "いきなり": 9330, "おう": 9331, "お気に入り": 9332, "たけし": 9333, "でしょ": 9334, "どおり": 9335, "はら": 9336, "みな": 9337, "わかり": 9338, "エ": 9339, "エル": 9340, "サン": 9341, "ジャズ": 9342, "スペイン語": 9343, "セレクション": 9344, "デラックス": 9345, "ナビ": 9346, "ニッポン": 9347, "プレート": 9348, "ボランティア": 9349, "レビュー": 9350, "ロ": 9351, "下ろし": 9352, "並べ": 9353, "中堅": 9354, "交え": 9355, "入隊": 9356, "公益財団法人": 9357, "分ける": 9358, "分校": 9359, "参": 9360, "右側": 9361, "吉川": 9362, "同地": 9363, "営ん": 9364, "夕焼けの詩": 9365, "大津": 9366, "嫌っ": 9367, "学問": 9368, "宙": 9369, "対話": 9370, "小倉": 9371, "少佐": 9372, "巻き": 9373, "帰る": 9374, "平成11年": 9375, "年上": 9376, "引き上げ": 9377, "情勢": 9378, "才": 9379, "投球": 9380, "政令": 9381, "暗黒": 9382, "朝廷": 9383, "正則": 9384, "法的": 9385, "浜": 9386, "無人化": 9387, "献上": 9388, "猿": 9389, "獣医学": 9390, "田村": 9391, "番地": 9392, "知れ": 9393, "第13話": 9394, "第1弾": 9395, "納得": 9396, "総額": 9397, "見舞わ": 9398, "誘拐": 9399, "識別": 9400, "軍艦": 9401, "載せ": 9402, "近所": 9403, "退治": 9404, "閉館": 9405, "開港": 9406, "集約": 9407, "頼り": 9408, "飲む": 9409, "!?": 9410, "##4月15日##": 9411, "##8月15日##": 9412, "##Category:軍事学書##": 9413, "##HUNTER×HUNTERの登場人物##": 9414, "##刑法##": 9415, "##北海道日本ハムファイターズ##": 9416, "##大岡越前_(テレビドラマ)##": 9417, "##後漢書##": 9418, "##東京府##": 9419, "##機関車##": 9420, "##県_(中華人民共和国)##": 9421, "##織田信長##": 9422, "##色##": 9423, "##裁判##": 9424, "##西村賢太##": 9425, "##認識##": 9426, "##豊橋市##": 9427, "##遊園地##": 9428, "##酸素##": 9429, "##関脇##": 9430, "##電流##": 9431, "/-/": 9432, "005": 9433, "008": 9434, "145": 9435, "166": 9436, "17回": 9437, "50分": 9438, "53年": 9439, "9位": 9440, "Charadrius": 9441, "F4": 9442, "Is": 9443, "JA": 9444, "Michael": 9445, "Millennium": 9446, "NEW": 9447, "TO": 9448, "au": 9449, "blog": 9450, "ja": 9451, "nabla": 9452, "ちゅ": 9453, "につれて": 9454, "はじめて": 9455, "もはや": 9456, "やま": 9457, "エロ": 9458, "キロメートル": 9459, "シャトル": 9460, "チーフ": 9461, "バラエティ": 9462, "リーグ優勝": 9463, "令和3年": 9464, "任期": 9465, "余裕": 9466, "判例": 9467, "助言": 9468, "動揺": 9469, "南下": 9470, "博": 9471, "同梱": 9472, "名所": 9473, "告発": 9474, "地表": 9475, "基調": 9476, "婚約": 9477, "審判": 9478, "岡": 9479, "巣": 9480, "工藤": 9481, "弓": 9482, "彩": 9483, "心臓": 9484, "志望": 9485, "戦時中": 9486, "技能": 9487, "振動": 9488, "探す": 9489, "携わる": 9490, "教官": 9491, "教諭": 9492, "斜": 9493, "断っ": 9494, "日本経済": 9495, "星人": 9496, "朝日新聞社": 9497, "栄養": 9498, "梅": 9499, "櫓": 9500, "消える": 9501, "消失": 9502, "渡邊": 9503, "準レギュラー": 9504, "激減": 9505, "王家": 9506, "申し出": 9507, "町内": 9508, "皮膚": 9509, "瞳": 9510, "矛盾": 9511, "石田": 9512, "確か": 9513, "累計": 9514, "細かい": 9515, "繊維": 9516, "自主": 9517, "萌": 9518, "落とす": 9519, "襲う": 9520, "西川": 9521, "観戦": 9522, "趣旨": 9523, "近畿": 9524, "運ぶ": 9525, "道中": 9526, "遺族": 9527, "金長": 9528, "離反": 9529, "飲ん": 9530, "高まり": 9531, "##4月10日##": 9532, "##え##": 9533, "##アジア##": 9534, "##イオン##": 9535, "##クッパ_(ゲームキャラクター)##": 9536, "##サウスカロライナ州##": 9537, "##ニューオーリンズ##": 9538, "##バンコク##": 9539, "##ヒト##": 9540, "##フジテレビ##": 9541, "##プール##": 9542, "##吉井美希##": 9543, "##太陽##": 9544, "##施設##": 9545, "##日本テレビネットワーク協議会##": 9546, "##日蓮##": 9547, "##普通科_(学校)##": 9548, "##東京メトロポリタンテレビジョン##": 9549, "##標高##": 9550, "##民事再生法##": 9551, "##知識##": 9552, "##秦##": 9553, "##霊##": 9554, "146": 9555, "147": 9556, "156": 9557, "1917年": 9558, "1957": 9559, "1試合": 9560, "2基": 9561, "350": 9562, "500人": 9563, "81%": 9564, "Blood": 9565, "B型": 9566, "Girl": 9567, "PC-98": 9568, "ab": 9569, "delta": 9570, "k.": 9571, "music": 9572, "tamabi": 9573, "▲": 9574, "たくさん": 9575, "オブジェクト": 9576, "カジンスキー": 9577, "デ": 9578, "フレーズ": 9579, "ポケット": 9580, "メカ": 9581, "世話": 9582, "互換性": 9583, "他国": 9584, "代表者": 9585, "元来": 9586, "入線": 9587, "全体的": 9588, "再発": 9589, "分家": 9590, "判定負け": 9591, "別人": 9592, "又": 9593, "収益": 9594, "吉継": 9595, "周辺地域": 9596, "国内外": 9597, "土屋": 9598, "堤防": 9599, "士官": 9600, "奪う": 9601, "差別": 9602, "常識": 9603, "年末": 9604, "当事者": 9605, "徐々": 9606, "心理学": 9607, "成人": 9608, "手続": 9609, "抄": 9610, "抱き": 9611, "挙兵": 9612, "採択": 9613, "新制": 9614, "新潮社": 9615, "旅館": 9616, "明示": 9617, "明記": 9618, "晩": 9619, "本町": 9620, "柳原": 9621, "格闘": 9622, "歯": 9623, "気味": 9624, "法則": 9625, "無償": 9626, "特有": 9627, "生み出さ": 9628, "産地": 9629, "福田": 9630, "第2弾": 9631, "統": 9632, "群れ": 9633, "職人": 9634, "腹部": 9635, "落語": 9636, "襲名": 9637, "誘致": 9638, "豆": 9639, "近づく": 9640, "連立": 9641, "陵": 9642, "電波": 9643, "駐": 9644, "８": 9645, "##10月15日##": 9646, "##10月2日##": 9647, "##12月16日##": 9648, "##12月20日##": 9649, "##CBCテレビ##": 9650, "##EMIミュージック・ジャパン##": 9651, "##MBSラジオ##": 9652, "##PowerShell##": 9653, "##クラブチーム_(社会人野球)##": 9654, "##ジェロニモ_(キン肉マン)##": 9655, "##マレーシア##": 9656, "##中央区_(東京都)##": 9657, "##小惑星##": 9658, "##当用漢字##": 9659, "##政府##": 9660, "##東##": 9661, "##東京市##": 9662, "##横綱##": 9663, "##生放送##": 9664, "##甲府市##": 9665, "##発電所##": 9666, "##笑点##": 9667, "##美濃国##": 9668, "##赤城_(空母)##": 9669, "##遺伝子##": 9670, ")」『": 9671, "011": 9672, "0m": 9673, "10年間": 9674, "121": 9675, "175": 9676, "35分": 9677, "3年生": 9678, "4歳": 9679, "56年": 9680, "58年": 9681, "BC": 9682, "MOOK": 9683, "Peter": 9684, "Special": 9685, "TOUR": 9686, "Up": 9687, "pas": 9688, "}}}}": 9689, "ぎ": 9690, "ましょ": 9691, "オールムービー": 9692, "クラシック": 9693, "クラスメイト": 9694, "コマ": 9695, "サブタイトル": 9696, "ジャッジ": 9697, "デバイス": 9698, "メロディ": 9699, "レポーター": 9700, "一説": 9701, "中身": 9702, "主翼": 9703, "京子": 9704, "会談": 9705, "住職": 9706, "信用": 9707, "修羅": 9708, "円錐": 9709, "出番": 9710, "加算": 9711, "勲章": 9712, "南端": 9713, "口調": 9714, "合わせる": 9715, "名曲": 9716, "地上デジタル": 9717, "変": 9718, "外伝": 9719, "多彩": 9720, "太賀": 9721, "妖精": 9722, "守備隊": 9723, "安全性": 9724, "密着": 9725, "専": 9726, "尺": 9727, "崖": 9728, "差異": 9729, "平成24年": 9730, "志向": 9731, "応援団": 9732, "日本経済新聞": 9733, "星野": 9734, "期間限定": 9735, "木下": 9736, "本堂": 9737, "村人": 9738, "杯": 9739, "植え": 9740, "此": 9741, "治世": 9742, "清掃": 9743, "炭": 9744, "爆破": 9745, "狭く": 9746, "監禁": 9747, "短期": 9748, "神殿": 9749, "立案": 9750, "筆": 9751, "系列局": 9752, "臨ん": 9753, "至": 9754, "蓋": 9755, "読み方": 9756, "載っ": 9757, "近海": 9758, "追って": 9759, "進数": 9760, "遠藤": 9761, "部位": 9762, "開発者": 9763, "階層": 9764, "面会": 9765, "預け": 9766, "領内": 9767, "飲み": 9768, "飲料": 9769, "##10月10日##": 9770, "##10月3日##": 9771, "##9月28日##": 9772, "##ウェルター級##": 9773, "##オランダ領東インド##": 9774, "##スーパーファミコン##": 9775, "##タヌキ##": 9776, "##ビートたけし##": 9777, "##フィレンツェ##": 9778, "##マーガレット・スミス・コート##": 9779, "##光##": 9780, "##大同電力##": 9781, "##太田市##": 9782, "##火曜日##": 9783, "##画家##": 9784, "##結婚##": 9785, "##館山駅##": 9786, "##騎手##": 9787, "##高瀬一矢##": 9788, ")/": 9789, ")}{": 9790, "118": 9791, "1962": 9792, "1968": 9793, "22回": 9794, "45分": 9795, "5時": 9796, "IT": 9797, "JR東海": 9798, "MS": 9799, "Movie": 9800, "OCLC": 9801, "Records": 9802, "Sarcophaga": 9803, "^{-": 9804, "content": 9805, "varepsilon": 9806, "”,": 9807, "くに": 9808, "ぐらい": 9809, "しろ": 9810, "ぞう": 9811, "たろ": 9812, "ちゃ": 9813, "とある": 9814, "となり": 9815, "やす": 9816, "アドバイザー": 9817, "アビリティ": 9818, "インター": 9819, "キャンプ": 9820, "ギャラリー": 9821, "コア": 9822, "ジェット": 9823, "ジン": 9824, "ソウル": 9825, "ナビゲーター": 9826, "ビスマルク": 9827, "プライベート": 9828, "ボンド": 9829, "モニター": 9830, "ルーツ": 9831, "上方": 9832, "交わし": 9833, "仕える": 9834, "全編": 9835, "再結成": 9836, "刻": 9837, "創": 9838, "勧告": 9839, "南東部": 9840, "審議": 9841, "封入": 9842, "居城": 9843, "店主": 9844, "度目": 9845, "急増": 9846, "捧げ": 9847, "故人": 9848, "斜面": 9849, "映画監督": 9850, "標識": 9851, "武将": 9852, "活性": 9853, "混合ダブルス": 9854, "混同": 9855, "環": 9856, "登記": 9857, "直面": 9858, "眞子さま": 9859, "研究科": 9860, "砲撃": 9861, "符": 9862, "等しい": 9863, "籠": 9864, "紅": 9865, "紛争": 9866, "総督": 9867, "育つ": 9868, "艇": 9869, "西村麻聡": 9870, "見学": 9871, "設ける": 9872, "詰め": 9873, "誘わ": 9874, "貫通": 9875, "贈呈": 9876, "足り": 9877, "連ね": 9878, "遅く": 9879, "金銭": 9880, "静": 9881, "静か": 9882, "頂上": 9883, "順に": 9884, "首領": 9885, "香": 9886, "駅前": 9887, "駆けつけ": 9888, "高性能": 9889, "高速道路": 9890, "９": 9891, "!!（": 9892, "##12月3日##": 9893, "##18世紀##": 9894, "##3月18日##": 9895, "##9月25日##": 9896, "##し##": 9897, "##ダイヤ改正##": 9898, "##ハワイ##": 9899, "##メット_(ゲームキャラクター)##": 9900, "##ロサンゼルス##": 9901, "##二塁手##": 9902, "##医療##": 9903, "##大分市##": 9904, "##市町村##": 9905, "##忍者##": 9906, "##感染症##": 9907, "##打率##": 9908, "##撮影##": 9909, "##東南アジア##": 9910, "##果実##": 9911, "##浅野財閥##": 9912, "##無所属##": 9913, "##磁場##": 9914, "##西秦##": 9915, "##近畿地方##": 9916, "##連続テレビ小説##": 9917, "##都道府県##": 9918, "##音楽##": 9919, ")+": 9920, "164": 9921, "168": 9922, "1924年": 9923, "200人": 9924, "21回": 9925, "23:00": 9926, "360": 9927, "40周年": 9928, "?]": 9929, "ABC": 9930, "Art": 9931, "BOOK": 9932, "Books": 9933, "Center": 9934, "Die": 9935, "YOU": 9936, "bit": 9937, "ch": 9938, "eiga": 9939, "h.": 9940, "」/": 9941, "〒": 9942, "いかに": 9943, "だらけ": 9944, "つとめ": 9945, "ほ": 9946, "ウイルス": 9947, "オリックス": 9948, "グランド": 9949, "シネマ": 9950, "ツイン": 9951, "ピーター": 9952, "争っ": 9953, "健太": 9954, "入所": 9955, "全曲": 9956, "分断": 9957, "前線": 9958, "勘違い": 9959, "勾配": 9960, "原田": 9961, "吉野": 9962, "呪い": 9963, "呼び名": 9964, "因む": 9965, "圧": 9966, "域内": 9967, "変異": 9968, "大作": 9969, "大尉": 9970, "大正8年": 9971, "女流": 9972, "妙": 9973, "嫁": 9974, "宇宙人": 9975, "安": 9976, "密度": 9977, "少年時代": 9978, "強大": 9979, "役目": 9980, "性別": 9981, "成歩堂": 9982, "戦史": 9983, "戦艦": 9984, "改修工事": 9985, "文化的": 9986, "日外アソシエーツ": 9987, "期限": 9988, "本番": 9989, "根本": 9990, "格好": 9991, "格納": 9992, "民放": 9993, "派閥": 9994, "流す": 9995, "灰色": 9996, "無くなっ": 9997, "牙": 9998, "生地": 9999, "甲子園": 10000, "知": 10001, "石油": 10002, "石炭": 10003, "祈り": 10004, "神体": 10005, "稿": 10006, "穏やか": 10007, "膜": 10008, "膨大": 10009, "茂": 10010, "虹": 10011, "表情": 10012, "補償": 10013, "近辺": 10014, "野外": 10015, "野田": 10016, "隙": 10017, "駐留": 10018, "鷹": 10019, "麻雀": 10020, "##3月26日##": 10021, "##オレンジジュース##": 10022, "##スズキ_(企業)##": 10023, "##ダンス##": 10024, "##バンダイ##": 10025, "##ヴォルフガング・アマデウス・モーツァルト##": 10026, "##京都新聞##": 10027, "##共和党_(アメリカ)##": 10028, "##左沢町##": 10029, "##庭園##": 10030, "##後北条氏##": 10031, "##手塚治虫##": 10032, "##東京ドーム##": 10033, "##演奏会##": 10034, "##物理学##": 10035, "##甘寧##": 10036, "##自動券売機##": 10037, "##軌道長半径##": 10038, "##関節##": 10039, "100万円": 10040, "1016": 10041, "12歳": 10042, "162": 10043, "2000年代": 10044, "2021年度": 10045, "222": 10046, "3曲": 10047, "3話": 10048, "5t": 10049, "6本": 10050, "Base": 10051, "China": 10052, "D1": 10053, "G2": 10054, "Instrumental": 10055, "Mr": 10056, "PV": 10057, "ex": 10058, "life": 10059, "さゆり": 10060, "つて": 10061, "つなぐ": 10062, "ならび": 10063, "サイン": 10064, "サービス開始": 10065, "シンプル": 10066, "ストレート": 10067, "タワー": 10068, "ドメイン": 10069, "ノー": 10070, "バイト": 10071, "ブレーキ": 10072, "ポンド": 10073, "モジュール": 10074, "ロス": 10075, "ロバート": 10076, "争奪": 10077, "休刊": 10078, "伴奏": 10079, "佐": 10080, "体調": 10081, "促す": 10082, "保": 10083, "先代": 10084, "分かり": 10085, "分散": 10086, "加納": 10087, "単一": 10088, "危険性": 10089, "収める": 10090, "叩き": 10091, "吹き替え": 10092, "営む": 10093, "基幹": 10094, "塁": 10095, "大正11年": 10096, "奇跡": 10097, "奈良": 10098, "奪三振": 10099, "完": 10100, "小池": 10101, "小説家": 10102, "工房": 10103, "平成14年": 10104, "幼馴染": 10105, "強姦": 10106, "微妙": 10107, "惚れ": 10108, "惹か": 10109, "愛する": 10110, "成し遂げ": 10111, "指標": 10112, "断絶": 10113, "於い": 10114, "日誌": 10115, "本丸": 10116, "本気": 10117, "欠場": 10118, "歩行": 10119, "活動中": 10120, "活性化": 10121, "源流": 10122, "溝": 10123, "灯": 10124, "焦点": 10125, "生き残り": 10126, "生徒会": 10127, "直ちに": 10128, "破る": 10129, "神経": 10130, "第14話": 10131, "第十": 10132, "篠原": 10133, "紀行": 10134, "紅白": 10135, "艦船": 10136, "葬儀": 10137, "薔薇": 10138, "行け": 10139, "誘惑": 10140, "軽量": 10141, "造営": 10142, "進歩": 10143, "遅い": 10144, "遅れネット": 10145, "違法": 10146, "間宮": 10147, "電化": 10148, "食材": 10149, "駆逐": 10150, "##1878年##": 10151, "##C++##": 10152, "##アビスパ福岡##": 10153, "##キングレコード##": 10154, "##サリン##": 10155, "##ジャーナリスト##": 10156, "##マイクロソフト##": 10157, "##マッグガーデン##": 10158, "##上智大学##": 10159, "##史記##": 10160, "##夏_(五胡十六国)##": 10161, "##夏見##": 10162, "##宝塚歌劇団##": 10163, "##寛政##": 10164, "##後涼##": 10165, "##拍子##": 10166, "##明治維新##": 10167, "##水蒸気##": 10168, "##海##": 10169, "##社会##": 10170, "##神聖ローマ皇帝##": 10171, "##農芸化学者##": 10172, "##連合国軍最高司令官総司令部##": 10173, "##酒##": 10174, "##重力##": 10175, "##金属##": 10176, "##鎌倉幕府##": 10177, "##関東大震災##": 10178, "10号": 10179, "1961": 10180, "5歳": 10181, "80%": 10182, "BB": 10183, "Charles": 10184, "Hall": 10185, "LTD": 10186, "Publishing": 10187, "SPECIAL": 10188, "September": 10189, "edition": 10190, "ə": 10191, "あや": 10192, "いっぱい": 10193, "おこなっ": 10194, "かかり": 10195, "つながり": 10196, "ふく": 10197, "ア": 10198, "アル": 10199, "アンド": 10200, "エフェクト": 10201, "カール": 10202, "シールド": 10203, "セックス": 10204, "タカトシ": 10205, "ドモン": 10206, "ハート": 10207, "バカ": 10208, "ブラジル": 10209, "プレミア": 10210, "ボクシング": 10211, "リクエスト": 10212, "レモン": 10213, "ヵ月": 10214, "三菱": 10215, "上手く": 10216, "乗務員": 10217, "事務局長": 10218, "今村": 10219, "仕立て": 10220, "供養": 10221, "入ら": 10222, "公布": 10223, "公社": 10224, "再演": 10225, "勝つ": 10226, "包": 10227, "取り扱う": 10228, "向い": 10229, "味沢": 10230, "品種": 10231, "夏休み": 10232, "大勢": 10233, "大塚": 10234, "奇妙": 10235, "契約者": 10236, "妖怪": 10237, "実父": 10238, "小山": 10239, "届け": 10240, "平定": 10241, "平成5年": 10242, "平方メートル": 10243, "年末年始": 10244, "延": 10245, "式典": 10246, "強め": 10247, "往来": 10248, "志願": 10249, "応え": 10250, "意志": 10251, "技師": 10252, "抹消": 10253, "握っ": 10254, "改変": 10255, "放ち": 10256, "断面": 10257, "施策": 10258, "明るく": 10259, "望月": 10260, "末裔": 10261, "格式": 10262, "梁": 10263, "武藤": 10264, "歴史家": 10265, "水上": 10266, "河内": 10267, "注入": 10268, "点在": 10269, "狭義": 10270, "現役引退": 10271, "生み出す": 10272, "男の子": 10273, "発電所": 10274, "秋の": 10275, "自国": 10276, "葵": 10277, "血液": 10278, "西暦": 10279, "諦め": 10280, "軽い": 10281, "迎撃": 10282, "造り": 10283, "進水": 10284, "開幕戦": 10285, "闘争": 10286, "離れる": 10287, "順調": 10288, "高かっ": 10289, "##10月31日##": 10290, "##4月7日##": 10291, "##9月29日##": 10292, "##Category:小諸牧野家##": 10293, "##JR##": 10294, "##アメリカ合衆国大統領##": 10295, "##グランジ_(お笑いトリオ)##": 10296, "##スーパーマーケット##": 10297, "##パナソニック##": 10298, "##ビクターエンタテインメント##": 10299, "##プレミアリーグ##": 10300, "##ルーシ族##": 10301, "##レコード会社##": 10302, "##光武帝##": 10303, "##円_(通貨)##": 10304, "##労働組合##": 10305, "##国内総生産##": 10306, "##地中海##": 10307, "##征夷大将軍##": 10308, "##明石市##": 10309, "##森高千里##": 10310, "##細胞##": 10311, "##繞##": 10312, "##警察##": 10313, "##釣り##": 10314, "##鉄道の電化##": 10315, "##離心率##": 10316, "##鮮卑##": 10317, ")”,": 10318, "013": 10319, "014": 10320, "124": 10321, "153": 10322, "1基": 10323, "2018年度": 10324, "24回": 10325, "32年": 10326, "5秒": 10327, ":『": 10328, "AC": 10329, "And": 10330, "Big": 10331, "Do": 10332, "GI": 10333, "Good": 10334, "INC": 10335, "Internet": 10336, "ME": 10337, "MP": 10338, "Pterodroma": 10339, "Theory": 10340, "UP": 10341, "We": 10342, "]）": 10343, "ac": 10344, "are": 10345, "data": 10346, "」[": 10347, "がた": 10348, "ウクライナ": 10349, "ガーデン": 10350, "クリスタル": 10351, "サクラ": 10352, "プロダクト": 10353, "プロレス": 10354, "ヤクザ": 10355, "一瞬": 10356, "両津": 10357, "争う": 10358, "代表取締役": 10359, "任せ": 10360, "佐野": 10361, "体質": 10362, "優勝者": 10363, "党首": 10364, "冷静": 10365, "初登板": 10366, "別々": 10367, "去る": 10368, "反転": 10369, "受け継が": 10370, "句": 10371, "合": 10372, "同時代": 10373, "咲く": 10374, "品質": 10375, "国産": 10376, "塁打": 10377, "境界線": 10378, "大砲": 10379, "守ら": 10380, "完全子会社": 10381, "少々": 10382, "巧み": 10383, "市道": 10384, "引き受け": 10385, "後援": 10386, "復刻": 10387, "振り返る": 10388, "探査": 10389, "掲げる": 10390, "換算": 10391, "損失": 10392, "撤廃": 10393, "書類": 10394, "最盛期": 10395, "最適": 10396, "次期": 10397, "正力": 10398, "気付い": 10399, "決定的": 10400, "爪": 10401, "犯し": 10402, "番目": 10403, "疑わ": 10404, "直接的": 10405, "研究員": 10406, "破綻": 10407, "第18話": 10408, "胤": 10409, "脂肪": 10410, "芸能活動": 10411, "蓄積": 10412, "見出し": 10413, "視野": 10414, "読本": 10415, "調べる": 10416, "豪": 10417, "踊る": 10418, "返す": 10419, "返礼": 10420, "退官": 10421, "酒井": 10422, "闘う": 10423, "音楽監督": 10424, "飛び出し": 10425, "首都圏": 10426, "高原": 10427, "高山": 10428, "高松": 10429, "高速バス": 10430, "##.jp##": 10431, "##11月15日##": 10432, "##12月25日##": 10433, "##6月30日##": 10434, "##:File:PIA19561-Ceres-DwarfPlanet-Dawn-OpNav8-image3-20150516.jpg##": 10435, "##イギリス海軍##": 10436, "##ウェブサイト##": 10437, "##シカゴ##": 10438, "##テレビ埼玉##": 10439, "##ハドソン##": 10440, "##ビール##": 10441, "##リンク_(ゲームキャラクター)##": 10442, "##中京テレビ放送##": 10443, "##京阪電気鉄道##": 10444, "##北欧神話##": 10445, "##卵##": 10446, "##国勢調査##": 10447, "##外務省##": 10448, "##子音##": 10449, "##日本国##": 10450, "##木曜日##": 10451, "##松本市##": 10452, "##桑田佳祐##": 10453, "##社会主義##": 10454, "##自動改札機##": 10455, "##蒸気機関##": 10456, "##遠藤さくら##": 10457, "##鉄道公報##": 10458, "##長岡駅##": 10459, "1500": 10460, "171": 10461, "172": 10462, "1914年": 10463, "1年後": 10464, "2点": 10465, "6%": 10466, "8%": 10467, "About": 10468, "G1": 10469, "Inter": 10470, "Media": 10471, "North": 10472, "OK": 10473, "RECORDS": 10474, "SE": 10475, "ce": 10476, "version": 10477, "≤": 10478, "おこなわ": 10479, "かな": 10480, "くま": 10481, "たか": 10482, "なくなり": 10483, "ねん": 10484, "もり": 10485, "よば": 10486, "アダプター": 10487, "オランダ": 10488, "オリコン": 10489, "カウント": 10490, "カ国": 10491, "ゲイジ": 10492, "ジェームズ": 10493, "テクニック": 10494, "デイリースポーツ": 10495, "ヒト": 10496, "フランク": 10497, "マリ": 10498, "一方的": 10499, "上半身": 10500, "乳": 10501, "今年": 10502, "代わる": 10503, "休養": 10504, "住": 10505, "偉大": 10506, "備考": 10507, "元少年": 10508, "全国的": 10509, "内外": 10510, "午前": 10511, "原点": 10512, "反動": 10513, "取扱い": 10514, "号外": 10515, "同種": 10516, "国内線": 10517, "売買": 10518, "変革": 10519, "多額": 10520, "大学時代": 10521, "大学生": 10522, "奉行": 10523, "孤独": 10524, "學": 10525, "導い": 10526, "崩し": 10527, "左腕": 10528, "広範囲": 10529, "序": 10530, "待ち": 10531, "怪": 10532, "意味合い": 10533, "愛情": 10534, "承継": 10535, "挟ま": 10536, "斎": 10537, "日韓": 10538, "最悪": 10539, "本質": 10540, "柳田": 10541, "槍": 10542, "標的": 10543, "次長": 10544, "武家": 10545, "死に": 10546, "水道": 10547, "浸透": 10548, "消化": 10549, "瀬島": 10550, "燕": 10551, "狐": 10552, "狙わ": 10553, "産出": 10554, "留": 10555, "痛み": 10556, "発注": 10557, "百科事典": 10558, "相違": 10559, "砂漠": 10560, "積ん": 10561, "空軍": 10562, "管内": 10563, "結城": 10564, "緊張": 10565, "羅": 10566, "耐性": 10567, "芽": 10568, "葬ら": 10569, "襲っ": 10570, "見かけ": 10571, "親指": 10572, "観音": 10573, "議": 10574, "賞賛": 10575, "迂回": 10576, "返済": 10577, "通達": 10578, "遂行": 10579, "選曲": 10580, "野球選手": 10581, "関連会社": 10582, "電動": 10583, "電流": 10584, "飼っ": 10585, "黒田": 10586, "##12月9日##": 10587, "##1868年##": 10588, "##3月10日##": 10589, "##3月12日##": 10590, "##3月22日##": 10591, "##5月31日##": 10592, "##7人の悪魔超人##": 10593, "##JVCケンウッド・ビクターエンタテインメント##": 10594, "##PlayStation_(ゲーム機)##": 10595, "##ソフトウェア##": 10596, "##テロリズム##": 10597, "##ト_(音名)##": 10598, "##ドキュメンタリー##": 10599, "##マイティジャック##": 10600, "##マカオ##": 10601, "##ミュージシャン##": 10602, "##ルイ14世_(フランス王)##": 10603, "##一橋大学##": 10604, "##佐竹氏##": 10605, "##修養団##": 10606, "##和歌山市駅##": 10607, "##大本営##": 10608, "##大陸会議##": 10609, "##本社##": 10610, "##東夷##": 10611, "##点##": 10612, "##破産##": 10613, "##竹書房##": 10614, "##航空会社##": 10615, "##遊撃手##": 10616, "##野球場##": 10617, "##釣り竿##": 10618, "##馬主##": 10619, "##高麗##": 10620, "1点": 10621, "2014年度": 10622, "22時": 10623, "25回": 10624, "2試合": 10625, "4代目": 10626, "6歳": 10627, ":=": 10628, "FR": 10629, "TIE": 10630, "daily": 10631, "exp": 10632, "np": 10633, "おかげ": 10634, "お願い": 10635, "そ": 10636, "つくる": 10637, "にくく": 10638, "まるで": 10639, "サイボーグ": 10640, "ジュエル": 10641, "チェーン": 10642, "ドット": 10643, "パワーアップ": 10644, "フォーマット": 10645, "ベン": 10646, "ホワイト": 10647, "マルチ": 10648, "メモ": 10649, "ユーザ": 10650, "レギュラー番組": 10651, "一人称": 10652, "不十分": 10653, "中学時代": 10654, "会う": 10655, "住み": 10656, "佐世保": 10657, "兵庫": 10658, "助教授": 10659, "協": 10660, "博し": 10661, "反し": 10662, "受け取る": 10663, "史跡": 10664, "合唱": 10665, "向こう": 10666, "商事": 10667, "善": 10668, "報酬": 10669, "塚": 10670, "増刊号": 10671, "大全集": 10672, "大谷": 10673, "大黒": 10674, "天国": 10675, "嫉妬": 10676, "富": 10677, "専門店": 10678, "少なかっ": 10679, "屈曲": 10680, "常連": 10681, "店長": 10682, "庶民": 10683, "廃車": 10684, "廟": 10685, "後退": 10686, "慕っ": 10687, "戦車": 10688, "技術者": 10689, "抗": 10690, "挑ん": 10691, "挑戦者": 10692, "救わ": 10693, "教皇": 10694, "数回": 10695, "昌": 10696, "春日": 10697, "曲線": 10698, "最新記事": 10699, "望ましい": 10700, "札": 10701, "東京放送": 10702, "横山": 10703, "気に入っ": 10704, "満ち": 10705, "無失点": 10706, "牧": 10707, "目録": 10708, "相撲": 10709, "矢野": 10710, "組み立て": 10711, "組長": 10712, "総務": 10713, "脳": 10714, "自社制作": 10715, "自覚": 10716, "著し": 10717, "行政区": 10718, "表題曲": 10719, "裏切り": 10720, "試合後": 10721, "賢": 10722, "通い": 10723, "適当": 10724, "邪魔": 10725, "配線": 10726, "金色": 10727, "銘": 10728, "陣営": 10729, "面白い": 10730, "音符": 10731, "骨折": 10732, "～」": 10733, "##10月28日##": 10734, "##1894年##": 10735, "##2月11日##": 10736, "##2月8日##": 10737, "##5月20日##": 10738, "##BSフジ##": 10739, "##ゑ##": 10740, "##ウマ##": 10741, "##エンジン##": 10742, "##キネマ旬報##": 10743, "##ターラー_(通貨)##": 10744, "##ホリプロ##": 10745, "##マサチューセッツ州##": 10746, "##マリオ_(ゲームキャラクター)##": 10747, "##中央大学##": 10748, "##伝説##": 10749, "##偵察##": 10750, "##公明党##": 10751, "##内閣総理大臣##": 10752, "##博士##": 10753, "##博物館##": 10754, "##古墳##": 10755, "##安土桃山時代##": 10756, "##崩御##": 10757, "##日本映画##": 10758, "##昭和天皇##": 10759, "##普通選挙##": 10760, "##武蔵国##": 10761, "##熱帯##": 10762, "##競馬##": 10763, "##苫小牧駅##": 10764, "##警察署##": 10765, "##越後国##": 10766, "##阪神甲子園球場##": 10767, "##風神##": 10768, "(a)": 10769, "10歳": 10770, "154": 10771, "1922年": 10772, "1953": 10773, "21時": 10774, "51年": 10775, "Book": 10776, "Daniel": 10777, "Game": 10778, "Mark": 10779, "Out": 10780, "ROCK": 10781, "Report": 10782, "This": 10783, "What": 10784, "Wrestling": 10785, "me": 10786, "und": 10787, "}}_{": 10788, "いたこと": 10789, "お笑い": 10790, "からだ": 10791, "たとえ": 10792, "ちょうど": 10793, "とちぎ": 10794, "イメージキャラクター": 10795, "エコ": 10796, "ガ": 10797, "ガッツ": 10798, "キン肉": 10799, "クール": 10800, "ゴールド": 10801, "スロット": 10802, "タロー": 10803, "テナント": 10804, "ハード": 10805, "ハードウェア": 10806, "パパ": 10807, "フィート": 10808, "ホールディングス": 10809, "マネジメント": 10810, "ロープ": 10811, "一流": 10812, "一般人": 10813, "事象": 10814, "人民": 10815, "仲間たち": 10816, "伊達": 10817, "修道院": 10818, "傾斜": 10819, "出張": 10820, "出自": 10821, "初恋": 10822, "厚い": 10823, "受け取っ": 10824, "困っ": 10825, "国史": 10826, "基本情報": 10827, "売ら": 10828, "大夫": 10829, "大抵": 10830, "姪": 10831, "定か": 10832, "定年": 10833, "宛て": 10834, "家老": 10835, "尊重": 10836, "島田": 10837, "平成13年": 10838, "平成30年": 10839, "平等": 10840, "年数": 10841, "幸福": 10842, "手伝い": 10843, "技術的": 10844, "擁する": 10845, "攻勢": 10846, "文藝春秋": 10847, "日数": 10848, "旬": 10849, "昭和22年": 10850, "暴れ": 10851, "書院": 10852, "松原": 10853, "果て": 10854, "民家": 10855, "気分": 10856, "決定版": 10857, "深め": 10858, "混在": 10859, "火力": 10860, "生態": 10861, "略し": 10862, "皇太子": 10863, "直轄": 10864, "石垣": 10865, "科目": 10866, "童": 10867, "細い": 10868, "終日": 10869, "繰り広げる": 10870, "聖堂": 10871, "聴い": 10872, "肖像": 10873, "航": 10874, "行なう": 10875, "訓": 10876, "試みる": 10877, "誇っ": 10878, "語尾": 10879, "警察官": 10880, "豚": 10881, "貸し": 10882, "転居": 10883, "輝く": 10884, "辞書": 10885, "辻": 10886, "退け": 10887, "退学": 10888, "連発": 10889, "進言": 10890, "遺伝子": 10891, "長時間": 10892, "長身": 10893, "電圧": 10894, "電子版": 10895, "飛来": 10896, "高い評価": 10897, "##10月12日##": 10898, "##10月5日##": 10899, "##1887年##": 10900, "##1890年##": 10901, "##4月21日##": 10902, "##8月31日##": 10903, "##9月18日##": 10904, "##WWE##": 10905, "##アクエリアス##": 10906, "##アメリカ航空宇宙局##": 10907, "##イオン_(店舗ブランド)##": 10908, "##ウクライナ・コサック##": 10909, "##オートバイ##": 10910, "##テレビ番組##": 10911, "##ナレーション##": 10912, "##プロレスラー##": 10913, "##ヤマハ##": 10914, "##事件##": 10915, "##交響曲##": 10916, "##光文社文庫##": 10917, "##加須市##": 10918, "##化石##": 10919, "##医療費##": 10920, "##大関##": 10921, "##山姥##": 10922, "##工場##": 10923, "##後藤新平##": 10924, "##憲政会##": 10925, "##東京地下鉄##": 10926, "##桐ケ丘_(東京都北区)##": 10927, "##機動##": 10928, "##殺人罪_(日本)##": 10929, "##犬##": 10930, "##神田川_(東京都)##": 10931, "##私年号##": 10932, "##科_(分類学)##": 10933, "##篠原ともえ##": 10934, "##米倉千尋##": 10935, "##紫_(バンド)##": 10936, "##自殺##": 10937, "##華人##": 10938, "##親鸞##": 10939, "##調教師##": 10940, "##警視庁##": 10941, "##質量##": 10942, "##赤外線##": 10943, "##足利氏##": 10944, "10巻": 10945, "151": 10946, "169": 10947, "17世紀": 10948, "1926年": 10949, "21歳": 10950, "230": 10951, "4年間": 10952, "4期": 10953, "7つ": 10954, "7時": 10955, "9人": 10956, "FOR": 10957, "Falco": 10958, "Japanese": 10959, "Puffinus": 10960, "TIME": 10961, "Tokyo": 10962, "about": 10963, "un": 10964, "up": 10965, "ver": 10966, "いし": 10967, "か国": 10968, "けい": 10969, "こども": 10970, "しょうがっこう": 10971, "もたらさ": 10972, "エレベーター": 10973, "コンピューター": 10974, "サークル": 10975, "スパイ": 10976, "タナトス": 10977, "ダーク": 10978, "ニュースリリース": 10979, "ファースト": 10980, "フィギュア": 10981, "ペース": 10982, "メリット": 10983, "一大": 10984, "不可欠": 10985, "世界一": 10986, "中尾": 10987, "乗り場": 10988, "也": 10989, "乱入": 10990, "乾": 10991, "五郎": 10992, "代用": 10993, "佐久": 10994, "体型": 10995, "例年": 10996, "冷凍": 10997, "出家": 10998, "切": 10999, "判事": 11000, "動かす": 11001, "勝率": 11002, "北島": 11003, "南西部": 11004, "即座": 11005, "器具": 11006, "墓所": 11007, "墜落": 11008, "家屋": 11009, "寄進": 11010, "展望": 11011, "崩れ": 11012, "恒例": 11013, "成田": 11014, "拡幅": 11015, "排水": 11016, "掛かる": 11017, "支障": 11018, "救済": 11019, "斬り": 11020, "日立": 11021, "早": 11022, "昭和40年": 11023, "曖昧": 11024, "更生": 11025, "最前線": 11026, "最終戦": 11027, "未亡人": 11028, "未来へ": 11029, "本尊": 11030, "松尾": 11031, "枚数": 11032, "棄却": 11033, "楽しい": 11034, "模試": 11035, "次世代": 11036, "次元": 11037, "沈黙": 11038, "浪人": 11039, "漁": 11040, "特別企画": 11041, "玄": 11042, "琉球": 11043, "甘い": 11044, "生き方": 11045, "生き残っ": 11046, "療養": 11047, "着け": 11048, "競う": 11049, "第二次世界大戦": 11050, "素顔": 11051, "絶望": 11052, "総司令官": 11053, "能": 11054, "視界": 11055, "覚書": 11056, "親しく": 11057, "診療": 11058, "買う": 11059, "通信局": 11060, "速力": 11061, "野手": 11062, "音楽活動": 11063, "飛び": 11064, "）,": 11065, "？”.": 11066, "##10月26日##": 11067, "##11月20日##": 11068, "##11月27日##": 11069, "##12月11日##": 11070, "##3月21日##": 11071, "##8月10日##": 11072, "##9月4日##": 11073, "##FENCE_OF_DEFENSE##": 11074, "##お##": 11075, "##ちくま文庫##": 11076, "##イエロー・マジック・オーケストラ##": 11077, "##キヤノン##": 11078, "##ルーシ##": 11079, "##ロタリンギア##": 11080, "##ロボットアニメ##": 11081, "##ワット##": 11082, "##上肢##": 11083, "##享保##": 11084, "##元和_(日本)##": 11085, "##冷戦##": 11086, "##北京市##": 11087, "##北海道大学##": 11088, "##医薬品##": 11089, "##学園漫画##": 11090, "##学研ホールディングス##": 11091, "##将棋##": 11092, "##岡山市##": 11093, "##文字##": 11094, "##民事再生手続##": 11095, "##炭鉱##": 11096, "##玉造_(大阪市)##": 11097, "##科学##": 11098, "##西ドイツ##": 11099, "##赤##": 11100, "##赤軍##": 11101, "##軌道傾斜角##": 11102, "##送電##": 11103, "##酢##": 11104, "##鉄道車両の台車##": 11105, "##静岡市##": 11106, "##魂##": 11107, ",\\": 11108, "1913年": 11109, "2004年度": 11110, "2年目": 11111, "2歳": 11112, "4勝": 11113, "55年": 11114, "8時": 11115, "August": 11116, "BD": 11117, "HV": 11118, "MAX": 11119, "Your": 11120, "libvirt": 11121, "that": 11122, "à": 11123, "⋯": 11124, "あえて": 11125, "あくまでも": 11126, "あら": 11127, "みや": 11128, "ゆ": 11129, "エール": 11130, "カラーリング": 11131, "ギャル": 11132, "コンクリート": 11133, "コンコース": 11134, "シルバー": 11135, "ト": 11136, "ドラゴノーツ": 11137, "マナ": 11138, "ライター": 11139, "一撃": 11140, "上洛": 11141, "与": 11142, "両端": 11143, "中立": 11144, "中継局": 11145, "中頃": 11146, "丸山": 11147, "乙女": 11148, "予防": 11149, "井戸": 11150, "仕方": 11151, "以西": 11152, "使い方": 11153, "信念": 11154, "信頼性": 11155, "内田": 11156, "初心者": 11157, "制裁": 11158, "南吉": 11159, "各局": 11160, "同誌": 11161, "和田": 11162, "商業学校": 11163, "四丁目": 11164, "国籍": 11165, "報復": 11166, "売っ": 11167, "売店": 11168, "外野": 11169, "大沢": 11170, "太一": 11171, "女子校生": 11172, "定住": 11173, "実習": 11174, "張っ": 11175, "彼等": 11176, "待機": 11177, "提言": 11178, "撃た": 11179, "攻": 11180, "政界": 11181, "教養": 11182, "文学部": 11183, "昭和63年": 11184, "月間": 11185, "朝日新聞デジタル": 11186, "本多": 11187, "東京都": 11188, "栃木": 11189, "楽しめる": 11190, "止まっ": 11191, "歩き": 11192, "殺到": 11193, "水野": 11194, "汎用": 11195, "河合": 11196, "滅ぼさ": 11197, "熊": 11198, "玄関口": 11199, "王室": 11200, "珍": 11201, "生中継": 11202, "白人": 11203, "直し": 11204, "知人": 11205, "知恵": 11206, "確信": 11207, "祀ら": 11208, "祈願": 11209, "総数": 11210, "美緒": 11211, "芦別": 11212, "要員": 11213, "賛同": 11214, "質量": 11215, "辺": 11216, "退会": 11217, "運ん": 11218, "遠隔": 11219, "適正": 11220, "邦題": 11221, "銀座": 11222, "鋭い": 11223, "閉校": 11224, "阻害": 11225, "騎兵": 11226, "黄色い": 11227, "##10月4日##": 11228, "##12月31日##": 11229, "##1873年##": 11230, "##1899年##": 11231, "##3月11日##": 11232, "##5月11日##": 11233, "##5月28日##": 11234, "##6月28日##": 11235, "##NHK-FM放送##": 11236, "##NTTドコモ##": 11237, "##netkeiba.com##": 11238, "##ゐ##": 11239, "##サンクトペテルブルク##": 11240, "##タクシー##": 11241, "##タンパク質##": 11242, "##チェコ##": 11243, "##チューバ##": 11244, "##チラコイド##": 11245, "##ディレクター##": 11246, "##ドイツ帝国##": 11247, "##ペスカーラ県##": 11248, "##マニ_(預言者)##": 11249, "##メソッド_(計算機科学)##": 11250, "##ワコール##": 11251, "##剣##": 11252, "##化学##": 11253, "##右翼##": 11254, "##官僚##": 11255, "##小田原城##": 11256, "##後漢##": 11257, "##換気##": 11258, "##文部科学省##": 11259, "##日本プロ野球##": 11260, "##明六雑誌##": 11261, "##柳町_(上田市)##": 11262, "##源頼朝##": 11263, "##研究##": 11264, "##秋葉原##": 11265, "##箱根_(箱根町)##": 11266, "##通称##": 11267, "##銀座##": 11268, "12号": 11269, "143": 11270, "165": 11271, "167": 11272, "1915年": 11273, "1曲": 11274, "2023年": 11275, "210": 11276, "40歳": 11277, "6代": 11278, "A級": 11279, "BBC": 11280, "Dance": 11281, "EAN": 11282, "Encyclopedia": 11283, "Hill": 11284, "ICカード": 11285, "Jean": 11286, "Management": 11287, "Mix": 11288, "Naval": 11289, "Olympedia": 11290, "SITE": 11291, "TK": 11292, "∧": 11293, "えん": 11294, "さい": 11295, "ずれ": 11296, "そのよう": 11297, "たった": 11298, "に当たる": 11299, "ケン": 11300, "ジャーナリスト": 11301, "ジョイント": 11302, "ストップ": 11303, "チーフプロデューサー": 11304, "バリアフリー": 11305, "ヒグマ": 11306, "フォーク": 11307, "マックス": 11308, "ライブラリー": 11309, "ラウンジ": 11310, "ラップ": 11311, "リゾート": 11312, "レコード会社": 11313, "一目": 11314, "世界最大": 11315, "中国人": 11316, "主婦": 11317, "久": 11318, "仁川": 11319, "仮定": 11320, "保障": 11321, "公言": 11322, "再選": 11323, "動い": 11324, "北上": 11325, "半数": 11326, "及ぼす": 11327, "収蔵": 11328, "含み": 11329, "図柄": 11330, "在任": 11331, "増資": 11332, "大石": 11333, "失脚": 11334, "奉納": 11335, "婚姻": 11336, "官僚": 11337, "対象外": 11338, "左岸": 11339, "市役所": 11340, "常設": 11341, "平成10年": 11342, "年下": 11343, "座っ": 11344, "建っ": 11345, "強豪": 11346, "役人": 11347, "忍": 11348, "慢性": 11349, "或いは": 11350, "投じ": 11351, "抜い": 11352, "抱える": 11353, "押す": 11354, "振る舞い": 11355, "据え": 11356, "援軍": 11357, "新幹線": 11358, "既婚": 11359, "期成": 11360, "潜水": 11361, "狼": 11362, "現時点": 11363, "甲板": 11364, "県土": 11365, "真田": 11366, "研": 11367, "礼": 11368, "社内": 11369, "禄": 11370, "科学技術": 11371, "立てる": 11372, "籍": 11373, "素直": 11374, "臨床": 11375, "行列": 11376, "譲っ": 11377, "貞": 11378, "身近": 11379, "軽く": 11380, "辺境": 11381, "通じる": 11382, "運営会社": 11383, "重臣": 11384, "館長": 11385, "高齢者": 11386, "##12月21日##": 11387, "##1月21日##": 11388, "##AKB48##": 11389, "##アマチュアレスリング##": 11390, "##ゴルフ##": 11391, "##パレスチナ##": 11392, "##フランシウム##": 11393, "##ローマ帝国##": 11394, "##三菱自動車工業##": 11395, "##上告##": 11396, "##亡命##": 11397, "##使徒_(新世紀エヴァンゲリオン)##": 11398, "##公益財団法人##": 11399, "##函館港##": 11400, "##北アメリカ##": 11401, "##司令官##": 11402, "##四国旅客鉄道##": 11403, "##姓##": 11404, "##宗教##": 11405, "##宮崎県##": 11406, "##少年_(雑誌)##": 11407, "##慶応##": 11408, "##改札##": 11409, "##教会##": 11410, "##数詞##": 11411, "##日立市##": 11412, "##最高裁判所_(日本)##": 11413, "##東海大学##": 11414, "##梅田芸術劇場##": 11415, "##水路観測所##": 11416, "##災害##": 11417, "##練馬_(練馬区)##": 11418, "##認識論##": 11419, "##那須塩原市##": 11420, "##長崎市##": 11421, "##長浜市##": 11422, "##関ヶ原の戦い##": 11423, ".),": 11424, "18時": 11425, "2013年度": 11426, "2019年度": 11427, "23回": 11428, "300人": 11429, "7%": 11430, "America": 11431, "How": 11432, "Jr.": 11433, "MT": 11434, "Open": 11435, "Single": 11436, "Turdus": 11437, "With": 11438, "].": 11439, "ha": 11440, "saṃyutta": 11441, "watch": 11442, "website": 11443, "あき": 11444, "ありがとう": 11445, "いつか": 11446, "こく": 11447, "こころ": 11448, "ちなむ": 11449, "とく": 11450, "なさい": 11451, "ばん": 11452, "ますます": 11453, "アドバイス": 11454, "アメリカ人": 11455, "カテゴリー": 11456, "キス": 11457, "クレオ": 11458, "コント": 11459, "コンパクト": 11460, "サイクル": 11461, "シュート": 11462, "シンポジウム": 11463, "スカイラー": 11464, "スクリュー": 11465, "センス": 11466, "チーム名": 11467, "テ": 11468, "バレー部": 11469, "ファイナル": 11470, "ボード": 11471, "マドンナメイト": 11472, "メダリスト": 11473, "レ": 11474, "レイ": 11475, "レディ": 11476, "ロビー": 11477, "ヴァージョン": 11478, "万人": 11479, "三女": 11480, "付加": 11481, "企て": 11482, "佐竹": 11483, "優秀賞": 11484, "兄妹": 11485, "全幅": 11486, "内定": 11487, "刑務所": 11488, "判別": 11489, "前世": 11490, "割引": 11491, "匹敵": 11492, "単体": 11493, "合作": 11494, "同書": 11495, "向": 11496, "呈し": 11497, "唇": 11498, "国際線": 11499, "圧縮": 11500, "大気": 11501, "妻子": 11502, "学位": 11503, "将兵": 11504, "市外局番": 11505, "平成8年": 11506, "後続": 11507, "恵美": 11508, "愛さ": 11509, "所有者": 11510, "探索": 11511, "放射": 11512, "断ら": 11513, "日程": 11514, "旧市街": 11515, "明け": 11516, "映画館": 11517, "昭和15年": 11518, "是": 11519, "更": 11520, "最大級": 11521, "朔太郎": 11522, "杉": 11523, "根岸": 11524, "歩い": 11525, "海面": 11526, "渋滞": 11527, "減らす": 11528, "港湾": 11529, "漁獲": 11530, "特異": 11531, "狙い": 11532, "発想": 11533, "盗塁": 11534, "直営": 11535, "祝": 11536, "統制": 11537, "織田": 11538, "群馬": 11539, "蘭": 11540, "見通し": 11541, "謀反": 11542, "輝い": 11543, "込み": 11544, "近接": 11545, "逃げる": 11546, "進入": 11547, "過ごす": 11548, "野望": 11549, "釣り": 11550, "除け": 11551, "陥る": 11552, "陰謀": 11553, "隷下": 11554, "頂": 11555, "飛": 11556, "香り": 11557, "黒色": 11558, "～）": 11559, "##11月7日##": 11560, "##1875年##": 11561, "##1884年##": 11562, "##3月3日##": 11563, "##7月5日##": 11564, "##9月15日##": 11565, "##9月24日##": 11566, "##9月26日##": 11567, "##:File:PIA19567-Ceres-DwarfPlanet-Dawn-OpNav9-image5-20150522.jpg##": 11568, "##AV女優##": 11569, "##C.A.L##": 11570, "##MSX##": 11571, "##NBA##": 11572, "##アメリカ合衆国の映画##": 11573, "##アリス##": 11574, "##アルジェリア##": 11575, "##ケルビン##": 11576, "##コーラス_(ポピュラー音楽)##": 11577, "##スポーツニッポン##": 11578, "##ソムリエ##": 11579, "##チリ##": 11580, "##ハーン##": 11581, "##ビジネスプロセス##": 11582, "##フィラデルフィア##": 11583, "##フルート##": 11584, "##マリア・フョードロヴナ_(アレクサンドル3世皇后)##": 11585, "##ワーナーミュージック・ジャパン##": 11586, "##京都放送##": 11587, "##便所##": 11588, "##信濃毎日新聞##": 11589, "##列車##": 11590, "##南砂##": 11591, "##国##": 11592, "##学位##": 11593, "##室町幕府##": 11594, "##宮内庁##": 11595, "##広告##": 11596, "##広島市民球場_(初代)##": 11597, "##持株会社##": 11598, "##指定管理者##": 11599, "##東京大学出版会##": 11600, "##牝馬##": 11601, "##発車メロディ##": 11602, "##赤瀬川原平##": 11603, "##霧箱##": 11604, "##駅舎##": 11605, "##鬼##": 11606, "152": 11607, "2007年度": 11608, "2015年度": 11609, "2年生": 11610, "55分": 11611, "6期": 11612, "=\\": 11613, "Anthus": 11614, "House": 11615, "Metal": 11616, "Party": 11617, "Plants": 11618, "Royal": 11619, "SPACE": 11620, "Santa": 11621, "goo": 11622, "kiji": 11623, "ni": 11624, "},\\": 11625, "}=\\": 11626, "◇": 11627, "】”.": 11628, "あて": 11629, "いじめ": 11630, "いとう": 11631, "お姉さん": 11632, "かく": 11633, "きわめて": 11634, "たん": 11635, "なろ": 11636, "にまつわる": 11637, "りょう": 11638, "ウイング": 11639, "エンブレム": 11640, "カエル": 11641, "キリスト教": 11642, "グラス": 11643, "グラム": 11644, "サーバー": 11645, "スキャンダル": 11646, "タイヤ": 11647, "ツッコミ": 11648, "デート": 11649, "バラ": 11650, "ヒット曲": 11651, "ファンクラブ": 11652, "フォーラム": 11653, "プロイセン": 11654, "ベンチ": 11655, "メダル": 11656, "ラッシュ": 11657, "ラム": 11658, "リサーチ": 11659, "不具合": 11660, "両社": 11661, "中略": 11662, "乗じ": 11663, "亡くし": 11664, "人格": 11665, "仮説": 11666, "仲介": 11667, "依": 11668, "保っ": 11669, "元祖": 11670, "全土": 11671, "六つ": 11672, "共闘": 11673, "出航": 11674, "別途": 11675, "剥奪": 11676, "参謀長": 11677, "及ば": 11678, "台地": 11679, "右折": 11680, "品番": 11681, "四つ": 11682, "図ら": 11683, "地盤": 11684, "増やす": 11685, "大倉": 11686, "女将": 11687, "嫌": 11688, "安心": 11689, "安置": 11690, "客室": 11691, "宮城": 11692, "対人": 11693, "対照": 11694, "小泉": 11695, "小隊": 11696, "山地": 11697, "崇": 11698, "川口": 11699, "市域": 11700, "幕末": 11701, "年号": 11702, "広瀬": 11703, "廃業": 11704, "引き取ら": 11705, "後押し": 11706, "復刻版": 11707, "悲しみ": 11708, "房総のむら": 11709, "支出": 11710, "放送枠": 11711, "救っ": 11712, "教える": 11713, "明石": 11714, "曽根悟": 11715, "某": 11716, "柴田": 11717, "構成員": 11718, "殻": 11719, "河野": 11720, "減らし": 11721, "父子": 11722, "理": 11723, "略奪": 11724, "発車": 11725, "秘め": 11726, "稼動": 11727, "立憲": 11728, "竹内": 11729, "粒": 11730, "納め": 11731, "美濃": 11732, "聖地": 11733, "背面": 11734, "自分自身": 11735, "英名": 11736, "英米": 11737, "蒸気": 11738, "託し": 11739, "講習": 11740, "護": 11741, "路上": 11742, "転校": 11743, "輯": 11744, "退却": 11745, "通す": 11746, "連行": 11747, "進軍": 11748, "遡る": 11749, "適合": 11750, "遭い": 11751, "配合": 11752, "酷似": 11753, "銃撃": 11754, "閉じ込め": 11755, "随筆": 11756, "韻": 11757, "響き": 11758, "飾ら": 11759, "麹町": 11760, "##1879年##": 11761, "##4月30日##": 11762, "##8月29日##": 11763, "##:File:PIA19566-Ceres-DwarfPlanet-Dawn-OpNav9-image4-20150522.jpg##": 11764, "##Category:R-TYPE##": 11765, "##FAプレミアリーグ1998-1999##": 11766, "##オルガン##": 11767, "##オープンソース##": 11768, "##ジャパン・ニュース・ネットワーク##": 11769, "##チーフプロデューサー##": 11770, "##デスラー##": 11771, "##デビュー##": 11772, "##トーク番組##": 11773, "##ナチス・ドイツ##": 11774, "##ナポレオン・ボナパルト##": 11775, "##バレエ##": 11776, "##ビリー・ジーン・キング##": 11777, "##ベジタリアン##": 11778, "##ミー_(サイボーグクロちゃん)##": 11779, "##リーグ##": 11780, "##ワイン##": 11781, "##前橋市##": 11782, "##前漢##": 11783, "##天守##": 11784, "##富山駅##": 11785, "##後醍醐天皇##": 11786, "##文部省##": 11787, "##朝日放送ラジオ##": 11788, "##植民地##": 11789, "##機動戦士ガンダム##": 11790, "##海上保安庁##": 11791, "##海岸##": 11792, "##渡し船##": 11793, "##熟女_(アダルトビデオ)##": 11794, "##牧野信一##": 11795, "##社会人野球##": 11796, "##神奈月##": 11797, "##航空機##": 11798, "##衆議院議員##": 11799, "##部隊##": 11800, "##部首##": 11801, "##金_(王朝)##": 11802, "##鉄道路線##": 11803, ")【": 11804, "-、": 11805, "157": 11806, "20代": 11807, "500m": 11808, "Class": 11809, "Disney": 11810, "Free": 11811, "Garden": 11812, "Happy": 11813, "Island": 11814, "Library": 11815, "Sweet": 11816, "ball": 11817, "italiani": 11818, "jreast": 11819, "mystia": 11820, "stock": 11821, "→(": 11822, "この世": 11823, "さよなら": 11824, "てん": 11825, "なのか": 11826, "につれ": 11827, "に当たって": 11828, "やさしい": 11829, "りゅう": 11830, "アプリ": 11831, "イメージソング": 11832, "キャップ": 11833, "コイル": 11834, "サラリーマン": 11835, "シングル曲": 11836, "ジョー": 11837, "スイス": 11838, "スケール": 11839, "スチーブンソン": 11840, "セミナー": 11841, "セメント": 11842, "ダメ": 11843, "フォース": 11844, "プラットフォーム": 11845, "マイア": 11846, "ラット": 11847, "レジスタ": 11848, "レート": 11849, "一斉": 11850, "一言": 11851, "下賜": 11852, "下降": 11853, "不調": 11854, "亜理沙": 11855, "亜紀": 11856, "佐賀": 11857, "充分": 11858, "先住民": 11859, "全便": 11860, "共用": 11861, "勝て": 11862, "化粧": 11863, "厩舎": 11864, "厳格": 11865, "双": 11866, "反する": 11867, "周波数": 11868, "品川": 11869, "唱える": 11870, "天文": 11871, "太子": 11872, "始祖": 11873, "娯楽": 11874, "子会社化": 11875, "子女": 11876, "対面": 11877, "小・中学校": 11878, "居る": 11879, "希": 11880, "帰属": 11881, "常時": 11882, "平坦": 11883, "招集": 11884, "拡充": 11885, "揃え": 11886, "描画": 11887, "提訴": 11888, "換装": 11889, "旋回": 11890, "旗艦": 11891, "早々": 11892, "昭和14年": 11893, "有名人": 11894, "有用": 11895, "東の": 11896, "果": 11897, "桜井": 11898, "模索": 11899, "橋本": 11900, "橘": 11901, "正常": 11902, "浴びる": 11903, "消息": 11904, "渡す": 11905, "漫画版": 11906, "特権": 11907, "狂": 11908, "積み": 11909, "空襲": 11910, "管理者": 11911, "経っ": 11912, "経済学": 11913, "絶好調": 11914, "継ぎ": 11915, "総監督": 11916, "荒廃": 11917, "菌": 11918, "蜂起": 11919, "蝶": 11920, "衆議院議員": 11921, "被災": 11922, "裏側": 11923, "見込み": 11924, "視察": 11925, "視聴率": 11926, "覚醒": 11927, "踏む": 11928, "近づい": 11929, "追い込ま": 11930, "追及": 11931, "進撃": 11932, "重点": 11933, "陰": 11934, "飛鳥": 11935, "養女": 11936, "首長": 11937, "（#": 11938, "##12月12日##": 11939, "##4月8日##": 11940, "##6月15日##": 11941, "##8月19日##": 11942, "##9月11日##": 11943, "##SMAP##": 11944, "##ケーブルテレビ##": 11945, "##サンテレビジョン##": 11946, "##チューリップ_(バンド)##": 11947, "##デザイン##": 11948, "##トン数##": 11949, "##ニュートン_(単位)##": 11950, "##フットサル##": 11951, "##マルクス主義##": 11952, "##レーダー##": 11953, "##ヴァリャーグ##": 11954, "##両##": 11955, "##今すぐKiss_Me##": 11956, "##伊賀流##": 11957, "##出羽国##": 11958, "##博多駅##": 11959, "##国司##": 11960, "##境港市##": 11961, "##女優##": 11962, "##尼崎城##": 11963, "##幻冬舎##": 11964, "##従四位##": 11965, "##日本将棋連盟##": 11966, "##明治時代##": 11967, "##朝鮮戦争##": 11968, "##栃木市##": 11969, "##渋川市##": 11970, "##牧師##": 11971, "##社団法人##": 11972, "##窒素##": 11973, "##立川駅##": 11974, "##総裁##": 11975, "##蒲原鉄道##": 11976, "##西_(糸満市)##": 11977, "##語##": 11978, "##連合国_(第二次世界大戦)##": 11979, "##連邦捜査局##": 11980, "##週刊少年ジャンプ##": 11981, "##部落解放同盟##": 11982, "##酸化##": 11983, "##陰謀##": 11984, "100円": 11985, "199": 11986, "2012年度": 11987, "2km": 11988, "30回": 11989, "30歳": 11990, "3か月": 11991, "400m": 11992, "5枚": 11993, "7番": 11994, "999": 11995, "9巻": 11996, "Central": 11997, "Dream": 11998, "Global": 11999, "MX": 12000, "Mathematica": 12001, "Video": 12002, "Vol.3": 12003, "^{(": 12004, "files": 12005, "k-1": 12006, "kW": 12007, "netkeiba": 12008, "yomiuri": 12009, "いくつ": 12010, "うけ": 12011, "おしゃべり": 12012, "さき": 12013, "だし": 12014, "ていしゃじょう": 12015, "とはいえ": 12016, "のぼる": 12017, "まちづくり": 12018, "りん": 12019, "カメラマン": 12020, "チャールズ": 12021, "ティナ": 12022, "パラメータ": 12023, "パレード": 12024, "ピース": 12025, "ベストアルバム": 12026, "ホンダ": 12027, "ホームラン": 12028, "メロディー": 12029, "上手": 12030, "令和": 12031, "免除": 12032, "出場機会": 12033, "分の": 12034, "劉": 12035, "勘定": 12036, "化石": 12037, "医院": 12038, "単身": 12039, "反響": 12040, "台車": 12041, "呼び出し": 12042, "呼吸": 12043, "国語": 12044, "国際的": 12045, "城内": 12046, "大正10年": 12047, "大王": 12048, "大蔵": 12049, "好ま": 12050, "定期券": 12051, "定格": 12052, "家具": 12053, "専任": 12054, "川村": 12055, "市議会": 12056, "平成12年": 12057, "広連": 12058, "役名": 12059, "後進": 12060, "従属": 12061, "思え": 12062, "手間": 12063, "手首": 12064, "打診": 12065, "承諾": 12066, "抑える": 12067, "拉致": 12068, "排": 12069, "探検": 12070, "推力": 12071, "搬送": 12072, "文集": 12073, "新春": 12074, "日本全国": 12075, "昭和12年": 12076, "昭和47年": 12077, "書き換え": 12078, "柵": 12079, "正重": 12080, "水面": 12081, "泥棒": 12082, "減速": 12083, "準じ": 12084, "父母": 12085, "瓶": 12086, "留まり": 12087, "発刊": 12088, "白石": 12089, "直撃": 12090, "知らさ": 12091, "知らせ": 12092, "私生活": 12093, "秩序": 12094, "紐": 12095, "給": 12096, "耐久": 12097, "脱落": 12098, "腕前": 12099, "自民": 12100, "船体": 12101, "落ち着い": 12102, "製作委員会": 12103, "説い": 12104, "豊田": 12105, "販売元": 12106, "路線名": 12107, "車両基地": 12108, "転倒": 12109, "輔": 12110, "迫ら": 12111, "追い詰め": 12112, "退い": 12113, "連鎖": 12114, "遅延": 12115, "過ぎる": 12116, "遥か": 12117, "邸宅": 12118, "重く": 12119, "鎮座": 12120, "開山": 12121, "間違っ": 12122, "青少年": 12123, "風俗": 12124, "高野": 12125, "高齢": 12126, "##1月31日##": 12127, "##4月20日##": 12128, "##9月20日##": 12129, "##Category:真田氏##": 12130, "##ばね##": 12131, "##アシュラマン##": 12132, "##ウォルマート##": 12133, "##オペレーティングシステム##": 12134, "##カバネ##": 12135, "##キロメートル毎時##": 12136, "##クレーター##": 12137, "##サントリー##": 12138, "##パーソナルコンピュータ##": 12139, "##ヒョンビン##": 12140, "##モリーゼ州##": 12141, "##ユニバーサルミュージック_(日本)##": 12142, "##ラグビーユニオン##": 12143, "##レストラン##": 12144, "##ヱヴァンゲリヲン新劇場版##": 12145, "##中野区##": 12146, "##今井美樹##": 12147, "##医薬品医療機器総合機構##": 12148, "##和名##": 12149, "##品川区##": 12150, "##国道331号##": 12151, "##大西洋##": 12152, "##奈良市##": 12153, "##奈良時代##": 12154, "##宝塚大劇場##": 12155, "##山下達郎##": 12156, "##拳銃##": 12157, "##日露戦争##": 12158, "##本州##": 12159, "##栃木県の県道一覧##": 12160, "##死亡##": 12161, "##法政大学##": 12162, "##漢##": 12163, "##生活##": 12164, "##白##": 12165, "##糸満ロータリー##": 12166, "##艦隊##": 12167, "##視聴率##": 12168, "##講談社文庫##": 12169, "##超人_(キン肉マン)##": 12170, "##軍艦##": 12171, "##農業##": 12172, "##酸##": 12173, ")=\\": 12174, "-(": 12175, "-{\\": 12176, ".』": 12177, "177": 12178, "1年生": 12179, "201": 12180, "2011年度": 12181, "4話": 12182, "52年": 12183, "54年": 12184, "560": 12185, "8番": 12186, "={\\": 12187, "Bureau": 12188, "De": 12189, "Film": 12190, "Jリーグ": 12191, "Part1": 12192, "Register": 12193, "Server": 12194, "Sponichi": 12195, "Studio": 12196, "Website": 12197, "alba": 12198, "do": 12199, "nu": 12200, "online": 12201, "←": 12202, "いわば": 12203, "かたち": 12204, "くら": 12205, "こだわり": 12206, "さらなる": 12207, "しょ": 12208, "つくら": 12209, "ならびに": 12210, "ふれあい": 12211, "まえ": 12212, "みどり": 12213, "もこ": 12214, "やり方": 12215, "ゆう": 12216, "れん": 12217, "アドベンチャー": 12218, "カレッジ": 12219, "カートリッジ": 12220, "キム": 12221, "ゲレンデ": 12222, "ゲーム内": 12223, "サーバ": 12224, "シオノギ": 12225, "ショッピングセンター": 12226, "スパイク": 12227, "スープ": 12228, "セールス": 12229, "ソ": 12230, "ダイエー": 12231, "デスク": 12232, "ハワイ": 12233, "ヒルコ": 12234, "フェア": 12235, "ヘッドコーチ": 12236, "マル": 12237, "ミステリー": 12238, "レバー": 12239, "ロイヤル": 12240, "一等": 12241, "丈": 12242, "丸子": 12243, "乏しい": 12244, "二郎": 12245, "亡き": 12246, "仕掛ける": 12247, "休憩": 12248, "作り出し": 12249, "作り方": 12250, "信じる": 12251, "光景": 12252, "入城": 12253, "全国各地": 12254, "処罰": 12255, "出所": 12256, "出題": 12257, "包ま": 12258, "参議院": 12259, "反射": 12260, "名人": 12261, "告げる": 12262, "四季": 12263, "均一": 12264, "声明": 12265, "奇": 12266, "好成績": 12267, "婦": 12268, "安田": 12269, "宝物": 12270, "尽くし": 12271, "届か": 12272, "巡航": 12273, "巨乳": 12274, "平成6年": 12275, "引き換え": 12276, "強烈": 12277, "役立つ": 12278, "徒": 12279, "従弟": 12280, "復旧": 12281, "恵": 12282, "悩まさ": 12283, "愛国者": 12284, "掌": 12285, "探知": 12286, "撤回": 12287, "支線": 12288, "散見": 12289, "日本軽種馬協会": 12290, "昆虫": 12291, "昭和58年": 12292, "昭和62年": 12293, "暗い": 12294, "材質": 12295, "東亜": 12296, "東端": 12297, "松井": 12298, "校区": 12299, "棋士": 12300, "概説": 12301, "止まり": 12302, "残虐": 12303, "添え": 12304, "特殊能力": 12305, "生息地": 12306, "痕跡": 12307, "知り合っ": 12308, "移入": 12309, "税": 12310, "立花": 12311, "第15話": 12312, "細長い": 12313, "総論": 12314, "群落": 12315, "臣": 12316, "自力": 12317, "舌": 12318, "衆議院": 12319, "裕福": 12320, "補充": 12321, "覚える": 12322, "解禁": 12323, "誤": 12324, "読み切り": 12325, "諏訪": 12326, "豊臣": 12327, "貢": 12328, "農林": 12329, "近代化": 12330, "追っ": 12331, "速く": 12332, "達人": 12333, "遺言": 12334, "都市部": 12335, "防災": 12336, "陽子": 12337, "集成": 12338, "音楽性": 12339, "頼ま": 12340, "魔物": 12341, "魔王": 12342, "##10月23日##": 12343, "##12月27日##": 12344, "##1876年##": 12345, "##1892年##": 12346, "##1950年代##": 12347, "##2月21日##": 12348, "##2月7日##": 12349, "##3月16日##": 12350, "##3月8日##": 12351, "##4月12日##": 12352, "##4月25日##": 12353, "##6月27日##": 12354, "##7月23日##": 12355, "##8月16日##": 12356, "##TOKIO##": 12357, "##オールニッポン・ニュースネットワーク##": 12358, "##カヴァラ_(潜水艦)##": 12359, "##クラシック音楽##": 12360, "##シンガーソングライター##": 12361, "##チェロ##": 12362, "##ニューヨーク州##": 12363, "##フランス君主一覧##": 12364, "##フロリダ州##": 12365, "##作戦##": 12366, "##利根川##": 12367, "##助数詞##": 12368, "##労働者##": 12369, "##十両##": 12370, "##古朝鮮##": 12371, "##図書館##": 12372, "##左翼##": 12373, "##年金記録問題##": 12374, "##新人物往来社##": 12375, "##日本の国会議員##": 12376, "##日本大学##": 12377, "##明治座##": 12378, "##有限会社##": 12379, "##欧州連合##": 12380, "##民主党_(日本_1996-1998)##": 12381, "##法学部##": 12382, "##生命保険##": 12383, "##相棒##": 12384, "##経済成長##": 12385, "##裁判官##": 12386, "##近江塩津駅##": 12387, "##道の駅##": 12388, "##陸上自衛隊##": 12389, "009": 12390, "1919年": 12391, "1950年代": 12392, "203": 12393, "22歳": 12394, "232": 12395, "750": 12396, "AQ": 12397, "Annex": 12398, "Army": 12399, "College": 12400, "East": 12401, "FP": 12402, "GC": 12403, "Little": 12404, "NET": 12405, "Post": 12406, "RI": 12407, "Repo": 12408, "S1": 12409, "ca": 12410, "he": 12411, "list": 12412, "mai": 12413, "p6": 12414, "◆": 12415, "いちらん": 12416, "おこなう": 12417, "おばさん": 12418, "つくり": 12419, "なみ": 12420, "ふじ": 12421, "みち": 12422, "ゆっくり": 12423, "エンタテインメント": 12424, "オペレーター": 12425, "キャンセル": 12426, "コメディ": 12427, "シノ": 12428, "ストリート": 12429, "スプラッシュ": 12430, "ゼッド": 12431, "タッチ": 12432, "チャリティー": 12433, "チャン": 12434, "テキサス": 12435, "テクノロジー": 12436, "テロップ": 12437, "デューク": 12438, "ナイフ": 12439, "フィリピン": 12440, "プログラミング": 12441, "ボケ": 12442, "マット": 12443, "マニア": 12444, "ラインナップ": 12445, "ルー": 12446, "レイプ": 12447, "レオ": 12448, "ヴォーカル": 12449, "不祥事": 12450, "代表曲": 12451, "何とか": 12452, "何者": 12453, "俗称": 12454, "修士課程": 12455, "優勢": 12456, "凍結": 12457, "利": 12458, "創設者": 12459, "劉秀": 12460, "勝者": 12461, "原始": 12462, "反省": 12463, "司法": 12464, "同型": 12465, "四天王": 12466, "団体戦": 12467, "坪": 12468, "基部": 12469, "外務省": 12470, "大物": 12471, "天候": 12472, "央": 12473, "奴": 12474, "妄想": 12475, "孝": 12476, "家柄": 12477, "察知": 12478, "屋上": 12479, "己": 12480, "弾圧": 12481, "従兄弟": 12482, "徳": 12483, "徹底的": 12484, "情": 12485, "情報システム": 12486, "意欲": 12487, "所管": 12488, "所要時間": 12489, "手足": 12490, "擁し": 12491, "擁護": 12492, "放浪": 12493, "敗": 12494, "春に": 12495, "春の": 12496, "暴動": 12497, "書物": 12498, "有人": 12499, "望み": 12500, "本殿": 12501, "本田": 12502, "松山": 12503, "栄光": 12504, "検事": 12505, "楽しん": 12506, "氏名": 12507, "水泳": 12508, "永": 12509, "汁": 12510, "沼": 12511, "派手": 12512, "淵": 12513, "添加": 12514, "滋賀": 12515, "漁業": 12516, "激突": 12517, "特例": 12518, "琴": 12519, "番組名": 12520, "異母": 12521, "県都": 12522, "真理": 12523, "知的": 12524, "種目": 12525, "第25話": 12526, "築": 12527, "精神的": 12528, "素早く": 12529, "終": 12530, "繁": 12531, "肯定": 12532, "腱": 12533, "自伝": 12534, "自慢": 12535, "自爆": 12536, "被告人": 12537, "要し": 12538, "計上": 12539, "計量": 12540, "負債": 12541, "起因": 12542, "追撃": 12543, "退場": 12544, "送り込ま": 12545, "遂に": 12546, "道子": 12547, "遠": 12548, "配列": 12549, "銘柄": 12550, "銭": 12551, "開場": 12552, "開閉": 12553, "限っ": 12554, "離党": 12555, "顔面": 12556, "首位": 12557, "高地": 12558, "##10月7日##": 12559, "##11月11日##": 12560, "##12月4日##": 12561, "##1880年##": 12562, "##20世紀フォックス##": 12563, "##2月25日##": 12564, "##2月4日##": 12565, "##6月21日##": 12566, "##9月27日##": 12567, "##KDDI##": 12568, "##PADI##": 12569, "##アワビ##": 12570, "##イオンモール##": 12571, "##インチ##": 12572, "##オーストリア帝国##": 12573, "##キャラクターデザイン##": 12574, "##ゲームボーイ##": 12575, "##コーセー##": 12576, "##ディフェンダー_(サッカー)##": 12577, "##トレード##": 12578, "##プロテスタント##": 12579, "##ボール##": 12580, "##中央競馬##": 12581, "##全国FM放送協議会##": 12582, "##加賀_(空母)##": 12583, "##名古屋駅##": 12584, "##専用鉄道##": 12585, "##慰安所##": 12586, "##文京区##": 12587, "##日本占領時期のインドネシア##": 12588, "##日本経済新聞社##": 12589, "##早川書房##": 12590, "##東京優駿##": 12591, "##歌詞##": 12592, "##武士##": 12593, "##浅野セメント##": 12594, "##渋谷区##": 12595, "##演歌##": 12596, "##火星##": 12597, "##田中英光##": 12598, "##町村制##": 12599, "##社会保険庁##": 12600, "##神武天皇##": 12601, "##自治体##": 12602, "##著作権##": 12603, "##銃##": 12604, "##集団##": 12605, "##集英社文庫##": 12606, "##電話##": 12607, "##音楽プロデューサー##": 12608, "##魚##": 12609, ")「": 12610, "10%": 12611, "10時": 12612, "11号": 12613, "11歳": 12614, "16世紀": 12615, "176": 12616, "1911年": 12617, "1952": 12618, "1956": 12619, "223": 12620, "24歳": 12621, "4時": 12622, "65歳": 12623, "After": 12624, "El": 12625, "Heart": 12626, "Hz": 12627, "LPSA": 12628, "Light": 12629, "Office": 12630, "RAGE": 12631, "SHOWER": 12632, "SL": 12633, "Scrum": 12634, "Second": 12635, "Super": 12636, "Team": 12637, "Transfermarkt": 12638, "UK": 12639, "VI": 12640, "VIP": 12641, "comuni": 12642, "pa": 12643, "year": 12644, "ɛ": 12645, "□": 12646, "」.": 12647, "いたし": 12648, "きっ": 12649, "しも": 12650, "すで": 12651, "そういった": 12652, "たまたま": 12653, "みなみ": 12654, "めぐみ": 12655, "イ": 12656, "ウェブ": 12657, "カレンダー": 12658, "ショッピング": 12659, "シリーズ構成": 12660, "ジョーンズ": 12661, "ソリューション": 12662, "バッグ": 12663, "パラダイス": 12664, "ヒル": 12665, "ピンチ": 12666, "ブランド名": 12667, "プレジデント": 12668, "ボー": 12669, "ポーズ": 12670, "マイナー": 12671, "ヤサコ": 12672, "ヤング": 12673, "リニューアルオープン": 12674, "リール": 12675, "ルビー": 12676, "上る": 12677, "世界各地": 12678, "中佐": 12679, "交": 12680, "人体": 12681, "企画部": 12682, "休講": 12683, "作り出す": 12684, "使用者": 12685, "健在": 12686, "入れ替わる": 12687, "入選": 12688, "八木": 12689, "共存": 12690, "出世": 12691, "労務": 12692, "化合物": 12693, "北村": 12694, "北端": 12695, "厚く": 12696, "取り組む": 12697, "台北": 12698, "問う": 12699, "営業時間": 12700, "増築": 12701, "多目的": 12702, "大正7年": 12703, "大貫": 12704, "好調": 12705, "婚約者": 12706, "媒体": 12707, "嫡子": 12708, "子供達": 12709, "実写": 12710, "小諸": 12711, "屋内": 12712, "工芸": 12713, "市川": 12714, "帖": 12715, "帝都": 12716, "帰投": 12717, "常務": 12718, "年月": 12719, "幻獣": 12720, "店頭": 12721, "引き継ぐ": 12722, "強かっ": 12723, "彫刻": 12724, "征": 12725, "必死": 12726, "性的": 12727, "打た": 12728, "振付": 12729, "採っ": 12730, "揶揄": 12731, "操業": 12732, "改める": 12733, "改宗": 12734, "昇": 12735, "昭和16年": 12736, "昭和6年": 12737, "暴露": 12738, "書簡": 12739, "最高速度": 12740, "桂": 12741, "機関車": 12742, "水温": 12743, "決算公告": 12744, "決闘": 12745, "泣い": 12746, "浩": 12747, "浸水": 12748, "漁師": 12749, "激化": 12750, "物流": 12751, "独立戦争": 12752, "現し": 12753, "現世": 12754, "町村": 12755, "発売日": 12756, "石橋": 12757, "移す": 12758, "窮地": 12759, "米ドル": 12760, "給油": 12761, "網羅": 12762, "繋がる": 12763, "義父": 12764, "至り": 12765, "興奮": 12766, "華麗": 12767, "薫": 12768, "行き来": 12769, "裁判官": 12770, "覆う": 12771, "見受け": 12772, "見台": 12773, "解く": 12774, "譲り受け": 12775, "財": 12776, "車輌": 12777, "連載開始": 12778, "遭っ": 12779, "銘打っ": 12780, "長谷川": 12781, "降る": 12782, "食い": 12783, "黒帯": 12784, "##10月17日##": 12785, "##10月25日##": 12786, "##11月23日##": 12787, "##1877年##": 12788, "##1月17日##": 12789, "##1月28日##": 12790, "##2月5日##": 12791, "##3月13日##": 12792, "##5月10日##": 12793, "##5月15日##": 12794, "##5月16日##": 12795, "##6月23日##": 12796, "##7月11日##": 12797, "##7月17日##": 12798, "##8月26日##": 12799, "##9月9日##": 12800, "##NHK放送センター##": 12801, "##UEFAチャンピオンズリーグ##": 12802, "##アルク##": 12803, "##イラストレーター##": 12804, "##ウォーズマン##": 12805, "##クォーターバック##": 12806, "##コンボイ_(トランスフォーマー)##": 12807, "##ハーバード大学##": 12808, "##ベムスター##": 12809, "##ホタルイカ##": 12810, "##マドリード##": 12811, "##世界ボクシング協会##": 12812, "##今井町##": 12813, "##会長##": 12814, "##元亀##": 12815, "##北関東##": 12816, "##南##": 12817, "##国道58号##": 12818, "##子爵##": 12819, "##宇宙船_(雑誌)##": 12820, "##平仮名##": 12821, "##広東語##": 12822, "##政策##": 12823, "##文政##": 12824, "##文春文庫##": 12825, "##日本航空##": 12826, "##日本軽種馬協会##": 12827, "##日立製作所##": 12828, "##極##": 12829, "##樺太##": 12830, "##沖縄本島##": 12831, "##渋沢栄一##": 12832, "##熊本市##": 12833, "##特別番組##": 12834, "##脳##": 12835, "##蘇我駅##": 12836, "##遺失物法##": 12837, "##関西##": 12838, "##阪急百貨店##": 12839, "##青森放送##": 12840, "##駿河国##": 12841, "##鯛##": 12842, "##鹿沼市##": 12843, ")→": 12844, "163": 12845, "1948": 12846, "1か月": 12847, "2017年度": 12848, "240": 12849, "3倍": 12850, "500円": 12851, "7代": 12852, "7枚": 12853, "9号": 12854, "Bibcode": 12855, "Critically": 12856, "Donohue": 12857, "EGR": 12858, "Earth": 12859, "Education": 12860, "Great": 12861, "LINE": 12862, "MVP": 12863, "Process": 12864, "Sports": 12865, "Walker": 12866, "Year": 12867, "endangered": 12868, "ff": 12869, "ft": 12870, "lim": 12871, "love": 12872, "name": 12873, "van": 12874, "},": 12875, "ν": 12876, "Ⅰ": 12877, "♪": 12878, "あり方": 12879, "える": 12880, "かれ": 12881, "それなり": 12882, "だから": 12883, "アーサー": 12884, "オトメ": 12885, "オート": 12886, "キリコ": 12887, "ギャンブル": 12888, "スカイ": 12889, "スプリント": 12890, "スーパー戦隊": 12891, "ソロ活動": 12892, "テープ": 12893, "トヨタ": 12894, "ナポレオン": 12895, "ハンドル": 12896, "ハーフ": 12897, "バイド": 12898, "バス路線": 12899, "パスワード": 12900, "ミサ": 12901, "メジャーリーグ": 12902, "ヤマト": 12903, "ライナー": 12904, "ル": 12905, "レシピ": 12906, "ロングホーン": 12907, "不倫": 12908, "乗り込ん": 12909, "乙": 12910, "会計": 12911, "伴わ": 12912, "侵害": 12913, "促し": 12914, "傳": 12915, "分冊百科": 12916, "分社": 12917, "分配": 12918, "分隊": 12919, "半島": 12920, "台本": 12921, "后": 12922, "向谷": 12923, "和平": 12924, "商会": 12925, "回る": 12926, "因縁": 12927, "奉仕": 12928, "奮闘": 12929, "宗": 12930, "実に": 12931, "家で": 12932, "家畜": 12933, "将棋": 12934, "岡崎": 12935, "平井": 12936, "幼児": 12937, "幾つ": 12938, "彩色": 12939, "怒っ": 12940, "恐竜": 12941, "悩ん": 12942, "意外": 12943, "手掛ける": 12944, "打倒": 12945, "抜く": 12946, "抽象": 12947, "拝島": 12948, "探る": 12949, "撰": 12950, "改易": 12951, "攻防": 12952, "断り": 12953, "新人公演": 12954, "昭和11年": 12955, "昭和13年": 12956, "昭和2年": 12957, "昭和36年": 12958, "有り": 12959, "木久扇": 12960, "本塁": 12961, "東アジア": 12962, "松岡": 12963, "柳": 12964, "株主": 12965, "水産": 12966, "浮遊": 12967, "淳": 12968, "混雑": 12969, "渓谷": 12970, "満たさ": 12971, "滅ぼし": 12972, "点灯": 12973, "生母": 12974, "畳": 12975, "痛め": 12976, "発砲": 12977, "皇族": 12978, "盗賊": 12979, "矢印": 12980, "神父": 12981, "移籍後": 12982, "第21話": 12983, "算出": 12984, "絶賛": 12985, "線区": 12986, "義理": 12987, "脈": 12988, "良かっ": 12989, "著しい": 12990, "著名人": 12991, "薄く": 12992, "要領": 12993, "見れ": 12994, "訴える": 12995, "調印": 12996, "調和": 12997, "調子": 12998, "起訴": 12999, "跳躍": 13000, "農地": 13001, "近似": 13002, "釈放": 13003, "金髪": 13004, "鑑": 13005, "限度": 13006, "陸海軍": 13007, "飛ばし": 13008, "飛躍": 13009, "飯田": 13010, "##.cn##": 13011, "##10月30日##": 13012, "##11月10日##": 13013, "##11月5日##": 13014, "##1888年##": 13015, "##1月7日##": 13016, "##2月14日##": 13017, "##5月27日##": 13018, "##7月25日##": 13019, "##9月10日##": 13020, "##Category:栃木県道##": 13021, "##アール・エフ・ラジオ日本##": 13022, "##イカ##": 13023, "##ジャパン・ラジオ・ネットワーク##": 13024, "##セレッソ大阪##": 13025, "##トランポリン##": 13026, "##プラズマ##": 13027, "##マガジンハウス##": 13028, "##マスメディア##": 13029, "##ムギ##": 13030, "##モンゴル帝国##": 13031, "##ロードマップ##": 13032, "##一社提供##": 13033, "##中東##": 13034, "##公用語##": 13035, "##兵器##": 13036, "##冪等##": 13037, "##函館市##": 13038, "##千葉テレビ放送##": 13039, "##南長野##": 13040, "##参謀本部_(日本)##": 13041, "##古典的自由主義##": 13042, "##善光寺##": 13043, "##国の一覧##": 13044, "##執政武官##": 13045, "##報道##": 13046, "##場##": 13047, "##大統領##": 13048, "##岩崎良美##": 13049, "##幼稚園##": 13050, "##広島駅##": 13051, "##愛発関##": 13052, "##扶桑社##": 13053, "##摂政##": 13054, "##文化##": 13055, "##明治大学##": 13056, "##明治神宮外苑軟式グラウンド##": 13057, "##曹洞宗##": 13058, "##本丸##": 13059, "##東映アニメーション##": 13060, "##東武鉄道##": 13061, "##桂川_(淀川水系)##": 13062, "##浅野総一郎##": 13063, "##濊##": 13064, "##独立##": 13065, "##猪飼野##": 13066, "##環境省##": 13067, "##社会学##": 13068, "##続日本紀##": 13069, "##表_(データベース)##": 13070, "##銀行##": 13071, "##長野駅##": 13072, "##青森テレビ##": 13073, "##魔王_(クロノ・トリガー)##": 13074, "12時": 13075, "1951": 13076, "1963": 13077, "1シリーズ": 13078, "202": 13079, "32回": 13080, "3種": 13081, "4:3": 13082, "568": 13083, "636": 13084, "8000": 13085, "Carpodacus": 13086, "Crotone": 13087, "Design": 13088, "Field": 13089, "IS": 13090, "Martin": 13091, "Modern": 13092, "NTT": 13093, "October": 13094, "Parus": 13095, "Pro": 13096, "RPG": 13097, "Racing": 13098, "SIDE": 13099, "State": 13100, "T2": 13101, "Watch": 13102, "Who": 13103, "guide": 13104, "ldots": 13105, "local": 13106, "rd": 13107, "var": 13108, "})}": 13109, "ˈ": 13110, "Ⅲ": 13111, "いこ": 13112, "おの": 13113, "おまけ": 13114, "かた": 13115, "きみ": 13116, "げん": 13117, "しめ": 13118, "たなか": 13119, "つくっ": 13120, "のぶ": 13121, "アウト": 13122, "アシスト": 13123, "アンテナ": 13124, "アンデッド": 13125, "イニング": 13126, "ギタリスト": 13127, "クロス": 13128, "ケンカ": 13129, "コードネーム": 13130, "ジオン": 13131, "スズキ": 13132, "ソニー": 13133, "タイムズ": 13134, "タッグマッチ": 13135, "タバコ": 13136, "テレビ局": 13137, "テレビ放送": 13138, "トラ": 13139, "ドッキング": 13140, "ネコ": 13141, "ネス": 13142, "ブルース": 13143, "ベル": 13144, "ポンプ": 13145, "ラジオドラマ": 13146, "ラボ": 13147, "リミックス": 13148, "一人物": 13149, "一塁": 13150, "一応": 13151, "一生": 13152, "一郎": 13153, "不振": 13154, "乱れ": 13155, "亡くなり": 13156, "伊勢": 13157, "供": 13158, "全国ネット": 13159, "公報": 13160, "円筒": 13161, "出せ": 13162, "出陣": 13163, "初回放送": 13164, "前衛": 13165, "占い": 13166, "原作者": 13167, "取り戻す": 13168, "受": 13169, "受け継い": 13170, "合衆国": 13171, "唐": 13172, "囚われ": 13173, "基金": 13174, "売る": 13175, "大分": 13176, "大木": 13177, "女教師": 13178, "宣告": 13179, "寸法": 13180, "導く": 13181, "屈指": 13182, "展覧会": 13183, "岬": 13184, "常任": 13185, "平成3年": 13186, "弟子入り": 13187, "強固": 13188, "弾丸": 13189, "弾薬": 13190, "忍者": 13191, "意匠": 13192, "成熟": 13193, "持ち込ん": 13194, "接収": 13195, "支部長": 13196, "整え": 13197, "文字通り": 13198, "旧来": 13199, "早世": 13200, "昭": 13201, "昭和19年": 13202, "未知": 13203, "東国": 13204, "果実": 13205, "欲": 13206, "汚れ": 13207, "波長": 13208, "洋介": 13209, "済": 13210, "演者": 13211, "濃い": 13212, "無名": 13213, "熊本": 13214, "生き物": 13215, "留め": 13216, "発案": 13217, "皮肉": 13218, "盗ん": 13219, "監訳": 13220, "相対": 13221, "県民": 13222, "眠": 13223, "社史": 13224, "立た": 13225, "第17話": 13226, "筒": 13227, "紋": 13228, "終始": 13229, "絶え": 13230, "綴り": 13231, "罰金": 13232, "聞かさ": 13233, "聡": 13234, "育てる": 13235, "膝": 13236, "芝生": 13237, "芸術家": 13238, "製作所": 13239, "西原": 13240, "観念": 13241, "講演会": 13242, "豪族": 13243, "足跡": 13244, "身体能力": 13245, "通史": 13246, "遣": 13247, "遺": 13248, "配達": 13249, "重さ": 13250, "開講": 13251, "集計": 13252, "青森": 13253, "飲ま": 13254, "##12月8日##": 13255, "##1882年##": 13256, "##1月10日##": 13257, "##2月28日##": 13258, "##3月24日##": 13259, "##3月2日##": 13260, "##3月5日##": 13261, "##3月9日##": 13262, "##4月16日##": 13263, "##4月9日##": 13264, "##7月21日##": 13265, "##7月29日##": 13266, "##9月21日##": 13267, "##Gamma##": 13268, "##カニ##": 13269, "##ガイア##": 13270, "##キエフ##": 13271, "##シリア##": 13272, "##シリンダー##": 13273, "##タムボン##": 13274, "##ドイツ軍##": 13275, "##バイパス道路##": 13276, "##パチスロ##": 13277, "##ファミリーマート##": 13278, "##フランチャイズ##": 13279, "##ボランティア##": 13280, "##ユリウス暦##": 13281, "##リヒテンシュタイン##": 13282, "##レコード##": 13283, "##一般国道##": 13284, "##世間##": 13285, "##京成電鉄##": 13286, "##仲野太賀##": 13287, "##住友家##": 13288, "##全日本空輸##": 13289, "##剣道##": 13290, "##原画##": 13291, "##吉田拓郎##": 13292, "##国立国会図書館##": 13293, "##地下水##": 13294, "##地方公共団体##": 13295, "##女流棋士_(将棋)##": 13296, "##常陸国##": 13297, "##弦_(楽器)##": 13298, "##従五位##": 13299, "##戦闘##": 13300, "##捜査##": 13301, "##政権交代##": 13302, "##新宿##": 13303, "##日##": 13304, "##木曽電気製鉄##": 13305, "##東京国際空港##": 13306, "##東京消防庁##": 13307, "##枚方市駅##": 13308, "##森有礼##": 13309, "##歩兵##": 13310, "##泡沫候補##": 13311, "##津波##": 13312, "##犬山市##": 13313, "##立川市##": 13314, "##総合格闘家##": 13315, "##脚本家##": 13316, "##膜##": 13317, "##茶屋##": 13318, "##運河##": 13319, "##金星##": 13320, "##金沢駅##": 13321, "##関節リウマチ##": 13322, "##雷神##": 13323, "1000万円": 13324, "155": 13325, "158": 13326, "159": 13327, "192": 13328, "1923年": 13329, "1秒": 13330, "211": 13331, "23歳": 13332, "26歳": 13333, "2戦": 13334, "520": 13335, "8代": 13336, "?”.": 13337, "Anniversary": 13338, "Corporation": 13339, "DITA": 13340, "Delta": 13341, "EU": 13342, "FlyTeam": 13343, "Hirundo": 13344, "July": 13345, "M1": 13346, "MMAPLANET": 13347, "Not": 13348, "Scott": 13349, "Series": 13350, "TEAM": 13351, "Technology": 13352, "er": 13353, "es": 13354, "file": 13355, "kr": 13356, "les": 13357, "quad": 13358, "this": 13359, "ː": 13360, "かわり": 13361, "がら": 13362, "たて": 13363, "のもの": 13364, "アップデート": 13365, "イニシエーション": 13366, "エア": 13367, "ガード": 13368, "グリッド": 13369, "グルメ": 13370, "コーネリア": 13371, "サポーター": 13372, "サンプル": 13373, "スミス": 13374, "ダービー": 13375, "テムジン": 13376, "トピック": 13377, "トーマス": 13378, "ドリル": 13379, "ニック": 13380, "ベッド": 13381, "ポータル": 13382, "マジック": 13383, "マーシャル": 13384, "メイク": 13385, "ラン": 13386, "リチャード": 13387, "ロビン": 13388, "一層": 13389, "三塁": 13390, "上段": 13391, "下半身": 13392, "下表": 13393, "丘陵": 13394, "並み": 13395, "中級": 13396, "五輪": 13397, "人種": 13398, "仮面ライダー": 13399, "休暇": 13400, "伯父": 13401, "余地": 13402, "倉": 13403, "候補生": 13404, "値段": 13405, "倭": 13406, "充填": 13407, "入植": 13408, "全力": 13409, "内藤": 13410, "制式": 13411, "包括": 13412, "厚生労働省": 13413, "参画": 13414, "取手": 13415, "右岸": 13416, "司る": 13417, "吉本": 13418, "同人": 13419, "名声": 13420, "名鉄": 13421, "吾": 13422, "呼応": 13423, "噴射": 13424, "回し": 13425, "国々": 13426, "地中": 13427, "大型車": 13428, "大正13年": 13429, "失格": 13430, "定番": 13431, "届く": 13432, "山梨": 13433, "岩田": 13434, "岳": 13435, "巡回": 13436, "工法": 13437, "平地": 13438, "廃墟": 13439, "引き継ぎ": 13440, "後身": 13441, "担当者": 13442, "掲示板": 13443, "援護": 13444, "支払わ": 13445, "文化庁": 13446, "文化祭": 13447, "於け": 13448, "日本政府": 13449, "昭和10年": 13450, "昭和44年": 13451, "昭和61年": 13452, "時速": 13453, "最高峰": 13454, "有限公司": 13455, "服属": 13456, "未熟": 13457, "桃鉄": 13458, "椅子": 13459, "歩行者": 13460, "民俗": 13461, "浩司": 13462, "渋沢": 13463, "減り": 13464, "渡米": 13465, "潜伏": 13466, "潮流": 13467, "無断": 13468, "燃え": 13469, "物産": 13470, "特色": 13471, "獲": 13472, "田舎": 13473, "画策": 13474, "盛": 13475, "盛り込ま": 13476, "直系": 13477, "眠る": 13478, "着ぐるみ": 13479, "石碑": 13480, "磁気": 13481, "立川": 13482, "竜騎士": 13483, "第16話": 13484, "第23話": 13485, "節約": 13486, "紙面": 13487, "結晶": 13488, "総覧": 13489, "緩やか": 13490, "翁": 13491, "老舗": 13492, "至近": 13493, "莫大": 13494, "調節": 13495, "請願": 13496, "諸侯": 13497, "講和": 13498, "逆襲": 13499, "遭難": 13500, "遺構": 13501, "那覇": 13502, "金賞": 13503, "銃士": 13504, "錦": 13505, "長け": 13506, "防具": 13507, "随時": 13508, "電撃": 13509, "風貌": 13510, "髭": 13511, "魅了": 13512, "##11月16日##": 13513, "##12月24日##": 13514, "##1869年##": 13515, "##1870年##": 13516, "##1885年##": 13517, "##1893年##": 13518, "##1月15日##": 13519, "##1月30日##": 13520, "##1月4日##": 13521, "##4月22日##": 13522, "##4月28日##": 13523, "##5月22日##": 13524, "##5月5日##": 13525, "##5月7日##": 13526, "##6月20日##": 13527, "##9月17日##": 13528, "##インディアン##": 13529, "##ウシ##": 13530, "##オレンジ##": 13531, "##ガラス##": 13532, "##スープ##": 13533, "##ソニー・ミュージックエンタテインメント_(日本)##": 13534, "##ハンコック_(空母)##": 13535, "##バーサーカー_(セイバーヘーゲン)##": 13536, "##ユーロビジョン・ソング・コンテスト2007##": 13537, "##上杉氏##": 13538, "##上越線##": 13539, "##中公文庫##": 13540, "##伊達氏##": 13541, "##判事##": 13542, "##即位##": 13543, "##商品##": 13544, "##国際連合##": 13545, "##地球の秘密##": 13546, "##埋立地##": 13547, "##女王_(皇族)##": 13548, "##宇宙戦艦ヤマト##": 13549, "##安政##": 13550, "##巡洋艦##": 13551, "##帽子##": 13552, "##廃駅##": 13553, "##後楽園球場##": 13554, "##戦略##": 13555, "##文学部##": 13556, "##斉_(春秋)##": 13557, "##日蓮宗##": 13558, "##朝日ソノラマ##": 13559, "##東京芸術大学##": 13560, "##東映ビデオ##": 13561, "##法人##": 13562, "##秋田書店##": 13563, "##経済学##": 13564, "##臨床検査##": 13565, "##茶道##": 13566, "##貝殻##": 13567, "##超純水##": 13568, "##野鳥##": 13569, "##高根沢町##": 13570, ".”.": 13571, "017": 13572, "15位": 13573, "16分": 13574, "188": 13575, "189": 13576, "193": 13577, "204": 13578, "28回": 13579, "290": 13580, "3割": 13581, "3秒": 13582, "4000": 13583, "455": 13584, "4曲": 13585, "7歳": 13586, "8本": 13587, "As": 13588, "Body": 13589, "CA": 13590, "DC": 13591, "E1": 13592, "ESPN": 13593, "GP": 13594, "General": 13595, "Hunter": 13596, "Jazz": 13597, "PMC": 13598, "RNB": 13599, "Revolution": 13600, "SHOW": 13601, "Sound": 13602, "Steve": 13603, "Story": 13604, "Windows": 13605, "company": 13606, "day": 13607, "hl": 13608, "more": 13609, "}=": 13610, "}}}{\\": 13611, "«": 13612, "►": 13613, "」,": 13614, "かみ": 13615, "それに": 13616, "はい": 13617, "はなまる": 13618, "もっぱら": 13619, "もらえ": 13620, "やっと": 13621, "やり取り": 13622, "アダム": 13623, "エディション": 13624, "カスタム": 13625, "ガール": 13626, "シングルス": 13627, "シーズン2": 13628, "タイトルマッチ": 13629, "テーブル": 13630, "ピストル": 13631, "ピーク": 13632, "フォト": 13633, "ブラウン": 13634, "ヘリックス": 13635, "ペンネーム": 13636, "ミーナ": 13637, "ロッテ": 13638, "ローズ": 13639, "ワークス": 13640, "ワード": 13641, "一部地域": 13642, "下がる": 13643, "世の中": 13644, "乃": 13645, "事案": 13646, "五月": 13647, "伊豆": 13648, "佐倉": 13649, "信乃": 13650, "備": 13651, "僧侶": 13652, "儀": 13653, "入試": 13654, "全面的": 13655, "公爵": 13656, "共作": 13657, "冷": 13658, "凌辱": 13659, "処置": 13660, "切る": 13661, "利府": 13662, "制作会社": 13663, "創刊号": 13664, "古川": 13665, "合間": 13666, "呉": 13667, "堤": 13668, "壺": 13669, "外さ": 13670, "多発": 13671, "大成": 13672, "大破": 13673, "天気": 13674, "女子高生": 13675, "宇宙船": 13676, "実名": 13677, "寄生": 13678, "対象者": 13679, "山岳": 13680, "帰化": 13681, "平成2年": 13682, "平成9年": 13683, "弁当": 13684, "強要": 13685, "彗星": 13686, "忠誠": 13687, "慣習": 13688, "慶": 13689, "成す": 13690, "折れ": 13691, "抜ける": 13692, "持ち込み": 13693, "捕まっ": 13694, "斗": 13695, "旭": 13696, "晴れ": 13697, "暁": 13698, "替わり": 13699, "朝夕": 13700, "未完": 13701, "本書": 13702, "本紀": 13703, "楼": 13704, "構成要素": 13705, "様相": 13706, "母校": 13707, "決まり": 13708, "決算": 13709, "泣き": 13710, "注い": 13711, "浄化": 13712, "漫画家": 13713, "激": 13714, "片山": 13715, "独身": 13716, "王宮": 13717, "生体": 13718, "甲府": 13719, "申し入れ": 13720, "町長": 13721, "白書": 13722, "百年史": 13723, "皇": 13724, "目立っ": 13725, "着目": 13726, "硬い": 13727, "秀": 13728, "第1戦": 13729, "答える": 13730, "築き": 13731, "米倉": 13732, "経由便": 13733, "経費": 13734, "結婚後": 13735, "考古学": 13736, "航空隊": 13737, "良さ": 13738, "菊池": 13739, "衰え": 13740, "複": 13741, "複数回": 13742, "見つける": 13743, "譲り": 13744, "貨車": 13745, "貫く": 13746, "軍制": 13747, "迄": 13748, "進級": 13749, "遠距離": 13750, "遷都": 13751, "酒造": 13752, "重なる": 13753, "金子": 13754, "長田": 13755, "非公式": 13756, "頼ん": 13757, "風呂": 13758, "飛翔": 13759, "養": 13760, "高まる": 13761, "##11月18日##": 13762, "##11月21日##": 13763, "##5月21日##": 13764, "##6月17日##": 13765, "##6月2日##": 13766, "##7月4日##": 13767, "##8月11日##": 13768, "##8月12日##": 13769, "##8月8日##": 13770, "##9月12日##": 13771, "##9月19日##": 13772, "##Category:日本の鉄道駅_わ##": 13773, "##E.ON##": 13774, "##h.m.p##": 13775, "##うま味##": 13776, "##アルミニウム##": 13777, "##イボンヌ・グーラゴング##": 13778, "##ウルフマン_(キン肉マン)##": 13779, "##エヴァンゲリオン_(架空の兵器)##": 13780, "##キログラム##": 13781, "##ギタリスト##": 13782, "##コリオリの力##": 13783, "##コンパイラ##": 13784, "##コンピューターゲーム##": 13785, "##デビルガンダム##": 13786, "##ニンテンドーDS##": 13787, "##パック_(妖精)##": 13788, "##ヒツジ##": 13789, "##ファミリーコンピュータ##": 13790, "##フォーミュラ1##": 13791, "##フレア_(兵器)##": 13792, "##プレーオフ##": 13793, "##ポンキッキーズ##": 13794, "##マリオシリーズのキャラクター一覧##": 13795, "##ライトノベル##": 13796, "##リスナー##": 13797, "##レシプロエンジン##": 13798, "##ロケット##": 13799, "##一塁手##": 13800, "##三国志_(歴史書)##": 13801, "##上越市##": 13802, "##下野国##": 13803, "##中央本線##": 13804, "##中将##": 13805, "##交響曲第5番_(チャイコフスキー)##": 13806, "##伊勢崎市##": 13807, "##会社##": 13808, "##体操選手##": 13809, "##信越本線##": 13810, "##倍数##": 13811, "##公判##": 13812, "##准教授##": 13813, "##動物##": 13814, "##北ヨーロッパ##": 13815, "##国際天文学連合##": 13816, "##塩##": 13817, "##天平##": 13818, "##奈良駅##": 13819, "##宇宙人##": 13820, "##岡谷鋼機##": 13821, "##患者##": 13822, "##悪魔将軍##": 13823, "##愛称##": 13824, "##抗生物質##": 13825, "##日本の法学者一覧##": 13826, "##朝鮮民族##": 13827, "##木材##": 13828, "##湖##": 13829, "##相模国##": 13830, "##紙##": 13831, "##経済産業省##": 13832, "##義務教育##": 13833, "##羽島市##": 13834, "##運輸省##": 13835, "##野球解説者##": 13836, "##金融機関##": 13837, "##銀貨##": 13838, "##階級_(公務員)##": 13839, "##電線路##": 13840, "##高架駅##": 13841, "((": 13842, ")『": 13843, "019": 13844, "12人": 13845, "136度": 13846, "178": 13847, "185": 13848, "214": 13849, "228": 13850, "2作品": 13851, "450": 13852, "642": 13853, "Adams": 13854, "Asia": 13855, "Force": 13856, "H2O": 13857, "Net": 13858, "Network": 13859, "OL": 13860, "Stercorarius": 13861, "municipality": 13862, "ponichi": 13863, "post": 13864, "science": 13865, "sports": 13866, "story": 13867, "w/": 13868, "』[": 13869, "そよ": 13870, "ぢ": 13871, "なれる": 13872, "なんて": 13873, "に関し": 13874, "ぶっ": 13875, "む": 13876, "やって来": 13877, "ゆえに": 13878, "アイ": 13879, "アドレス": 13880, "エンターテイメント": 13881, "エントリー": 13882, "キーワード": 13883, "ギミック": 13884, "クルー": 13885, "ゲームオーバー": 13886, "ゴールデン": 13887, "サロン": 13888, "スクリーン": 13889, "ステータス": 13890, "テン": 13891, "デイリー": 13892, "トゲ": 13893, "トラップ": 13894, "パットナム": 13895, "ピッチ": 13896, "ファイター": 13897, "ポップ": 13898, "マイケル": 13899, "ミネルバ": 13900, "ミュージアム": 13901, "リボン": 13902, "一因": 13903, "一夜": 13904, "一週間": 13905, "三宅": 13906, "両面": 13907, "中東": 13908, "中田": 13909, "予言": 13910, "二度と": 13911, "他方": 13912, "付き合っ": 13913, "仙": 13914, "仮に": 13915, "伝来": 13916, "依然として": 13917, "価": 13918, "保護者": 13919, "倒せる": 13920, "内装": 13921, "円滑": 13922, "前座": 13923, "劇的": 13924, "加減": 13925, "北欧": 13926, "医薬品": 13927, "却下": 13928, "受注": 13929, "古巣": 13930, "商品名": 13931, "図り": 13932, "園内": 13933, "園芸": 13934, "型式": 13935, "壊れ": 13936, "大正14年": 13937, "大胆": 13938, "大西": 13939, "奈": 13940, "妨げ": 13941, "審議会": 13942, "履歴": 13943, "左翼": 13944, "巨大化": 13945, "庄": 13946, "座長": 13947, "引っ越し": 13948, "彼自身": 13949, "徴収": 13950, "悪さ": 13951, "悪夢": 13952, "戦闘中": 13953, "手順": 13954, "打点": 13955, "抽せん": 13956, "握る": 13957, "改元": 13958, "教え子": 13959, "敷か": 13960, "斉": 13961, "新会社": 13962, "日報": 13963, "映像作品": 13964, "昭和59年": 13965, "智": 13966, "暮れ": 13967, "有機": 13968, "模倣": 13969, "気圧": 13970, "水域": 13971, "永井": 13972, "法律事務所": 13973, "渡さ": 13974, "火事": 13975, "熊谷": 13976, "熱帯": 13977, "片岡": 13978, "物理的": 13979, "狙撃": 13980, "申": 13981, "症": 13982, "相方": 13983, "真夜中": 13984, "研究開発": 13985, "秦": 13986, "称え": 13987, "立法": 13988, "第一次": 13989, "紀元前": 13990, "給与": 13991, "翌週": 13992, "脚本家": 13993, "良き": 13994, "落とさ": 13995, "行こ": 13996, "複製": 13997, "親王": 13998, "訳さ": 13999, "話者": 14000, "谷村": 14001, "負荷": 14002, "軌": 14003, "転生": 14004, "農": 14005, "過": 14006, "野呂": 14007, "鉄道管理局": 14008, "長大": 14009, "間近": 14010, "防": 14011, "除隊": 14012, "電源": 14013, "革新": 14014, "響": 14015, "頻発": 14016, "首謀": 14017, "驚異": 14018, "鯖": 14019, "鶴田": 14020, "～』": 14021, "##10月11日##": 14022, "##10月24日##": 14023, "##10月6日##": 14024, "##11月28日##": 14025, "##11月4日##": 14026, "##12月15日##": 14027, "##1874年##": 14028, "##1月2日##": 14029, "##2月22日##": 14030, "##2月6日##": 14031, "##4月24日##": 14032, "##5月24日##": 14033, "##5月25日##": 14034, "##7月22日##": 14035, "##7月8日##": 14036, "##8月27日##": 14037, "##AUDIO_LIFE##": 14038, "##MOODYZ##": 14039, "##NWA_(プロレス)##": 14040, "##アレクサンドラ・フョードロヴナ_(ニコライ2世皇后)##": 14041, "##ウルトラマン##": 14042, "##エイリアン_(架空の生物)##": 14043, "##ゲスト##": 14044, "##タウンページ##": 14045, "##ダイナマイト##": 14046, "##ピアニスト##": 14047, "##ブルガリア##": 14048, "##京阪バス##": 14049, "##作品番号##": 14050, "##価値##": 14051, "##倉敷市##": 14052, "##劉秀##": 14053, "##南北戦争##": 14054, "##台子##": 14055, "##土壌汚染##": 14056, "##大相撲##": 14057, "##大蔵省##": 14058, "##安房鴨川駅##": 14059, "##客員教授##": 14060, "##尼崎市##": 14061, "##急行列車##": 14062, "##怪物##": 14063, "##控除##": 14064, "##支那方面艦隊##": 14065, "##放射性崩壊##": 14066, "##放射能##": 14067, "##敦賀市##": 14068, "##新日本プロレス##": 14069, "##曽根悟##": 14070, "##森田一義アワー_笑っていいとも!##": 14071, "##検事##": 14072, "##橋上駅##": 14073, "##正室##": 14074, "##歩道##": 14075, "##沃沮##": 14076, "##浦添市##": 14077, "##演出##": 14078, "##火曜サスペンス劇場##": 14079, "##物部氏##": 14080, "##王寺駅##": 14081, "##理事長##": 14082, "##理科教育##": 14083, "##田中角栄##": 14084, "##白人##": 14085, "##米原駅##": 14086, "##茎##": 14087, "##蒸気タービン##": 14088, "##軌道_(鉄道)##": 14089, "##郡##": 14090, "##関西電力##": 14091, "##音楽ユニット##": 14092, "##駆動輪##": 14093, "##麻原彰晃##": 14094, ")[": 14095, "-)": 14096, "10t": 14097, "11時": 14098, "14号": 14099, "161": 14100, "173": 14101, "183": 14102, "190": 14103, "1949": 14104, "1km": 14105, "2003年度": 14106, "2006年度": 14107, "2016年度": 14108, "20人": 14109, "225": 14110, "227": 14111, "23時": 14112, "3m": 14113, "5本": 14114, "5階": 14115, "8つ": 14116, "9代": 14117, "A5": 14118, "AA": 14119, "ASN": 14120, "April": 14121, "Bison": 14122, "CN": 14123, "Can": 14124, "Colle": 14125, "Development": 14126, "HD": 14127, "Introduction": 14128, "JR九州": 14129, "NPO法人": 14130, "ONE": 14131, "PE": 14132, "Professional": 14133, "Street": 14134, "aq": 14135, "cdots": 14136, "dx": 14137, "informazioni": 14138, "omega": 14139, "product": 14140, "sui": 14141, "text": 14142, "vol.2": 14143, "youtube": 14144, "}={\\": 14145, "и": 14146, "∨": 14147, "がく": 14148, "くさい": 14149, "ござい": 14150, "とどまっ": 14151, "ひかり": 14152, "まさに": 14153, "またがる": 14154, "みなし": 14155, "らい": 14156, "アクジ": 14157, "アテ": 14158, "インデックス": 14159, "エアー": 14160, "キャスティング": 14161, "キャッシュ": 14162, "キラー": 14163, "クリス": 14164, "グラビア": 14165, "グル": 14166, "コスチューム": 14167, "シャッター": 14168, "スチール": 14169, "テロ": 14170, "トム": 14171, "トルク": 14172, "ドラマー": 14173, "パイプ": 14174, "ファイト": 14175, "ファンタジー": 14176, "フィクション": 14177, "ヘリ": 14178, "ボット": 14179, "ミックス": 14180, "メカニズム": 14181, "メドレー": 14182, "メンテナンス": 14183, "ヤン": 14184, "ライブラリ": 14185, "リン": 14186, "ロー": 14187, "下北沢": 14188, "不正解": 14189, "亜種": 14190, "亮": 14191, "人権": 14192, "任官": 14193, "佐久間": 14194, "佐伯": 14195, "便宜上": 14196, "信州": 14197, "停": 14198, "入館": 14199, "円盤": 14200, "出かけ": 14201, "利用客": 14202, "則": 14203, "効か": 14204, "動かし": 14205, "半径": 14206, "及ぼし": 14207, "受け入れる": 14208, "叙": 14209, "号線": 14210, "同然": 14211, "同県": 14212, "名字": 14213, "咲": 14214, "喜ん": 14215, "圧迫": 14216, "塙": 14217, "変貌": 14218, "大当たり": 14219, "大都市": 14220, "大雨": 14221, "奨励賞": 14222, "完走": 14223, "実証": 14224, "密": 14225, "対比": 14226, "小笠原": 14227, "届い": 14228, "岐阜": 14229, "帰郷": 14230, "平成元年": 14231, "従兄": 14232, "循環線": 14233, "徳島": 14234, "怒ら": 14235, "憑": 14236, "戦わ": 14237, "手助け": 14238, "押さ": 14239, "拾っ": 14240, "撃つ": 14241, "撮り": 14242, "放送回": 14243, "日本ハム": 14244, "日本兵": 14245, "昭和41年": 14246, "昭和45年": 14247, "昭和51年": 14248, "昭和55年": 14249, "晋": 14250, "景": 14251, "暦": 14252, "書記": 14253, "有価証券報告書": 14254, "格闘技": 14255, "気に入ら": 14256, "水沢": 14257, "治安": 14258, "海中": 14259, "海賊": 14260, "消防": 14261, "潜水艦": 14262, "産む": 14263, "用品": 14264, "田原": 14265, "田口": 14266, "画集": 14267, "疲れ": 14268, "皆無": 14269, "相互作用": 14270, "知性": 14271, "短歌": 14272, "研究家": 14273, "破裂": 14274, "社会部": 14275, "節目": 14276, "経営統合": 14277, "総務部": 14278, "聴取": 14279, "胸部": 14280, "自衛隊": 14281, "苑": 14282, "藤村": 14283, "西山": 14284, "負債総額": 14285, "赤く": 14286, "踏ん": 14287, "農業経済": 14288, "追い": 14289, "通訳": 14290, "連想": 14291, "進ま": 14292, "運送": 14293, "遮断": 14294, "遺伝": 14295, "重力": 14296, "金森": 14297, "長沢": 14298, "閣": 14299, "阿": 14300, "降": 14301, "除籍": 14302, "青柳": 14303, "食糧": 14304, "飼い主": 14305, "高島": 14306, "高架": 14307, "髙橋": 14308, "（-": 14309, "##12月28日##": 14310, "##1582年##": 14311, "##1864年##": 14312, "##1867年##": 14313, "##1月5日##": 14314, "##2月20日##": 14315, "##5月26日##": 14316, "##6月22日##": 14317, "##7月30日##": 14318, "##MD5##": 14319, "##NHK##": 14320, "##∂##": 14321, "##お笑いタレント##": 14322, "##まめっち##": 14323, "##エチオピア##": 14324, "##コマーシャルソング##": 14325, "##シューティングゲーム##": 14326, "##スクウェア・エニックス##": 14327, "##デオキシリボ核酸##": 14328, "##トランペット##": 14329, "##ドイツ国防軍##": 14330, "##ヒップホップ##": 14331, "##ビックリマン_(シール)##": 14332, "##ファッション##": 14333, "##プロ野球監督##": 14334, "##ホイッグ党_(イギリス)##": 14335, "##レーザー##": 14336, "##二十八宿##": 14337, "##元号一覧_(中国)##": 14338, "##出家##": 14339, "##台東区##": 14340, "##国鉄1045形蒸気機関車##": 14341, "##堀川惠子##": 14342, "##天台宗##": 14343, "##打点##": 14344, "##拝島駅##": 14345, "##指##": 14346, "##文化庁##": 14347, "##日中戦争##": 14348, "##日本電信電話##": 14349, "##村上市##": 14350, "##村上駅_(新潟県)##": 14351, "##桁橋##": 14352, "##水戸黄門_(第14-21部)##": 14353, "##江東区##": 14354, "##王寺_(王寺町)##": 14355, "##甘粛省##": 14356, "##皇后##": 14357, "##石狩川##": 14358, "##私小説##": 14359, "##空襲##": 14360, "##背景音楽##": 14361, "##製品##": 14362, "##触媒##": 14363, "##諱##": 14364, "##講談##": 14365, "##越前国##": 14366, "##連合艦隊##": 14367, "##鎌倉市##": 14368, "##雑草##": 14369, "##駅伝競走##": 14370, "){\\": 14371, "016": 14372, "10万円": 14373, "13巻": 14374, "16時": 14375, "1900年": 14376, "1907年": 14377, "1912年": 14378, "198": 14379, "217": 14380, "2年前": 14381, "3DS": 14382, "3試合": 14383, "4着": 14384, "50%": 14385, "50m": 14386, "6代目": 14387, "Digital": 14388, "GOAL": 14389, "Get": 14390, "MJ": 14391, "March": 14392, "Microsoft": 14393, "PROJECT": 14394, "Pacific": 14395, "Part2": 14396, "Retrieved": 14397, "Russia": 14398, "SW": 14399, "St": 14400, "TVアニメ": 14401, "Union": 14402, "first": 14403, "japan": 14404, "leq": 14405, "mainichi.jp": 14406, "vol.3": 14407, "̲": 14408, "⁄": 14409, "あっさり": 14410, "いかなる": 14411, "いずみ": 14412, "おけ": 14413, "かえって": 14414,
[...]
