{"##言語##": 287, "（": 171720, "げん": 50, "ご": 722, "）": 169976, "は": 200055, "、": 402250, "狭義": 66, "に": 244409, "「": 75410, "声": 1670, "による": 6476, "記号": 198, "の": 411805, "体系": 163, "」": 72683, "を": 205702, "いう": 2691, "。": 312701, "##広辞苑##": 21, "や": 21450, "##大辞泉##": 16, "次": 1146, "よう": 11146, "解説": 592, "さ": 58835, "れ": 63255, "て": 124608, "いる": 48513, "##人間##": 168, "が": 171714, "##音声##": 10, "##文字##": 60, "用い": 2170, "##思想##": 26, "・": 67352, "##感情##": 11, "<unk>": 593705, "等々": 19, "伝達": 105, "する": 48713, "ため": 16711, "用いる": 523, "および": 3107, "それ": 3924, "によって": 5889, "人": 4249, "など": 19058, "情報": 1774, "表現": 723, "し": 106897, "たり": 2597, "あるいは": 890, "他者": 82, "受け入れ": 269, "理解": 345, "約束": 189, "そうした": 98, "ある": 46920, "特定": 588, "##集団##": 52, "音": 722, "事態": 236, "手段": 294, "こと": 30229, "で": 153864, "##英語##": 1053, "##フランス語##": 259, "##日本語##": 349, "用語": 837, "langue": 8, "訳語": 35, "『": 49420, "##日本大百科全書##": 18, "』": 48216, "という": 10385, "語": 1610, "多義": 6, "と": 122468, "中枢": 38, "版": 6043, "蓄え": 21, "られ": 10095, "た": 177828, "《": 220, "##語彙##": 14, "##文法##": 14, "》": 197, "指す": 572, "も": 45315, "あり": 11106, "その": 11157, "##能力##": 10, "として": 24695, "とらえる": 16, "一方": 1516, "##抽象化##": 6, "的": 9238, "##人類##": 23, "共有": 148, "個々": 123, "広義": 79, "verbal": 5, "な": 28470, "もの": 9396, "non": 17, "-": 88753, "各種": 364, "アイコン": 25, "図形": 25, "等": 3631, "両方": 235, "含み": 59, "日常": 172, "コミュニケーション": 92, "身振り": 12, "図示": 8, "擬音": 7, "加え": 1004, "れる": 19238, "社会": 525, "内": 4260, "形成": 786, "習得": 125, "##コミュニケーション##": 33, "##思考##": 13, "可能": 2564, "結果": 1688, "社会的": 112, "活動": 2716, "##文化##": 50, "支え": 190, "特徴": 1175, "織り込ま": 8, "おり": 7216, "共同体": 31, "学習": 141, "いく": 1220, "なる": 12012, "研究": 2517, "##言語学##": 23, "発展": 744, "上": 4111, "非常": 923, "重要": 834, "役割": 551, "果たし": 648, "わけ": 409, "以降": 2782, "呼ば": 3256, "に対して": 1944, "行う": 2234, "なっ": 18275, "##音韻##": 27, "##意味##": 10, "間": 4523, "結び付け": 20, "方": 1322, "また": 9730, "単語": 115, "結び": 128, "付け方": 6, "作ら": 671, "習慣": 76, "非": 529, "境界": 186, "問題": 1623, "使う": 607, "方法": 994, "ない": 18081, "区別": 387, "のみ": 4101, "から": 39026, "でき": 3079, "分け": 335, "られる": 4526, "使っ": 820, "word": 14, "いい": 682, "化学式": 7, "H2O": 47, "例": 1376, "自然": 427, "作用": 174, "おら": 493, "ず": 5481, "独特": 227, "構成": 1437, "さまざま": 321, "分類": 707, "##口語##": 16, "##文語##": 16, "といった": 1077, "重": 304, "部分": 1368, "はっきり": 121, "できる": 4583, "詳細": 677, "参照": 1657, "読み上げ": 39, "化": 3700, "により": 7093, "触覚": 6, "変換": 217, "特性": 204, "保存": 398, "視覚": 95, "同等": 130, "取り扱う": 66, "に関して": 592, "一般": 1595, "話し": 221, "##言葉##": 16, "書き": 195, "同一": 263, "バージョン": 524, "異なる": 1751, "考え": 1918, "そちら": 44, "単純": 193, "以上": 2232, "自然発生": 8, "他": 4583, "近代": 306, "##エスペラント##": 6, "##人工言語##": 5, "以外": 1777, "について": 5070, "各": 2835, "記事": 1487, "代表的": 25, "##哲学者##": 26, "位置づけ": 124, "##フランス##": 1105, "基礎": 364, "代替": 193, "発想": 58, "存在": 3613, "主張": 821, "に対する": 1334, "批判": 665, "投げかける": 7, "立場": 471, "民族": 223, "滅亡": 176, "吸収": 350, "使用": 4315, "なく": 4797, "この": 15745, "再び": 964, "##母語##": 12, "歴史": 1465, "ただ": 349, "一": 3791, "##ヘブライ語##": 16, "しか": 1114, "しかし": 3632, "復活": 650, "でも": 2478, "完全": 970, "消滅": 433, "い": 26020, "存続": 244, "##パレスチナ##": 58, "移住": 246, "##ユダヤ人##": 81, "たち": 2624, "20世紀": 196, "入っ": 942, "人工的": 24, "せ": 4676, "##イスラエル##": 139, "建国": 182, "とともに": 1717, "##公用語##": 50, "指定": 1344, "再生": 363, "ほか": 2398, "##ラテン語##": 108, "ものの": 1345, "もはや": 72, "##宗教##": 58, "近年": 557, "話者": 47, "数": 3263, "少ない": 446, "飲み込ま": 24, "新た": 1054, "化す": 15, "視": 226, "なり": 4895, "危機": 245, "呼ぶ": 685, "これ": 5879, "進み": 185, "交通網": 10, "整備": 1066, "流通": 213, "迅速": 33, "##ラジオ##": 115, "##テレビ##": 234, "##マスメディア##": 50, "発達": 253, "まで": 10874, "孤立": 80, "保っ": 57, "小さな": 349, "がそ": 81, "コミュニティ": 97, "維持": 503, "起こる": 183, "より": 9745, "大きな": 1209, "視点": 165, "国際": 641, "勢力": 487, "伸張": 10, "主要": 583, "縮小": 180, "いわゆる": 420, "含ま": 862, "いえる": 234, "21世紀": 114, "初頭": 262, "において": 4142, "多数派": 16, "占める": 166, "##国家##": 172, "除い": 245, "グローバル化": 7, "直結": 80, "隣接": 639, "した": 577, "との": 1204, "交流": 461, "不可欠": 61, "圏": 165, "小": 723, "取り込ま": 20, "起きる": 98, "こうした": 364, "動き": 390, "人的": 31, "盛ん": 243, "##先進国##": 15, "顕著": 100, "##北アメリカ##": 58, "##オーストラリア##": 256, "急速": 180, "経済成長": 15, "有意": 7, "相関": 23, "その他": 1024, "地域": 2311, "進ん": 315, "##2010年##": 1584, "##インド##": 255, "領": 388, "##アンダマン諸島##": 6, "一つ": 2243, "にも": 980, "同": 2974, "警告": 100, "発せ": 32, "世界": 2206, "つ": 334, "どの": 408, "生まれ": 1541, "か": 6388, "分かっ": 129, "複数": 1410, "##仮説##": 22, "例えば": 668, "##デンマーク##": 120, "者": 5293, "以下": 2950, "列挙": 36, "説": 1000, "(\"": 41, "\"": 4440, "theory": 37, ")": 26090, "思わず": 18, "出": 1139, "に関する": 2050, "出来": 534, "爆笑": 38, "\"「": 19, "ショウ": 28, "（笑）": 8, "嫌う": 37, "きらい": 10, "ケン": 59, "嫌": 57, "鳴き声": 29, "動物": 441, "モ": 24, "うし": 15, "牛": 157, "ワオ": 6, "～": 3113, "ン": 76, "お": 2469, "おかみ": 14, "ロウ": 10, "狼": 59, "ドン": 103, "Ding": 5, "音響": 107, "物": 1049, "！": 2135, "ゴロゴロ": 5, "ライ": 173, "雷": 92, "…": 1790, "water": 23, "み": 932, "水": 871, "Yo": 7, "he": 53, "ho": 12, "かけ声": 8, "行動": 847, "停止": 468, "促す": 67, "stop": 6, "とまる": 8, "停": 46, "働く": 199, "時": 5800, "work": 20, "はたらく": 11, "労": 21, "とる": 216, "無い": 600, "はやし": 19, "歌": 1006, "世界各地": 52, "残っ": 592, "事": 2579, "裏付け": 31, "なお": 3156, "地球": 609, "ヶ所": 116, "かも": 199, "##生物学##": 16, "観点": 152, "起源": 238, "探ろ": 8, "う": 3617, "試み": 233, "最近": 251, "##分子生物学##": 11, "よれ": 753, "ば": 4808, "名づけ": 105, "##遺伝子##": 70, "生じ": 321, "種": 856, "変異": 68, "獲得": 1235, "つながっ": 101, "可能性": 721, "さらに": 2178, "分化": 34, "以前": 1595, "30": 1646, "40万": 14, "年": 3173, "前": 4717, "すで": 52, "解析": 115, "発表": 2528, "登場": 4613, "既に": 438, "身": 593, "つけ": 634, "有": 174, "多く": 3680, "持っ": 1310, "直接的": 65, "証明": 190, "まだ": 403, "なさ": 362, "留意": 28, "必要": 1961, "生物": 355, "場合": 5734, "進化": 158, "止まっ": 60, "現在": 6039, "生き残っ": 61, "一見": 83, "似": 683, "2種類": 151, "全然": 12, "別": 1460, "種類": 421, "ケース": 342, "同じ": 2740, "現象": 256, "起き": 349, "変化": 959, "速度": 458, "一定": 449, "侵略": 88, "交易": 114, "移動": 1058, "接触": 187, "大きく": 1014, "代表": 1208, "逆": 575, "ほとんど": 1131, "##ドイツ語##": 166, "##アイスランド語##": 41, "##ギリシャ語##": 18, "##サンスクリット語##": 10, "特に": 1677, "基本": 661, "1000年": 27, "もともと": 207, "いくつか": 481, "発生": 1585, "グループ": 1253, "##語族##": 5, "そして": 1500, "細分": 33, "大多数": 45, "なんらかの": 23, "属する": 358, "なかには": 10, "現存": 294, "系統": 525, "関係": 2022, "立証": 13, "地理": 88, "近接": 58, "異なっ": 220, "相互": 228, "影響": 1535, "あい": 101, "類似": 224, "事例": 274, "見": 2498, "群": 746, "##共通語##": 15, "年代": 139, "割り出す": 5, "考案": 161, "史": 1430, "作る": 400, "綴り": 50, "発音": 181, "古代": 417, "中世": 266, "3分": 119, "割": 139, "両": 1088, "深まる": 11, "につれて": 72, "様々": 1068, "相手": 1132, "借用": 28, "##借用語##": 14, "商業": 243, "生活": 1140, "初期": 999, "簡略": 28, "形": 1939, "やがて": 331, "増え": 341, "成長": 498, "くる": 837, "新しい": 749, "見なす": 19, "比べ": 376, "何より": 17, "きちんと": 32, "だっ": 5287, "一個": 32, "独立": 853, "見なし": 39, "全く": 492, "違い": 593, "つまり": 331, "幼い": 178, "ころ": 331, "主": 2502, "育っ": 103, "人々": 769, "しばしば": 492, "隔たり": 11, "##中世ヨーロッパ##": 12, "における": 3444, "土地": 552, "採用": 1231, "欧州": 168, "知識人": 29, "ルネサンス": 12, "##印刷##": 5, "術": 372, "##宗教改革##": 11, "各国": 262, "際": 3230, "##方言##": 82, "持た": 364, "なかっ": 4651, "筆記": 32, "標準": 448, "表記": 1190, "法": 1142, "定まっ": 22, "いき": 179, "国内": 782, "##標準語##": 16, "制定": 417, "出版物": 19, "徐々": 71, "あれ": 527, "中央": 748, "公的": 74, "統制": 58, "機関": 430, "置い": 303, "主導": 149, "あっ": 11602, "いずれ": 939, "せよ": 219, "成立": 791, "せる": 2206, "うえ": 251, "ピース": 55, "いっ": 1010, "序列": 38, "つける": 167, "最も": 1198, "誕生": 685, "瞬間": 135, "とらえ": 26, "##ニカラグア##": 14, "子供達": 52, "##1970年代##": 108, "後半": 578, "裏付ける": 17, "千": 549, "百": 589, "言わ": 1077, "##1939年##": 233, "アメリカ": 1423, "en": 503, ":": 18823, "Louis": 28, "Herbert": 14, "Gray": 30, "著書": 266, "Foundations": 14, "of": 3959, "Language": 29, "[": 3293, "1": 16051, "]": 2580, "唱え": 114, "##1979年##": 443, "ドイツ": 397, "マイヤー": 6, "4200": 5, "5600": 7, "##三省堂##": 25, "編": 3810, "8000": 50, "超": 507, "扱っ": 147, "正確": 320, "数える": 43, "ほぼ": 929, "不可能": 273, "未": 675, "発見": 1159, "つつ": 609, "だけ": 2703, "原理": 130, "困難": 420, "では": 6462, "隣り": 24, "合っ": 81, "とき": 1867, "なのか": 56, "難しい": 187, "たとえば": 257, "旧": 2538, "##ユーゴスラビア##": 19, "属し": 224, "##セルビア##": 90, "##クロアチア##": 21, "##ボスニア・ヘルツェゴビナ##": 18, "##モンテネグロ##": 7, "4": 6986, "似通っ": 17, "学術的": 20, "扱わ": 235, "政治上": 7, "統一": 383, "これら": 1438, "1991年": 727, "崩壊": 301, "地方": 705, "それぞれ": 1665, "扱う": 287, "##セルビア語##": 8, "##クロアチア語##": 5, "三": 1892, "政治": 429, "##2006年##": 1995, "明確": 243, "中心": 2170, "持つ": 2409, "呼び": 206, "中国": 736, "##北京語##": 7, "元": 3714, "##普通話##": 28, "##広東語##": 51, "遠隔": 60, "地": 1937, "差異": 70, "会話": 183, "しない": 245, "ほど": 1685, "共通": 444, "あくまでも": 60, "##中国語##": 198, "対応": 1249, "すべて": 1015, "どう": 623, "判定": 207, "基準": 563, "相互理解": 8, "性": 1568, "提唱": 174, "言う": 706, "距離": 624, "伝える": 199, "範囲": 427, "確定": 317, "しよ": 509, "技術的": 62, "難し": 15, "とどまら": 29, "直面": 69, "A": 2920, "B": 1923, "聞き取れ": 6, "差": 372, "もう": 440, "系列": 471, "広がり": 109, "中": 7311, "徐々に": 185, "どこ": 194, "いくつ": 55, "分割": 295, "す": 709, "べき": 860, "まったく": 156, "決め": 464, "際し": 33, "単一": 67, "決めて": 24, "理屈": 7, "あえて": 60, "現実": 207, "政治的": 159, "##アイデンティティ##": 5, "深く": 214, "賛成": 103, "得": 1264, "強い": 789, "反発": 166, "受ける": 762, "誤り": 107, "だ": 8341, "論拠": 12, "もっ": 564, "ので": 1736, "結局": 345, "慣習": 48, "に従って": 132, "ごと": 738, "説明": 662, "二つ": 247, "第一": 273, "なんら": 5, "第": 16801, "二": 2520, "まず": 303, "同系": 18, "選定": 228, "よる": 1127, "点": 1269, "定義": 610, "にかけて": 1069, "思っ": 408, "かけ": 681, "同士": 347, "恣意": 11, "たとえ": 62, "話さ": 31, "みなさ": 89, "事実": 323, "有る": 35, "住む": 292, "少数民族": 14, "西部": 324, "東部": 317, "モンゴル": 34, "系": 2109, "両者": 238, "意識": 355, "別々": 65, "海南島": 5, "すむ": 12, "臨": 37, "高": 989, "籍": 59, "##漢民族##": 37, "##漢語##": 26, "どおり": 73, "判断基準": 6, "あまり": 565, "変更": 2718, "併用": 90, "珍しい": 148, "はさ": 9, "与え": 1259, "##ヒンディー語##": 10, "##パキスタン##": 30, "##ウルドゥー語##": 10, "または": 1773, "下表": 49, "21": 926, "準拠": 93, "資料": 753, "2021年": 3233, "時点": 2902, "推計": 27, "13": 873, "##アラビア語##": 75, "20": 1630, "合計": 327, "図": 512, "通り": 1790, "多い": 2556, "##中華人民共和国##": 527, "##中華民国##": 92, "それに": 48, "##シンガポール##": 124, "3つ": 429, "すぎ": 262, "広く": 489, "含め": 670, ",": 41619, "個": 831, "上記": 657, "2位": 376, "##スペイン語##": 89, "##スペイン##": 369, "発祥": 112, "##17世紀##": 41, "##新大陸##": 5, "植民地": 215, "経": 1212, "##南アメリカ##": 36, "南部": 610, "広大": 93, "2021年度": 67, "国々": 49, "カ国": 64, "のぼる": 55, "5位": 184, "##ポルトガル語##": 30, "合わせ": 665, "領域": 335, "##ラテンアメリカ##": 22, "人口": 781, "4位": 199, "55": 591, "か国": 61, "国": 1575, "##アメリカ合衆国##": 1526, "##イギリス##": 1215, "重要視": 33, "伴い": 1300, "ビジネス": 257, "行わ": 3546, "場面": 410, "どうし": 17, "住民": 458, "交渉": 282, "影響力": 81, "増大": 139, "傾向": 392, "次ぐ": 154, "##19世紀##": 115, "##西洋##": 13, "有力": 277, "挙げ": 788, "2億": 36, "トップ": 311, "5": 5326, "入ら": 66, "アフリカ": 145, "29": 436, "7位": 105, "広い": 183, "##クルアーン##": 16, "##イスラム##": 5, "全域": 230, "使用者": 52, "とくに": 79, "##北アフリカ##": 10, "##中東##": 50, "23": 735, "のぼっ": 15, "ひとつ": 648, "##アラブ##": 21, "ただし": 1752, "分かれ": 263, "多数": 987, "わか": 27, "##国際連合##": 48, "##ロシア語##": 86, "6つ": 73, "要素": 521, "##カナダ##": 322, "##ベルギー##": 145, "##オランダ語##": 31, "対立": 379, "激化": 52, "及ぼす": 59, "珍しく": 111, "##ベンガル語##": 5, "同格": 13, "##国語##": 24, "求め": 654, "独立運動": 19, "最終的": 402, "##バングラデシュ##": 15, "自治権": 19, "少数派": 19, "不満": 161, "政策": 415, "よく": 1010, "与える": 388, "同国": 99, "##1970年##": 515, "設立": 2178, "数度": 18, "併存": 8, "連邦": 103, "##スイス##": 218, "典型": 111, "##1848年##": 33, "憲法": 94, "##イタリア語##": 98, "制": 724, "##1938年##": 183, "##1956年##": 242, "区分": 179, "へ": 12821, "州": 254, "再編": 204, "取っ": 333, "構造": 771, "部族": 115, "層": 375, "もっとも": 273, "分": 1877, "減少": 448, "##日本##": 5652, "とれ": 39, "通用": 79, "来": 751, "政府": 835, "文書": 482, "そのまま": 632, "分離": 435, "##アフリカ大陸##": 25, "諸": 530, "あらわれ": 22, "##宗主国##": 6, "学校": 1085, "##教育##": 223, "もこ": 54, "かけ離れ": 33, "国民": 353, "さほど": 28, "穴": 220, "埋める": 27, "##首都##": 132, "強大": 68, "大部分": 245, "覆う": 52, "遅れ": 215, "反対": 624, "権力": 158, "源泉": 16, "事情": 255, "下": 1940, "及び": 1978, "機能": 1291, "基本的": 516, "ヒト": 64, "固有": 167, "少数": 140, "例外": 167, "除き": 205, "モデル": 996, "作り": 340, "にくい": 182, "そのため": 903, "脳梗塞": 7, "脳": 63, "局所": 17, "破壊": 715, "症例": 28, "被験者": 20, "2つ": 685, "呈示": 7, "干渉": 76, "効果": 701, "心理学": 71, "き": 2646, "1980年代後半": 18, "手法": 270, "加わり": 81, "課題": 177, "行っ": 2635, "古典": 153, "囲む": 31, "左": 557, "わたっ": 34, "各部": 28, "損傷": 119, "違っ": 156, "タイプ": 521, "##失語##": 5, "出現": 439, "付近": 914, "生じる": 256, "運動": 596, "となり": 69, "書": 1397, "字": 966, "障害": 212, "感覚": 106, "流暢": 14, "不良": 92, "右": 460, "利き": 25, "半球": 10, "優位": 84, "抑揚": 5, "把握": 111, "比喩": 14, "認識": 330, "関与": 249, "漢字": 129, "ひらがな": 13, "表音": 7, "部位": 70, "多方面": 22, "個人": 610, "全体": 783, "知的": 53, "乖離": 24, "個体": 322, "ヒント": 84, "環境": 674, "聴取": 46, "自力": 54, "見出し": 65, "備え": 363, "生後": 34, "2": 13712, "5日": 168, "新生児": 15, "順": 288, "聞い": 266, "ほう": 282, "外": 763, "母": 1388, "聴覚": 12, "増加": 516, "大きかっ": 44, "報告": 664, "出産": 162, "母体": 147, "聴い": 62, "示唆": 152, "^": 45469, "性質": 287, "設計": 782, "一部": 2952, "沿っ": 211, "理論": 399, "概念": 334, "不": 318, "a": 10662, "b": 9044, "c": 4781, "d": 3661, "e": 2606, "f": 2356, "g": 1299, "山本": 248, "昭": 50, ".": 55760, "“": 16869, "6回": 230, "報告会": 5, "講演": 186, "論": 566, "文集": 55, "専門": 443, "”": 4103, "2022年": 2987, "4月5日": 191, "閲覧": 16171, "六": 661, "ニッポニカ": 40, "物語": 963, "エルサレム": 11, "p": 6126, "166": 72, "中央公論新社": 18, "7月25日": 163, "発行": 1325, "108": 144, "-1": 5081, "11": 1548, "デイヴィッド": 28, "クリスタル": 65, "著": 1023, "三谷": 20, "裕美": 9, "訳": 938, "中公新書": 21, "2004年": 1729, "11月25日": 171, "http://": 1937, "www": 2928, "afpbb": 25, ".com": 2192, "/": 27538, "articles": 270, "/-/": 72, "失わ": 194, "AFPBB": 14, "2014年": 2516, "09": 714, "月": 1320, "03": 430, "日": 2239, "2017年": 2504, "2月6日": 105, "?": 832, "pid": 85, "=": 3780, "最後": 1555, "死亡": 603, "絶滅": 84, "02": 474, "06": 673, "族": 386, "存亡": 7, "2011年": 2278, "01": 571, "26日": 140, "Nature": 75, "413": 12, "(": 43446, "):": 672, "519": 22, "-2": 3793, "3": 8022, "Current": 8, "Biology": 24, "17": 926, "1908": 18, "–": 2074, "1912": 24, "学": 478, "概論": 40, "40": 556, "-4": 4290, "髭": 49, "川島": 100, "4月1日": 577, "初版": 324, "人類学": 29, "キーワード": 47, "97": 168, "有斐閣": 37, "1997年": 957, "9月30日": 272, "刷": 176, "ネイション": 5, "ナショナリズム": 30, "難問": 10, "岩波新書": 25, "2008年": 2820, "ISBN": 6037, "松崎": 23, "寛": 36, "らしさ": 13, "講談社": 202, "1995年": 846, "22": 871, "12": 1744, "人類": 232, "変え": 421, "8つ": 46, "農耕": 37, "お金": 98, "-3": 2263, "岩波ジュニア新書": 7, "2012年": 2600, "4月20日": 131, "地域社会": 13, "p19": 20, "陳": 37, "三元社": 6, "2005年": 1904, "2月23日": 129, "世界地図": 11, "6": 5151, "新潮新書": 7, "5月20日": 133, "p2": 140, "10": 3023, "大橋": 78, "正明": 21, "村山": 30, "真弓": 11, "編著": 276, "2003年": 1600, "8月8日": 149, "知る": 306, "60": 382, "章": 625, "p5": 42, "8": 3413, "明石書店": 18, "179": 42, "8月25日": 124, "図説": 91, "86": 211, "河出書房新社": 44, "8月30日": 200, "2000年": 1231, "111": 111, "123": 83, "ことば": 90, "多": 217, "状況": 943, "生きる": 176, "pp": 1830, "18": 985, "梶": 19, "茂樹": 12, "2009年": 2583, "4月30日": 173, "Category": 30, "##言葉遊び##": 5, "MSN": 10, "Multimedia": 6, "リンク切れ": 708, "]（": 118, "CIA": 23, "The": 2689, "World": 334, "Factbook": 7, "Field": 50, "Languages": 18, "the": 2543, "コトバンク": 233, "百科事典": 64, "項目": 1047, "<eos>": 10000, "##インドネシア##": 201, "共和国": 84, "Indonesia": 25, "標語": 13, "：": 29798, "多様性": 34, "国歌": 20, "##インドネシア語##": 24, "偉大": 64, "きょう": 151, "わ": 562, "こく": 58, "##通称##": 59, "##東南アジア##": 68, "位置": 1565, "##共和制##": 24, "##ジャワ島##": 38, "##ジャカルタ##": 32, "110": 112, "##キロメートル##": 520, "東西": 235, "長く": 315, "連なる": 37, "抱える": 59, "##赤道##": 14, "またがる": 46, "万": 1831, "7": 3401, "504": 12, "大小": 38, "##島##": 109, "000": 1188, "万人": 58, "超える": 290, "##国の人口順リスト##": 6, "規模": 396, "世界最大": 59, "##ムスリム##": 31, "有する": 1042, "知ら": 1793, "陸上": 120, "国境線": 19, "面し": 126, "##ティモール島##": 6, "##東ティモール##": 21, "##ボルネオ島##": 18, "##マレーシア##": 70, "##ニューギニア島##": 21, "##パプアニューギニア##": 14, "海": 613, "隔て": 41, "##パラオ##": 18, "##フィリピン##": 138, "##南シナ海##": 26, "##ナトゥナ諸島##": 6, "##インドシナ半島##": 5, "領有権": 16, "競合": 100, "向かい合う": 7, "##東南アジア諸国連合##": 5, "ASEAN": 22, "盟主": 26, "本部": 461, "##2009年##": 1689, "50": 767, "大使": 95, "常駐": 26, "##日本占領時期のインドネシア##": 52, "##2011年##": 1656, "開設": 729, "唯一": 751, "参加": 2325, "##2019年##": 1426, "8月": 1793, "##ジョコ・ウィドド##": 6, "##インドネシアの大統領##": 31, "すると": 95, "宣言": 371, "新": 2190, "最適": 65, "候補": 631, "東岸": 35, "両県": 14, "かかる": 250, "近郊": 153, "移転": 861, "明らか": 534, "名": 4864, "意味": 2131, "##議会##": 81, "可決": 90, "開発": 2056, "長官": 147, "##2022年##": 1232, "1月18日": 141, "民間": 214, "調査": 973, "同年": 2581, "2月": 1502, "世論調査": 15, "回答": 136, "半数": 59, "占め": 188, "正式名称": 114, "略称": 362, "RI": 53, "公式": 842, "英語表記": 27, "Republic": 32, "（[": 23, "ni": 57, "ː": 49, "ə": 66, "nd": 14, "əˈ": 5, "]）。": 20, "印度": 7, "尼": 44, "西": 932, "亜": 137, "印": 165, "国名": 31, "##諸島##": 9, "##接尾辞##": 7, "由来": 1119, "##オランダ領東インド##": 69, "時代": 2769, "##1920年代##": 25, "定着": 232, "上部": 221, "赤": 471, "下部": 165, "白": 406, "2色": 12, "長方形": 45, "縦": 157, "横": 307, "比率": 103, "##モナコ##": 23, "こちら": 380, "縦横": 25, "比": 129, "##ポーランド##": 208, "配置": 602, "上下": 171, "##パンチャシラ##": 5, "##インド神話##": 13, "伝説": 589, "鳥": 249, "乗り物": 28, "##鷹##": 16, "図柄": 59, "尾": 179, "付け根": 18, "羽毛": 27, "首": 331, "8枚": 37, "翼": 249, "左右": 278, "ずつ": 401, "##独立##": 50, "##1945年##": 413, "##8月17日##": 18, "数字": 283, "表し": 181, "出土": 129, "品": 714, "##金##": 129, "属": 260, "器": 390, "分ける": 73, "色々": 78, "道具": 149, "##石器##": 29, "作っ": 476, "当時": 3828, "のみで": 82, "##竹##": 31, "##木##": 16, "器具": 61, "##旧石器時代##": 9, "##新石器時代##": 7, "巨大": 673, "4つ": 203, "後": 9713, "住ん": 258, "##紀元前1世紀##": 6, "頃": 2344, "来航": 24, "商人": 127, "受けて": 442, "##ヒンドゥー教##": 20, "文化": 771, "取り入れ": 228, "##5世紀##": 15, "王国": 243, "つなぐ": 67, "拠点": 523, "栄え": 90, "大国": 27, "興亡": 20, "##12世紀##": 30, "もたらし": 133, "##イスラム教##": 42, "広まり": 33, "##大航海時代##": 5, "##16世紀##": 44, "利": 53, "##ヨーロッパ##": 388, "##ポルトガル##": 111, "英国": 173, "相次い": 141, "本拠地": 213, "##オランダ東インド会社##": 8, "覇権": 21, "確立": 261, "東": 948, "会社": 1307, "搾取": 14, "続け": 1143, "民衆": 111, "結束": 30, "320": 29, "種族": 154, "まとめ": 311, "共通語": 5, "禁じ": 84, "一切": 285, "集会": 117, "路上": 57, "3人": 545, "禁止": 440, "破る": 67, "処罰": 54, "現地": 303, "##キリスト教##": 152, "改宗": 52, "優遇": 31, "彼ら": 786, "間接": 40, "統治": 212, "経済": 538, "##華僑##": 24, "担わ": 6, "##18世紀##": 68, "支配": 637, "##スマトラ島##": 13, "##1799年##": 14, "解散": 696, "##1800年##": 22, "除く": 531, "全て": 1370, "##ネーデルラント連邦共和国##": 15, "1795年": 6, "フランス軍": 41, "占領": 324, "##ホラント王国##": 5, "1806年": 14, "政体": 11, "変遷": 290, "1811年": 6, "##1815年##": 19, "##ネーデルラント連合王国##": 5, "##1819年##": 6, "上の": 300, "重要性": 77, "着目": 48, "内紛": 40, "乗じ": 57, "##イギリス東インド会社##": 15, "##1824年##": 12, "締結": 261, "##1925年##": 158, "ら": 3054, "発起": 10, "##スラバヤ##": 7, "進出": 532, "過酷": 79, "##植民地##": 56, "支配下": 109, "##20世紀##": 73, "芽生え": 12, "##1908年##": 99, "##5月20日##": 62, "結成": 1111, "協調": 35, "原住民": 28, "地位": 295, "向上": 469, "図る": 172, "取り組ん": 93, "覚醒": 56, "定め": 489, "##1910年代##": 6, "イスラーム": 31, "大規模": 402, "成功": 949, "##インドネシア共産党##": 11, "労働運動": 6, "を通じて": 439, "鋭く": 29, "民族主義": 38, "最高潮": 5, "迎える": 196, "##1927年##": 161, "##スカルノ##": 36, "##インドネシア国民党##": 7, "##1928年##": 150, "掲げ": 194, "祖国": 30, "言語": 423, "高らか": 5, "末": 894, "反乱": 251, "起こし": 518, "弾圧": 53, "非合法": 22, "運動家": 15, "逮捕": 325, "##拷問##": 6, "受け": 2856, "##流刑##": 8, "送る": 190, "以後": 803, "冬の時代": 6, "##第二次世界大戦##": 398, "勃発": 181, "翌年": 607, "本国": 85, "##ナチス・ドイツ##": 56, "##アジア##": 71, "##日中戦争##": 45, "英": 894, "##米##": 122, "厳しい": 148, "態度": 202, "臨む": 37, "対日": 12, "加わっ": 195, "##1941年##": 254, "初め": 230, "想定": 186, "##占領統治##": 9, "始め": 1115, "##大日本帝国陸軍##": 161, "##参謀本部_(日本)##": 50, "班": 197, "設け": 691, "南方": 144, "行政": 260, "3月": 3366, "##南方作戦##": 6, "於け": 49, "る": 398, "要綱": 13, "案": 299, "一連": 184, "作成": 545, "もと": 588, "11月20日": 129, "付け": 812, "実施": 1291, "策定": 125, "治安": 46, "国防": 38, "資源": 178, "作戦": 668, "軍": 1961, "自活": 5, "確保": 380, "置か": 579, "取得": 712, "占領軍": 16, "為": 855, "民生": 11, "及ぼさ": 10, "ざる": 234, "重圧": 6, "之": 577, "しめ": 50, "要求": 435, "目的": 1242, "限度": 51, "止": 28, "したがって": 165, "##日本軍##": 134, "信": 78, "観念": 50, "助長": 22, "如く": 35, "指導": 536, "其の": 44, "過": 47, "早": 61, "誘発": 24, "避": 10, "東亜": 54, "解放": 221, "##スローガン##": 7, "##大東亜共栄圏##": 6, "実現": 531, "本心": 15, "続く": 524, "11月26日": 122, "##大日本帝国海軍##": 131, "担当": 2920, "取り決め": 21, "陸": 78, "協定": 141, "蘭": 58, "うち": 1699, "スマトラ": 6, "ジャワ": 8, "時間": 1390, "12月8日": 122, "午前2時": 14, "15分": 172, "##真珠湾攻撃##": 21, "約": 3372, "##マレー半島##": 6, "上陸": 176, "##太平洋戦争##": 110, "開戦": 93, "緒戦": 22, "圧勝": 42, "翌": 812, "1942年": 96, "1月11日": 142, "##中将##": 47, "##司令官##": 58, "隷下": 58, "部隊": 1035, "##蘭印作戦##": 6, "開始": 3411, "2月14日": 94, "##挺進連隊##": 6, "同地": 73, "##油田##": 5, "地帯": 166, "飛行場": 39, "制圧": 87, "上述": 118, "たる": 256, "大": 2842, "掌握": 75, "達成": 642, "3月1日": 241, "月9": 6, "10日": 144, "現": 2314, "終了": 1737, "側": 2395, "降伏": 185, "ジュン": 24, "ポール": 199, "万歳": 8, "一番": 1041, "よい": 307, "最大限": 26, "歓迎": 45, "迎え": 556, "省": 130, "制度": 740, "廃止": 1848, "踏襲": 78, "王侯": 15, "自治": 96, "認め": 935, "特別市": 5, "なみ": 53, "扱い": 591, "実務": 88, "行政官": 14, "担い": 36, "レベル": 532, "地方行政": 23, "同時に": 1009, "保有": 329, "軟禁": 15, "救出": 175, "協力": 1007, "前面": 113, "立て": 315, "懐疑": 19, "心": 723, "抱い": 166, "強硬": 20, "鑑み": 21, "期待": 349, "賭け": 103, "見よ": 17, "長年": 225, "取りやめ": 32, "##高等教育##": 27, "施し": 114, "官吏": 45, "養成学校": 28, "師範学校": 29, "農林": 54, "商業学校": 60, "##工業##": 43, "医科": 10, "##大学##": 267, "次々": 240, "短期間": 90, "10万人": 33, "エリート": 76, "養成": 148, "1943年": 122, "中盤": 119, "太平洋": 92, "戦局": 23, "悪化": 212, "趨勢": 7, "決定": 1306, "募集": 235, "青年": 357, "高度": 229, "軍事": 207, "教練": 11, "それら": 469, "全": 3265, "将兵": 58, "##郷土防衛義勇軍##": 7, "ペタ": 16, "PETA": 8, "発足": 629, "##士官学校##": 12, "合併": 908, "38": 284, "##将校##": 15, "警察": 256, "隊": 1077, "編成": 875, "期": 1122, "経験": 694, "##インドネシア独立戦争##": 13, "正規": 105, "軍事組織": 11, "果たす": 291, "失敗": 546, "##1944年##": 303, "9月3日": 177, "将来": 239, "##憲法##": 117, "審議": 69, "##8月7日##": 42, "主席": 27, "1回": 927, "会議": 336, "18日": 108, "開催": 1841, "はず": 257, "##8月15日##": 72, "##日本の降伏##": 16, "当局": 120, "準備": 332, "中止": 418, "含む": 1325, "##連合国_(第二次世界大戦)##": 55, "念願": 31, "反故": 9, "恐れ": 270, "17日": 105, "56番": 5, "文": 448, "日付": 83, "##神武天皇即位紀元##": 6, "再": 1013, "乗り出し": 45, "戦う": 403, "余儀なく": 141, "外交交渉": 7, "外交": 110, "派": 514, "闘争": 66, "主導権": 24, "争い": 198, "必ずしも": 159, "足並み": 5, "揃っ": 78, "戦前": 182, "排除": 152, "目指す": 280, "戦意": 21, "高かっ": 66, "正規軍": 19, "各地": 521, "独自": 541, "豊か": 157, "有志": 88, "武装": 183, "潔し": 5, "##軍人##": 78, "武器": 638, "弾薬": 50, "提供": 969, "##銃器##": 5, "##刀剣##": 6, "##棍棒##": 8, "調達": 104, "農村": 81, "撤退": 362, "##ゲリラ##": 17, "戦": 1777, "都市部": 54, "抵抗": 233, "反撃": 116, "主義者": 23, "理念": 96, "共感": 38, "離脱": 304, "立っ": 215, "戦い": 773, "命": 496, "落とし": 169, "しかしながら": 159, "年来": 14, "加担": 29, "銃": 209, "向け": 1303, "他方": 47, "第三国": 8, "派遣": 433, "国際的": 55, "アピール": 85, "ばかり": 352, "仲介": 57, "団": 525, "依頼": 357, "勝利": 981, "尽力": 112, "1947年": 128, "8月1日": 223, "停戦": 14, "平和的": 8, "紛争": 69, "解決": 274, "提示": 165, "4年間": 61, "続き": 267, "非難": 126, "高まっ": 87, "警戒": 124, "圧力": 161, "努力": 150, "##1949年##": 274, "12月": 2011, "無条件": 37, "得る": 485, "資産": 143, "継承": 528, "##国際法##": 34, "正式": 580, "承認": 229, "##ギルダー##": 7, "膨大": 68, "債務": 21, "20億": 13, "同意": 97, "財政": 157, "苦境": 21, "立たさ": 26, "一方的": 64, "破棄": 76, "外国": 207, "強制": 170, "収容": 145, "策": 167, "とり": 133, "国連": 32, "脱退": 299, "深め": 62, "街中": 31, "掲揚": 37, "イベント": 953, "包ま": 54, "恒例": 61, "1950年": 138, "導入": 1050, "##1955年##": 260, "初": 2622, "3月20日": 156, "第2次": 42, "内閣": 121, "##闘争民主党##": 5, "##マシュミ##": 5, "##ナフダトゥル・ウラマー##": 5, "##政党##": 221, "##連立政権##": 22, "入閣": 29, "計画": 1561, "長期": 196, "帰属": 56, "地方自治体": 24, "設置": 2510, "議員選挙": 17, "労働者": 76, "改善": 285, "予算": 190, "収支": 22, "バランス": 142, "調整": 298, "利益": 168, "基づく": 375, "移行": 466, "健全": 20, "民族的": 5, "宗教的": 31, "##イデオロギー##": 24, "多様": 133, "各派": 8, "利害": 25, "難しく": 96, "制は": 8, "##1950年代##": 53, "中央政府": 36, "公然": 25, "英語版": 1942, "分裂": 132, "時期": 1077, "権限": 128, "制約": 111, "克服": 85, "##1959年##": 282, "##7月5日##": 57, "布告": 38, "復帰": 652, "##国民協議会##": 16, "議員": 428, "任命": 263, "制限": 510, "民主主義": 28, "体制": 375, "構想": 249, "激しい": 218, "中部": 175, "北": 1037, "ついに": 171, "全土": 57, "に対し": 1030, "##戒厳令##": 7, "出し": 661, "政治勢力": 6, "台頭": 85, "牽制": 37, "接近": 185, "反目": 5, "利用": 2299, "ながら": 1918, "国政": 38, "自身": 1752, "喧伝": 10, ")」": 254, ")、": 873, "宗教": 177, "##共産主義##": 33, "一致": 204, "団結": 25, "国難": 6, "対処": 91, "##1961年##": 396, "決行": 25, "##1963年##": 345, "5月": 1960, "併合": 97, "反政府勢力": 9, "National": 192, "Committee": 20, "for": 882, "West": 42, "##1965年##": 391, "加盟": 312, "終わり": 203, "告げ": 127, "##インドネシア国軍##": 6, "共産党": 38, "権力闘争": 9, "引き": 112, "事件": 1572, "##スハルト##": 28, "委譲": 32, "帰結": 10, "招い": 93, "今日": 383, "至る": 598, "##1968年##": 383, "就任": 1279, "急進": 38, "路線": 1532, "修正": 221, "##西側諸国##": 17, "修復": 134, "対比": 46, "政権": 288, "新体制": 18, "呼ん": 370, "同様": 1826, "##独裁##": 7, "行使": 99, "建設": 1443, "進め": 520, "30年": 369, "及ぶ": 165, "長期政権": 5, "担っ": 158, "その間": 128, "強引": 79, "##インフラストラクチャー##": 16, "充実": 104, "##工業化##": 5, "通じ": 167, "##1997年##": 860, "端": 203, "発する": 87, "混乱": 253, "なか": 339, "##1998年##": 847, "暴動": 53, "末期": 288, "##インドネシアの副大統領##": 6, "##民主化##": 13, "制する": 9, "実行": 296, "##ゴルカル##": 5, "許さ": 219, "野党": 21, "統一党": 5, "自由": 478, "##1999年##": 852, "6月": 1999, "10月": 2678, "最大": 1070, "団体": 616, "議長": 117, "4代": 80, "選ば": 465, "##2001年##": 1308, "7月": 2019, "信任": 26, "失っ": 294, "解任": 89, "代わっ": 155, "その後": 4105, "##2004年##": 1400, "4月": 3384, "直接選挙": 8, "6代": 59, "60%": 26, "得票": 34, "得て": 118, "再選": 59, "##2014年##": 1389, "任": 139, "##2013年##": 1372, "選挙": 303, "当選": 252, "7代": 51, "歴代": 354, "8月16日": 153, "演説": 108, "県": 712, "遷都": 48, "表明": 311, "法案": 74, "賛成多数": 11, "都市": 991, "作業": 454, "順次": 125, "完了": 336, "予定": 960, "満ち": 63, "端的": 13, "示す": 971, "もたらす": 94, "始まっ": 349, "鍛え上げ": 9, "##6月1日##": 147, "5つ": 131, "徳": 53, "実践": 161, "順序": 75, "語句": 613, "国是": 6, "職場": 35, "研修": 170, "教科": 22, "退陣": 19, "今": 850, "数え": 156, "信仰": 220, "##ヒューマニズム##": 5, "##元首##": 39, "職": 317, "閣僚": 26, "指名": 367, "大臣": 102, "府": 118, "組織": 953, "省庁": 27, "管掌": 9, "海事": 27, "人間": 1262, "五代": 31, "後述": 515, "決議": 92, "選出": 478, "代": 692, "任期": 72, "5年": 686, "1度": 116, "10年": 582, "改正": 378, "法律": 240, "権": 493, "協議": 143, "単独": 393, "大幅": 329, "),": 1894, "英語": 2382, "Peoples": 7, "Council": 24, "定数": 109, "560": 54, "Region": 20, "al": 266, "132": 102, "People": 33, "'": 2954, "s": 1548, "Assembly": 8, "##2002年##": 1071, "##一院制##": 6, "所属": 2293, "各州": 9, "体": 1267, "意思": 165, "最高": 639, "施策": 66, "方針": 325, "一年": 80, "度": 2354, "検討": 380, "罷免": 24, "見直す": 22, "契機": 134, "3年": 1057, "余り": 109, "残し": 512, "改める": 52, "移さ": 81, "保持": 230, "選任": 25, "譲渡": 275, "措置": 156, "合同": 204, "民選": 10, "##2000年##": 1219, "立法": 47, "行政府": 16, "監督": 2938, "具体的": 121, "質問": 171, "上程": 7, "提出": 356, "提案": 402, "明記": 71, "##比例代表制##": 14, "第3次": 15, "第4次": 23, "決まっ": 222, "地方自治": 9, "先述": 87, "司法権": 7, "級": 586, "##裁判所##": 15, "最上位": 29, "統括": 115, "下位": 78, "規範": 39, "政令": 73, "違反": 188, "否": 78, "審査": 195, "司法": 53, "会": 2032, "判事": 61, "候補者": 121, "裁判官": 52, "非行": 17, "勧告": 69, "介入": 101, "タン": 22, "カラ": 11, "）-": 989, "勝ち取り": 6, "当初": 1821, "自主": 72, "積極": 199, "とも": 1387, "駐留": 68, "一貫": 128, "侵攻": 307, "高まる": 48, "1月": 1879, "容認": 43, "機": 2129, "失脚": 59, "2代": 166, "疲弊": 23, "立て直す": 9, "仰い": 8, "##1966年##": 363, "9月": 2398, "##東京##": 372, "集まっ": 165, "援助": 281, "議": 64, "Inter": 64, "Group": 89, "on": 916, "##1967年##": 355, "原": 270, "総": 593, "国土": 92, "面積": 376, "域内": 68, "促進": 174, "目標": 398, "連帯": 23, "旨": 232, "時折": 89, "のぞく": 6, "他国": 71, "招く": 78, "はじめ": 739, "協力関係": 22, "##ベトナム##": 99, "近隣": 171, "良好": 87, "外交関係": 9, "問う": 52, "住民投票": 16, "関係者": 279, "不十分": 63, "要出典": 543, "]、": 94, "##2005年##": 1501, "制裁": 60, "ロシア": 301, "極": 115, "展開": 904, "巡る": 109, "係争": 11, "かかっ": 176, "海域": 126, "改称": 844, "配備": 182, "2020年": 3240, "近海": 70, "漁船": 16, "操業": 52, "抗議": 145, "召還": 6, "1800": 27, "社": 2189, "企業": 953, "事業": 1751, "ブーム": 175, "投資": 101, "学ぶ": 241, "##大相撲##": 46, "##アニメ_(日本のアニメーション作品)##": 87, "メキシコ": 37, "Mexico": 9, "大韓民国": 16, "Korea": 39, "##トルコ##": 79, "Turkey": 5, "Australia": 30, "ヶ国": 45, "パートナーシップ": 18, "該当": 237, "ページ": 4394, "兵力": 132, "##2017年##": 1338, "39": 234, "500人": 71, "30万": 25, "400人": 35, "5000人": 24, "空軍": 64, "100人": 121, "##予備役##": 17, "40万人": 6, "兆": 42, "549": 11, "億": 250, "割合": 145, "以来": 821, "西側": 319, "兵器": 190, "軋轢": 27, "この間": 127, "##ロシア連邦##": 20, "##人工衛星##": 26, "算出": 51, "かつて": 1727, "個数": 32, "誌": 554, "砂": 88, "採掘": 119, "２": 426, "ダース": 9, "小さ": 25, "2016年": 2640, "6月23日": 120, "誌面": 44, "報じ": 158, "当地": 137, "周辺": 931, "##ユーラシアプレート##": 13, "##太平洋プレート##": 9, "##フィリピン海プレート##": 23, "##火山##": 26, "##活火山##": 5, "129": 79, "北部": 557, "有史": 8, "引き起こし": 81, "噴火": 36, "古く": 334, "脅かす": 23, "と共に": 1872, "土壌": 41, "肥沃": 17, "役立っ": 14, "過去": 984, "300年": 22, "15万人": 9, "死者": 143, "最高峰": 49, "m": 2005, "地震": 95, "甚大": 37, "被害": 425, "陸続き": 9, "々": 164, "##熱帯##": 62, "南西": 145, "豊富": 181, "##スラウェシ島##": 11, "旧称": 45, "呼称": 456, "##バリ島##": 7, "観光": 493, "有名": 640, "大半": 294, "徒": 54, "隣": 274, "史上最大": 23, "生息": 362, "##ハルマヘラ島##": 8, "##香辛料##": 6, "産出": 64, "南隣": 10, "西洋": 83, "列強": 17, "収奪": 9, "半分": 261, "##1883年##": 44, "爆発": 260, "中間": 260, "挟ん": 147, "両国": 97, "海上": 117, "国境": 168, "調印": 51, "条約": 123, "林業": 24, "地区": 1443, "国有林": 8, "大気中": 16, "##二酸化炭素##": 24, "担う": 138, "森林": 109, "適切": 865, "管理": 1098, "##地球温暖化##": 28, "防止": 191, "役立つ": 54, "環境問題": 7, "人口密度": 8, "関連": 868, "深刻": 120, "増し": 107, "地方政府": 7, "市": 1004, "便宜上": 46, "4区": 11, "域": 433, "とおり": 270, "33": 343, "下記": 259, "リスト": 278, "名称": 1640, "##Category:インドネシア##": 6, "付き": 439, "〜": 3881, "南": 938, "349": 21, "91": 225, "田園": 32, "行政区": 63, "郡": 385, "区": 520, "村": 1229, "代わり": 567, "##地方分権##": 8, "言え": 240, "力": 1662, "弱く": 74, "進める": 157, "止める": 88, "##2018年##": 1240, "##国内総生産##": 65, "225": 46, "##アメリカ合衆国ドル##": 116, "16位": 34, "一人": 932, "当たり": 179, "871": 5, "平均": 689, "34%": 8, "##世界銀行##": 8, "公表": 305, "1日": 728, "9": 2364, "満": 152, "ベース": 542, "暮らす": 99, "61%": 8, "農村部": 8, "82%": 78, "未満": 232, "27": 530, "25%": 30, "25": 900, "29%": 5, "58": 233, "66%": 8, "53": 282, "65": 226, "24%": 11, "1960年代": 121, "##稲作##": 7, "生産力": 6, "増強": 95, "入れ": 576, "品種改良": 8, "強化": 500, "改良": 339, "品種": 66, "IR": 12, "収量": 6, "つくら": 54, "普及": 412, "栽培": 141, "緑": 281, "改革": 261, "1984年": 577, "コメ": 10, "自給": 6, "##1980年##": 583, "熱": 205, "冷め": 23, "ゆき": 96, "同年代": 20, "輸入": 212, "至っ": 269, "業": 364, "##カカオ##": 6, "##キャベツ##": 11, "##コーヒー豆##": 10, "##サツマイモ##": 5, "##大豆##": 6, "##タバコ##": 17, "##茶##": 164, "##トウモロコシ##": 22, "##パイナップル##": 14, "##バナナ##": 13, "生産量": 39, "##2003年##": 1269, "世界一": 61, "精製": 44, "原料": 112, "1990年代後半": 29, "油": 106, "次いで": 131, "3位": 358, "食用": 110, "洗剤": 12, "シャンプー": 11, "化粧品": 26, "需要": 151, "見込ま": 44, "1990年代": 124, "急激": 125, "抜き": 82, "首位": 53, "倍": 112, "弱": 127, "トン": 273, "生産": 814, "並び": 117, "548": 12, "ヘクタール": 19, "作物": 31, "拡大": 785, "##泥炭##": 5, "湿地": 33, "埋立": 17, "伴う": 402, "火災": 97, "指摘": 637, "囲ま": 153, "水産資源": 6, "##漁業##": 26, "水産加工": 8, "技術": 1108, "物流": 52, "国営": 31, "水産": 51, "##鉱業##": 15, "恵まれ": 116, "##石油##": 102, "##石炭##": 103, "##天然ガス##": 42, "##銅##": 76, "##ニッケル##": 9, "量": 711, "1982年": 500, "ODA": 6, "出力": 463, "51": 280, "キロワット": 6, "アサ": 9, "ハン": 30, "##アルミニウム##": 47, "精錬": 11, "工場": 789, "鉱山": 90, "沖の": 37, "80%": 66, "輸出": 167, "インコ": 7, "伐採": 43, "出資": 185, "森林伐採": 9, "育成": 241, "鉱石": 36, "規制": 238, "緩和": 77, "##LNG##": 10, "液化": 7, "原油": 12, "上回る": 92, "状態": 1540, "輸出国": 7, "機構": 305, "食品": 207, "##織物##": 10, "##パルプ##": 7, "##肥料##": 32, "##パナソニック##": 65, "##オムロン##": 7, "##ブリヂストン##": 29, "日系企業": 6, "子会社": 365, "##合弁事業##": 5, "形態": 413, "主要産業": 8, "##国有化##": 6, "保護": 362, "##1989年##": 594, "戦略的": 32, "産業": 350, "##製鉄##": 14, "##航空機##": 56, "製造": 1124, "手掛ける": 51, "115": 75, "##国営企業##": 5, "スチール": 46, "マン": 238, "銀行": 170, "##株式公開##": 12, "分野": 491, "設ける": 69, "効率化": 34, "図っ": 135, "雇用": 81, "意向": 179, "優先": 223, "##華人##": 61, "癒着": 22, "政府高官": 8, "親族": 87, "##社会問題##": 12, "化し": 194, "##1996年##": 758, "販売": 1487, "巡っ": 95, "##世界貿易機関##": 6, "WTO": 6, "舞台": 738, "国際問題": 7, "混乱状態": 9, "陥り": 41, "合意": 172, "民営化": 40, "小売業": 7, "チャネル": 12, "350万": 7, "零細": 9, "小売": 31, "店": 2053, "％": 266, "程度": 908, "推測": 199, "地元企業": 9, "参入": 112, "商品": 551, "供給": 383, "生活水準": 5, "月額": 22, "式": 1648, "##最低賃金##": 11, "施行": 365, "2015年": 2743, "##インフレーション##": 8, "計算": 354, "上がり": 104, "##タイ王国##": 234, "水準": 87, "##労働組合##": 65, "日系": 12, "人件費": 9, "上昇": 302, "低下": 317, "労使": 6, "双方": 165, "従業員": 133, "##メッカ##": 7, "##ハッジ##": 6, "希望": 275, "休暇": 49, "最長": 105, "3カ月": 15, "出す": 368, "規定": 497, "好調": 52, "##2007年##": 3340, "4%": 43, "6%": 64, "前後": 504, "推移": 154, "##2008年##": 1816, "欧": 27, "経済危機": 7, "伸び悩み": 13, "融": 24, "安定化": 12, "消費": 177, "世界的": 112, "比較的": 404, "安定": 270, "名目": 95, "600": 144, "急": 166, "一角": 105, "なす": 95, "諸国": 211, "更に": 413, "大きい": 392, "赤字": 80, "続い": 636, "従来": 540, "財政赤字": 5, "11月2日": 151, "創出": 33, "オムニバス": 79, "物議": 16, "醸し": 12, "面": 2264, "少なく": 369, "Doing": 7, "Business": 100, "2011": 488, "183": 46, "国中": 21, "順位": 182, "づけ": 35, "悪い": 236, "ランキング": 310, "道路": 917, "鉄道": 1006, "通信": 380, "ハード": 62, "##インフラ##": 11, "ソフト": 568, "行政機関": 27, "判断": 452, "予測": 108, "低く": 153, "透明性": 10, "欠如": 32, "繰り返し": 301, "支援": 745, "統治能力": 6, "ガバナンス": 6, "市民": 407, "プロジェクト": 452, "##交番##": 14, "システム": 1079, "ヒット": 349, "##知的財産##": 8, "総局": 18, "対象": 836, "継続": 453, "##法務省##": 83, "##公益財団法人##": 58, "民": 315, "センター": 1038, "連携": 243, "規則": 213, "##和解##": 6, "人材": 105, "有数": 76, "好景気": 11, "沸い": 8, "7億": 9, "1260": 11, "712": 12, "6000万円": 17, "急増": 69, "色濃く": 18, "投資会社": 7, "株主総会": 8, "同社": 586, "取締役": 160, "経営陣": 27, "追放": 179, "##ロスチャイルド##": 5, "拒否": 288, "経常": 5, "依存": 154, "貧弱": 17, "腐敗": 34, "問題点": 36, "海外進出": 6, "抜い": 59, "1位": 500, "渡航": 40, "人権": 46, "賃": 7, "支払い": 119, "トラブル": 168, "200万人": 25, "増加率": 11, "%": 1026, "今後": 218, "3億": 25, "集中": 280, "希薄": 25, "##Twitter##": 76, "直系": 49, "祖先": 76, "渡来": 17, "先住民": 56, "追わ": 100, "トラ": 50, "ジャ": 38, "子孫": 297, "生存": 123, "製作": 1386, "始める": 398, "大量": 384, "300": 317, "##1726年##": 6, "ねん": 64, "西暦": 66, "火曜日": 135, "始まる": 478, "平年": 5, "##干支##": 16, "##享保##": 60, "11年": 401, "##元号一覧_(中国)##": 45, "##清##": 96, "4年": 858, "##李氏朝鮮##": 33, "2年": 1105, "##檀君紀元##": 5, "7年": 437, "##仏滅紀元##": 5, "##ユダヤ暦##": 5, "##ユリウス暦##": 49, "12月21日": 177, "12月20日": 156, "##2月8日##": 62, "##ロシア帝国##": 160, "]。": 383, "##9月1日##": 180, "##作曲家##": 183, "+": 2240, "##1795年##": 17, "##10月24日##": 46, "##松前藩##": 15, "藩主": 229, "##1765年##": 13, "##年の一覧##": 5, "##年表##": 9, "##年表一覧##": 6, "##アムステルダムの防塞線##": 6, "##アムステルダム##": 106, "ぼう": 35, "##オランダ##": 212, "##世界遺産##": 318, "水利": 19, "防塞": 6, "線": 3125, "42": 279, "##要塞##": 23, "全長": 326, "135": 129, "キロ": 87, "##堤防##": 35, "中心部": 246, "15km": 16, "戦時": 135, "防衛": 301, "低地": 35, "部": 3136, "容易": 278, "水深": 80, "30cm": 16, "ボート": 77, "使え": 143, "配慮": 141, "1km": 46, "以内": 213, "建造物": 95, "可動": 79, "考慮": 247, "木製": 75, "1880年": 34, "1914年": 64, "建造": 351, "完成": 1301, "飛行機": 119, "戦車": 63, "実戦": 79, "投入": 256, "始まり": 295, "成さ": 23, "市議会": 55, "管理下": 24, "史跡": 63, "記念日": 25, "土曜日": 164, "入場無料": 6, "適し": 112, "1996年": 964, "登録": 965, "踏まえ": 74, "登録名": 24, "何": 1077, "ウォーター": 35, "ライン": 272, "」(": 437, "敵": 1185, "攻撃": 1878, "本丸": 67, "いえ": 226, "大通り": 30, "水没": 41, "前進": 92, "妨げる": 18, "横切る": 19, "線路": 196, "そういう": 45, "場所": 1425, "免れる": 22, "1874年": 28, "進歩": 67, "様式": 119, "時代遅れ": 20, "発明": 172, "建材": 26, "石": 784, "##コンクリート##": 39, "転換": 287, "建築": 404, "十分": 298, "ノウハウ": 22, "蓄積": 65, "手": 1325, "入り": 915, "うる": 148, "最": 347, "砲弾": 37, "砲撃": 69, "実験": 353, "挙行": 77, "地盤": 57, "状": 657, "固め": 140, "更": 58, "やっと": 48, "起工": 87, "20年": 491, "1897年": 35, "使わ": 1491, "まま": 914, "##第一次世界大戦##": 178, "航空機": 163, "しまっ": 963, "それでも": 189, "1963年": 205, "手入れ": 19, "損ねる": 6, "にわたって": 266, "なくなっ": 184, "Fort": 39, "bij": 20, "aan": 11, "de": 980, "den": 9, "St": 45, "in": 1755, "##国際連合教育科学文化機関##": 86, "カテゴリー": 58, "線形": 17, "##文化的景観##": 12, "評価": 930, "条件": 688, "満たし": 116, "翻訳": 255, "引用": 209, "期間": 603, "文化圏": 24, "記念碑": 96, "芸術": 277, "都市計画": 76, "景観デザイン": 16, "に関し": 47, "価値": 225, "例証": 29, "建築様式": 35, "建築物": 99, "集積": 92, "景観": 106, "優れ": 341, "伝統的": 77, "集落": 288, "ないし": 151, "際立っ": 33, "もしくは": 488, "不可逆": 11, "危ぶま": 28, "関": 202, "わりあい": 10, "北西部": 98, "##ベームスター##": 7, "1612年": 5, "1617年": 9, "工事": 770, "##干拓##": 11, "元々": 383, "海外": 441, "食糧": 46, "農地": 51, "企図": 43, "風車": 18, "排出": 85, "実際": 1174, "排水": 61, "原因": 567, "牧草地": 6, "転用": 103, "##温室##": 13, "営ま": 22, "耕作": 25, "南東": 145, "画": 354, "分かれる": 86, "五": 858, "区画": 104, "建物": 509, "レイアウト": 27, "整然": 5, "作り出し": 54, "歴史的": 137, "意義": 86, "17世紀": 61, "いま": 138, "保た": 25, "ID": 379, "899": 6, "創造的": 17, "才能": 157, "傑作": 117, "##ヒゲホオジロ##": 5, "cia": 10, "##スズメ目##": 24, "##ホオジロ科##": 17, "鳥類": 100, "Species": 86, "Factsheet": 23, "by": 709, "BirdLife": 34, "International": 313, "##スクワートルスクワート##": 7, "##競走馬##": 241, "おも": 22, "勝ち": 192, "鞍": 38, "##エクリプス賞##": 18, "チャンピオン": 182, "スプリンター": 6, "受賞": 1424, "引退後": 178, "##種牡馬##": 101, "馬": 756, "##ポケットモンスター##": 12, "##キャラクター##": 154, "##4月##": 694, "デビュー": 999, "初戦": 100, "こそ": 340, "4着": 45, "2戦": 49, "目": 2883, "初勝利": 124, "挙げる": 153, "4連勝": 11, "##重賞##": 77, "8戦": 5, "5勝": 37, "成績": 617, "2歳": 60, "シーズン": 1024, "終え": 240, "3歳": 110, "##三冠_(競馬)##": 15, "短距離": 19, "向かい": 158, "##8月##": 190, "##競馬の競走格付け##": 80, "初制覇": 23, "2着": 160, "臨ん": 70, "連覇": 99, "狙う": 111, "7着": 19, "沈む": 28, "逃げる": 58, "交わし": 69, "優勝": 1712, "左前": 11, "脚": 201, "故障": 163, "長期休養": 5, "##9月##": 285, "競走": 208, "引退": 725, "##日本軽種馬協会##": 51, "購買": 28, "供用": 329, "協会": 698, "種馬": 7, "場": 1039, "種付け": 14, "初年度": 38, "##産駒##": 9, "九州": 263, "繋": 23, "養": 48, "優秀": 246, "輩出": 91, "生産者": 19, "要望": 152, "再度": 249, "15": 1318, "世代": 215, "##北九州記念##": 6, "制覇": 94, "本馬": 16, "JRA": 38, "勝ち馬": 28, "平地": 49, "##グレード制##": 5, "記録": 1996, "産": 357, "クロス": 50, "限定": 512, "エフェクト": 66, "2013年": 2668, "2018年": 2716, "##中山大障害##": 7, "5代": 88, "血統": 85, "表": 663, "”.": 8724, "netkeiba": 55, "Net": 47, "Dreamers": 22, "Co": 149, ".,": 512, "Ltd": 124, "..": 173, "2019年": 3917, "11日": 113, "ふるさと": 122, "案内": 477, "所": 1460, "11月8日": 142, "6月13日": 128, "優駿": 37, "中央競馬": 12, "25日": 119, "113": 79, "頁": 4100, "USA": 108, "JBIS": 258, "サーチ": 242, "公益社団法人": 113, "Racing": 50, "Post": 53, "##株式会社##": 876, "##東京都##": 1464, "##千葉県##": 814, "##埼玉県##": 416, "##茨城県##": 516, "##神奈川県##": 481, "##栃木県##": 523, "##群馬県##": 329, "##ディスカウントストア##": 7, "##チェーンストア##": 16, "##首都圏_(日本)##": 31, "食料品": 19, "酒": 211, "ペット": 162, "用品": 46, "衣料品": 9, "総合": 642, "運営": 942, "行なっ": 172, "1998年": 1216, "主力": 207, "大型": 712, "家電": 30, "ブランド": 411, "高額": 81, "取り扱い": 182, "やめ": 111, "消費者": 34, "日常生活": 36, "消耗品": 6, "104": 93, "店舗": 634, "##大阪証券取引所##": 27, "市場": 380, "スタック": 104, "上場": 95, "特色": 49, "①": 20, "重視": 223, "経営": 843, "②": 18, "生産性": 26, "③": 15, "徹底的": 53, "ビジネスモデル": 11, "圏内": 16, "低価格": 43, "お客様": 28, "上げ": 514, "仕組み": 96, "構築": 256, "西多摩": 6, "物流センター": 15, "立ち": 298, "実験的": 21, "自社": 242, "業務": 517, "行い": 732, "改廃": 6, "ダウン": 86, "着手": 178, "新規": 197, "出店": 159, "途中": 750, "主体": 209, "加速": 117, "11月": 1816, "全店舗": 15, "##電子マネー##": 24, "##クレジットカード##": 24, "##Suica##": 116, "##PASMO##": 23, "##JCB##": 6, "##1983年##": 660, "五丁目": 34, "11番": 17, "11号": 52, "##1984年##": 710, "創業": 279, "和光": 8, "昭島": 5, "開店": 244, "##1985年##": 731, "商号": 207, "##1986年##": 634, "本社": 817, "柏": 34, "仕入": 7, "##柏市##": 19, "100％": 28, "スパイラル": 14, "上海": 77, "現地法人": 16, "自動": 204, "補充": 54, "社内": 59, "全店": 24, "部門": 930, "本格": 236, "運用": 703, "取引所": 13, "NEO": 34, "統合": 780, "スタンダード": 76, "【": 1435, "】": 1390, "川口": 57, "芝": 119, "船橋": 41, "藤原": 85, "26": 510, "足立": 38, "八王子": 42, "24": 830, "三郷": 15, "練馬": 15, "狭山": 12, "戸田": 36, "本町": 71, "19": 931, ")【": 56, "閉店": 250, "松戸": 11, "高松": 65, "16": 1118, "川越": 13, "旭町": 8, "青梅": 24, "ヶ": 138, "崎": 99, "千葉": 186, "西町": 19, "浦和": 9, "豊": 132, "四季": 54, "14": 963, "古": 217, "北本": 17, "つくば": 10, "府中": 11, "若松": 20, "土浦": 5, "高津": 12, "大田": 18, "野田": 68, "花井": 7, "花田": 21, "市原": 17, "学園": 231, "成田": 61, "白井": 27, "31": 442, "水戸": 45, "台": 1272, "下館": 7, "岩瀬": 17, "末広": 11, "行方": 81, "富里": 5, "町": 1271, "千代田": 12, "3/3": 12, "0": 5303, "取手": 49, "吉川": 73, "駅前通り": 11, "相模原": 7, "三和": 16, "成城": 7, "桜": 198, "国分寺": 7, "本庄": 9, "壬生": 12, "前橋": 22, "西原": 50, "Official": 177, "Web": 288, "Site": 110, "座標": 249, "北緯": 754, "58分": 23, "45秒": 15, "東経": 745, "20度": 12, "50秒": 5, "﻿": 1304, "49": 237, ";": 1387, "こう": 442, "ポーランド語": 7, "##岩塩##": 17, "##鉱山##": 40, "##クラクフ##": 11, "首都圏": 65, "##13世紀##": 32, "稼働": 93, "コスト": 145, "坑内": 8, "洪水": 44, "危険性": 67, "観光地": 32, "##ポーランド王国##": 24, "##遷都##": 19, "きっかけ": 537, "坑": 30, "深さ": 78, "地下": 376, "327": 13, "##メートル##": 760, "含める": 83, "同じく": 813, "ポーランド": 74, "最大規模": 45, "特筆": 45, "観光客": 98, "坑道": 12, "神話": 111, "モチーフ": 223, "象っ": 11, "彫像": 20, "並ん": 169, "##信仰##": 30, "屈曲": 63, "部屋": 344, "礼拝堂": 11, "展示": 537, "さながら": 18, "そこ": 729, "製": 920, "大聖堂": 30, "ごとき": 6, "呈し": 58, "年間": 647, "訪れる": 156, "長い": 450, "訪れ": 394, "有名人": 56, "##ヨハン・ヴォルフガング・フォン・ゲーテ##": 29, "##イグナツィ・パデレフスキ##": 9, "##ヨハネ・パウロ2世_(ローマ教皇)##": 7, "##ビル・クリントン##": 6, "ドイツ軍": 38, "軍需": 29, "物資": 99, "##1978年##": 456, "最初": 1568, "##危機にさらされている世界遺産##": 17, "換気": 15, "装置": 560, "湿気": 16, "溜まり": 12, "モニュメント": 14, "損ね": 20, "据え付け": 11, "湿度": 13, "除外": 84, "ブリタニカ": 16, "国際大": 14, "事典": 655, "4月28日": 135, "za": 8, "Mine": 17, "Castle": 13, "2nd": 203, "ed": 359, "updated": 11, "and": 2539, "ted": 10, "Sport": 23, "i": 1206, "1987": 195, "83": 198, "637": 12, "Christopher": 21, ",\"": 76, "Review": 88, "1997": 317, "no": 136, "年報": 107, "2007": 724, "日本": 4854, "連盟": 246, "2006年": 2141, "##バン・ダルガン国立公園##": 6, "アル": 66, "ガン": 101, "礁": 8, "##国立公園##": 31, "##モーリタニア##": 11, "西岸": 37, "岬": 50, "12000": 6, "k": 1159, "およそ": 228, "沖合い": 6, "##暖流##": 6, "ぶつかる": 15, "魚": 347, "集まり": 98, "目当て": 21, "##鳥類##": 98, "棲": 13, "##哺乳類##": 33, "集まる": 83, "とりわけ": 91, "公園": 632, "島": 740, "##渡り鳥##": 7, "楽園": 34, "海洋": 123, "多彩": 70, "沿岸部": 40, "陸地": 36, "かなり": 560, "平坦": 56, "地形": 219, "標高": 231, "遠浅": 5, "最深": 22, "気候": 124, "##温帯##": 18, "当たっ": 102, "砂漠": 64, "海風": 5, "冷やさ": 5, "成る": 79, "対照": 57, "降水量": 36, "34": 366, "低い": 416, "##生物地理区##": 20, "##旧北区##": 13, "##エチオピア区##": 7, "近い": 1295, "植物": 388, "草地": 8, "散在": 18, "まばら": 21, "生地": 68, "西アフリカ": 20, "##マングローブ##": 8, "生育": 86, "北限": 15, "迫っ": 77, "湿地帯": 14, "消失": 72, "すら": 200, "懸念": 110, "繁茂": 12, "両面": 47, "凌駕": 21, "繁殖": 215, "越冬": 26, "##国際自然保護連合##": 14, "ところ": 1372, "700万": 10, "羽": 185, "飛来": 62, "そのうち": 100, "300万": 26, "##シベリア##": 41, "見積もら": 15, "100万": 76, "およぶ": 30, "##クロアジサシ##": 11, "筆頭": 111, "##オオフラミンゴ##": 6, "##ハジロコチドリ##": 10, "##オオソリハシシギ##": 10, "##アカアシシギ##": 7, "##コオバシギ##": 11, "##ダイゼン##": 12, "##ヘラサギ##": 6, "##セグロアジサシ##": 13, "移す": 52, "100": 687, "頭": 750, "確認": 808, "全世界": 88, "危惧さ": 8, "##絶滅危惧種##": 13, "##魚類##": 85, "稀少": 7, "仲間": 554, "溢れ": 18, "跡": 559, "近世": 150, "オランダ人": 8, "ポルトガル人": 6, "フランス人": 26, "一帯": 202, "支配権": 28, "統治者": 12, "交代": 221, "バン": 45, "ダル": 22, "浅瀬": 12, "広がっ": 165, "1816年": 9, "フランス": 530, "##フリゲート##": 16, "犠牲者": 76, "だし": 55, "難所": 30, "自然環境": 27, "守ら": 65, "1000人": 34, "先住民族": 8, "イルカ": 10, "習性": 21, "うまく": 91, "伝統": 280, "##ボラ##": 6, "漁": 61, "営ん": 73, "満たす": 149, "適正": 60, "すぐ": 506, "乱獲": 16, "立ち入り": 30, "1976年": 380, "設定": 1557, "##ラムサール条約##": 12, "1986年": 625, "ブラン": 8, "Cap": 5, "湾": 102, "保護区": 23, "Reserve": 7, "la": 235, "du": 174, "Las": 17, "追加": 857, "前出": 21, "生息地": 54, "II": 785, "Ia": 25, "厳正": 8, "保護地域": 7, "1989年": 702, "Park": 39, "Parc": 5, "nation": 35, "フランス語": 129, "日本語訳": 41, "岩礁": 26, "委員会": 585, "普遍的価値": 14, "営巣": 13, "にとって": 667, "大西洋": 23, "岸": 130, "砂丘": 8, "海岸": 202, "島々": 23, "生物多様性": 11, "比類": 6, "自然的": 9, "淡水": 28, "沿岸": 177, "動植物": 30, "群集": 18, "進行": 477, "生態学": 10, "生物学": 76, "プロセス": 175, "見本": 16, "海岸線": 35, "適用": 407, "本来": 557, "保全": 141, "かつ": 528, "意義深い": 10, "含ん": 154, "科学": 464, "すぐれ": 32, "前述": 429, "##世界自然保全モニタリングセンター##": 7, "2012": 485, "1998": 355, "208": 35, "2006": 752, "デルタ": 18, "エビ": 22, "漁業": 53, "50巻": 11, "3号": 201, "92": 174, "監修": 668, "わかる": 236, "##マイナビ##": 25, "343": 25, "PDF": 1694, "147": 71, "中山": 95, "1999": 363, "196": 42, "210": 59, "197": 36, "209": 44, "206": 34, "中川": 84, "##講談社##": 767, "訂": 92, "なるほど": 26, "地図帳": 5, "142": 85, "2013": 585, "##朝日新聞出版##": 255, "2003": 548, "##小学館##": 492, "402": 17, "旅": 506, "2007年": 2451, "288": 22, "知": 68, "帳": 86, "##昭文社##": 14, "158": 49, "改訂版": 124, "シンクタンク": 6, "せとうち": 9, "エジプト": 33, "##近畿日本ツーリスト##": 9, "1989": 176, "Heritage": 18, "No": 124, "Technical": 29, "Evaluation": 6, "Sheet": 17, "野鳥": 26, "同上": 153, "暫定": 90, "記載": 660, "物件": 253, "学名": 110, "striolata": 7, "14cm": 5, "##ラリベラ##": 28, "##エチオピア##": 45, "##凝灰岩##": 5, "作り上げ": 45, "石造": 29, "不明": 903, "王": 1369, "君臨": 27, "聖堂": 62, "救世主": 30, "意": 311, "模": 157, "岩窟": 12, "最古": 150, "マリア": 169, "墓所": 61, "アダム": 48, "墓": 198, "繋がっ": 101, "秀逸": 8, "夢枕": 5, "造る": 32, "命じ": 294, "見る": 610, "##十字架##": 10, "見える": 381, "掘り下げ": 12, "地元": 566, "観光ガイド": 33, "見学者": 7, "語る": 329, "伝承": 219, "往復": 388, "##エルサレム##": 35, "##巡礼##": 12, "建て": 395, "王家": 72, "監獄": 20, "らしい": 387, "王宮": 48, "＝": 1203, "エル": 73, "ガブリエル": 24, "修道院": 62, "11世紀": 23, "洞窟": 74, "ハネ": 9, "教会": 281, "論争": 126, "##ケンブリッジ大学##": 20, "##教授##": 314, "##考古学##": 41, "500年": 21, "遡る": 57, "衰退": 144, "要塞": 98, "宮殿": 80, "切り出さ": 6, "死後": 346, "結びつけ": 23, "史家": 10, "王妃": 178, "夫": 658, "彼": 2312, "記念": 1240, "作家": 489, "助け": 337, "文明": 170, "拠っ": 24, "文化的": 68, "少なくとも": 174, "稀": 171, "証拠": 194, "キリスト教徒": 8, "聖地": 57, "##2020年##": 1351, "政府軍": 12, "TPLF": 5, "主戦場": 14, "遠い": 81, "次第に": 279, "戦線": 99, "南下": 72, "##2021年##": 1373, "戦闘": 816, "遺跡": 209, "無事": 117, "爆撃": 83, "##新建築社##": 9, "NHK": 364, "選": 508, "114": 74, "978": 2797, "／": 3830, "象徴": 183, "不変": 16, "読売新聞": 496, "夕刊": 365, "10月17日": 159, "Medieval": 6, "God": 20, "or": 252, "Anci": 5, "t": 1548, "?\"": 10, "Archaeology": 7, "November": 33, "December": 38, "2004": 554, "Has": 9, "Addis": 11, "Ababa": 10, "1992": 188, "BBC": 59, "8月6日": 102, ").": 11279, "10月13日": 120, "ユネスコ": 8, "山田": 242, "12巻": 44, "1999年": 1100, "12度": 10, "28": 524, "13秒": 7, "世紀": 141, "亘る": 9, "陥落": 139, "街": 642, "名前": 1632, "##1994年##": 739, "##10月11日##": 46, "##5月28日##": 59, "##2015年##": 1589, "##7月1日##": 238, "12世紀": 19, "13世紀": 23, "治世": 70, "この街": 20, "蜂": 17, "名君": 9, "捉え": 95, "ちなん": 191, "人物": 1560, "表す": 446, "地名": 624, "石窟": 5, "若き日": 18, "過ごし": 193, "街並み": 21, "反映": 176, "##1187年##": 6, "首都": 229, "しよう": 182, "##聖書##": 35, "流れる": 334, "川": 510, "ヨーロッパ人": 26, "探検家": 19, "随行": 20, "##司祭##": 9, "フランシスコ": 6, "驚嘆": 7, "書き記し": 13, "威容": 5, "描写": 432, "信じ": 199, "もらえる": 74, "悲観的": 6, "##:it:Giovan_Battista_Ramusio##": 6, "##1550年##": 9, "図面": 9, "付録": 150, "出所": 54, "次に": 137, "仕え": 252, "戦士": 196, "##1544年##": 23, "去っ": 135, "##1865年##": 36, "##1870年##": 48, "にわたり": 163, "途絶える": 9, "12月1日": 230, "奪還": 96, "12日": 101, "取り返し": 5, "空港": 345, "病院": 474, "Francisco": 24, "John": 230, "translated": 6, "C": 1659, "F": 910, "G": 708, "W": 571, "Cambridge": 115, "1961": 66, "226": 35, "add": 17, "an": 197, "app": 6, "dix": 6, "which": 11, "discuss": 5, "526": 18, "De": 54, "os": 11, "is": 277, "R": 1493, ".S": 122, "Wh": 7, "Portuguese": 6, "ion": 41, "to": 960, "Ethiopia": 14, "London": 166, "1902": 9, "94": 179, "98": 212, "Ethiopian": 6, "says": 5, "has": 31, "UN": 15, "Her": 15, "age": 33, "CNN": 27, "12月2日": 121, "AFP": 28, "12月13日": 116, "緑ケ丘": 6, "高等学校": 112, "緑が丘": 17, "みどり": 54, "おか": 114, "うがっ": 31, "##北海道##": 861, "##伊達市_(北海道)##": 12, "公立高等学校": 7, "##横浜市##": 400, "##大分県##": 138, "##大分市##": 68, "小樽": 15, "##小樽市##": 23, "旧名": 44, "##福島県##": 329, "##福島市##": 33, "##愛知県##": 643, "立": 763, "##名古屋市##": 281, "校": 556, "曖昧さ回避": 804, "です": 1453, "水先案内": 726, "一覧": 1458, "ます": 1949, "探し": 930, "選ん": 909, "ください": 385, "リンク": 1654, "見つけ": 837, "たら": 1263, "張り替え": 729, "##トビウオ##": 35, "Flying": 16, "fish": 14, "総称": 196, "##太平洋##": 113, "##インド洋##": 24, "##大西洋##": 54, "##亜熱帯##": 20, "##海##": 66, "##海水魚##": 20, "50種": 10, "近": 113, "30種": 8, "水上": 66, "飛び出し": 65, "胸": 228, "##鰭##": 21, "広げ": 94, "##滑空##": 8, "##九州##": 141, "##日本海##": 76, "アゴ": 16, "別名": 227, "##島根県##": 94, "細い": 62, "筒状": 10, "断面": 66, "##センチメートル##": 173, "色": 961, "背": 155, "腹": 124, "白色": 76, "著しく": 92, "上端": 10, "下端": 11, "伸び": 173, "V": 618, "水面": 55, "滑走": 40, "水中": 123, "推進力": 5, "効率": 140, "伝え": 495, "時には": 102, "広げる": 43, "##グライダー##": 8, "##翼##": 18, "4枚": 88, "表層": 22, "近く": 704, "##プランクトン##": 8, "食べる": 250, "猛": 96, "スピード": 149, "##マグロ##": 25, "##カジキ##": 9, "##シイラ##": 6, "捕食者": 14, "いわ": 575, "くらい": 176, "当たり前": 32, "飛ぶ": 85, "35": 578, "##時速##": 12, "空中": 144, "70": 302, "高さ": 369, "達する": 150, "風上": 5, "向っ": 12, "ｍ": 29, "入る": 748, "かける": 172, "方向": 631, "勢い": 77, "余っ": 11, "##漁船##": 22, "自ら": 1054, "飛び込む": 11, "##日本放送協会##": 1017, "クルー": 47, "##鹿児島県##": 216, "##フェリー##": 100, "時々": 75, "尾びれ": 10, "叩き": 67, "飛び": 61, "続ける": 352, "様子": 441, "撮影": 1017, "映像": 723, "おそらく": 82, "飛翔": 48, "跳躍": 51, "##ハマトビウオ##": 10, "##ホソトビウオ##": 7, ".s": 494, "*": 355, "japonicus": 15, "）*": 14, "##ツクシトビウオ##": 7, "unicolor": 14, "H.": 263, "O": 577, "P": 1334, "E": 1030, "獲": 49, "漂流記": 9, "記述": 784, "昼夜": 22, "##筏##": 6, "乗組員": 80, "ぶつかっ": 21, "来る": 244, "辟易": 7, "美味": 30, "怒り": 143, "忘れ": 197, "しまう": 1373, "話": 1166, "夜間": 146, "落下": 155, "集め": 485, "朝食": 20, "##旬##": 20, "##夏##": 36, "脂肪": 65, "淡白": 9, "味": 232, "成魚": 22, "新鮮": 43, "##刺身##": 24, "##新島##": 5, "##八丈島##": 21, "加工": 191, "##房総半島##": 9, "郷土料理": 10, "材料": 223, "##漁業協同組合##": 7, "漁獲量": 31, "最多": 170, "##屋久島##": 19, "沿岸地域": 11, "鮮魚": 9, "##出汁##": 10, "##竹輪##": 6, "あご": 20, "##鳥取県##": 80, "##兵庫県##": 311, "特産品": 18, "食": 209, "感": 188, "製法": 25, "焼き": 77, "素": 87, "干し": 19, "自体": 581, "破砕": 14, "トビ": 10, "節": 261, "火": 391, "##味噌汁##": 9, "料理": 370, "ダシ": 10, "##山形県##": 172, "天": 346, "日干し": 5, "対岸": 107, "本土": 118, "##酒田市##": 13, "##ラーメン##": 97, "##つゆ##": 6, "食べ": 373, "発祥地": 24, "##長崎県##": 122, "醤油": 22, "調味料": 14, "メーカー": 403, "商品名": 47, "冠し": 83, "めん": 28, "家庭": 261, "飲食店": 74, "浸透": 64, "マスコミ": 87, "PR": 202, "##うどん##": 17, "##平戸市##": 10, "評判": 120, "卵": 252, "珍味": 9, "##寿司##": 25, "ネタ": 350, "刺": 26, "網": 232, "水揚げ": 16, "漁法": 10, "なら": 2065, "皿": 42, "##手裏剣##": 9, "投擲": 20, "落ち": 238, "拾い": 15, "集める": 103, "現代": 746, "ロープ": 62, "隻": 392, "円": 475, "張り": 45, "##漁師##": 16, "飛び込ん": 21, "追い": 46, "入れる": 251, "##カツオ##": 8, "季節": 130, "##回遊##": 8, "##春##": 26, "先": 960, "北上": 59, "産卵": 74, "##秋##": 18, "分布": 495, "異なり": 464, "用途": 228, "違う": 287, "項": 688, "##3月##": 651, "##関東地方##": 87, "出回る": 10, "良く": 267, "晩": 71, "獲る": 8, "##北陸地方##": 32, "アカ": 26, "通称": 639, "本": 2718, "頭部": 223, "体つき": 6, "丸い": 34, "丸": 370, "##西日本##": 35, "角": 283, "愛称": 451, "##トッピー##": 5, "猿": 73, "船": 727, "メシ": 12, ")】": 6, "幸": 101, "船上": 14, "メーン": 5, "え": 565, "ちご": 5, "一心": 15, "技": 623, "##産経新聞##": 140, "6月12日": 112, "さかな": 22, "雑学": 30, "##幻冬舎文庫##": 17, "2002年": 1366, "Fast": 9, "flying": 7, "##BBC##": 31, "News": 189, "5月22日": 118, "食材": 67, "ノート": 119, "収入": 168, "跳ねる": 9, "土産": 32, "##日経MJ##": 12, "5月27日": 143, "フード": 43, "彌": 17, "文化史": 14, "山": 872, "民俗": 49, "小学館": 91, "43": 291, ")”": 142, "23日": 132, "##魚の一覧##": 17, "鰭": 23, "##種子島##": 12, "##航路##": 34, "就航": 167, "##高速船##": 5, "シリーズ": 2797, "キャラクター": 1138, "##ゲベル・バルカル##": 6, "アラビア語": 25, "##スーダン##": 10, "小山": 66, "400km": 8, "にあたり": 113, "沿い": 390, "冒頭": 248, "文字": 590, "ʒ": 27, "紀元前": 47, "1450年": 6, "##エジプト##": 93, "領土": 152, "拡げ": 9, "南限": 11, "ナパタ": 6, "神殿": 70, "ヨーロッパ": 393, "発掘調査": 34, "待つ": 91, "1916年": 44, "##ハーバード大学##": 51, "##ボストン美術館##": 6, "共同": 729, "発掘": 139, "もとで": 98, "1970年代": 103, "責任者": 80, "##ローマ・ラ・サピエンツァ大学##": 5, "Università": 5, "degli": 13, "di": 262, "Roma": 10, "La": 281, "\")": 33, "80年代": 44, "長": 1147, "合流": 332, "世界遺産": 19, "地元民": 12, "神聖": 29, "見なさ": 75, "1073": 17, "001": 133, "121": 70, "ha": 58, "緩衝": 18, "El": 52, "002": 88, "王族": 93, "003": 84, "なし": 649, "004": 87, "市内": 373, "宝物": 54, "意図": 182, "未解明": 7, "005": 72, "4世紀": 20, "世界遺産登録": 10, "普遍": 28, "出来事": 198, "思想": 278, "芸術的": 16, "文学的": 17, "作品": 4430, "直接": 602, "明白": 33, "組み合わせ": 331, "望ましい": 63, "周一郎": 5, "2021": 283, "教育": 684, "寄せて": 12, "フロンティア": 29, "297": 24, "日本語": 1061, "12月22日": 137, "25t": 10, "h": 1563, "Dynasty": 5, "king": 13, "New": 484, "Kingdom": 12, "Temple": 11, "this": 49, "city": 80, "his": 41, "Year": 51, "Victory": 15, "within": 12, "it": 181, "18度": 5, "32分": 41, "31度": 5, "49分": 21, "533度": 5, "817度": 5, "533": 150, "817": 12, "まつ": 101, "たい": 1211, "##元_(王朝)##": 95, "##文人画##": 40, "4人": 417, "共鳴": 35, "江南": 23, "受け継ぎ": 24, "各々": 78, "個性": 109, "画風": 16, "文献": 278, "##明##": 178, "著し": 63, "四": 992, "友": 148, "斎": 64, "叢": 36, "黄": 169, "呉": 48, "大家": 31, "初見": 21, "明": 155, "中期": 214, "##文徴明##": 17, "##文人##": 27, "称揚": 8, "明末": 5, "##董其昌##": 5, "##清朝##": 13, "絶大": 43, "強く": 506, "信奉": 26, "集": 957, "##中央公論社##": 37, "図絵": 5, "無人機": 5, "出身": 2628, "##指揮者##": 124, "職能": 587, "用法": 642, "下さい": 1213, ">": 1377, "##スター・ウォーズ登場人物一覧##": 7, "##ハン・ソロ##": 12, "Han": 6, "Solo": 9, "##SF映画##": 10, "##スター・ウォーズシリーズ##": 5, "相棒": 44, "##チューバッカ##": 8, "密輸": 20, "営む": 67, "無法者": 9, "出会い": 198, "##銀河帝国_(スター・ウォーズ)##": 12, "加わる": 90, "##ジョージ・ルーカス##": 6, "ソロ": 343, "一員": 211, "公益": 21, "尽くす": 36, "一匹狼": 5, "述べ": 697, "##ハリソン・フォード##": 7, "役": 5345, "演じ": 427, "スピンオフ作品": 9, "AFI": 7, "企画": 1290, "14位": 29, "セリフ": 108, "May": 80, "Force": 47, "be": 146, "with": 468, "you": 96, "あら": 60, "ん": 1253, "8位": 83, "ランク": 140, "惑星": 188, "##スター・ウォーズ惑星一覧##": 12, "犯罪組織": 11, "下働き": 5, "逃れる": 42, "帝国": 316, "アカデミー": 78, "門": 410, "叩く": 42, "姓": 314, "家族": 642, "受付": 92, "係": 179, "パイロット": 219, "候補生": 49, "同期": 256, "首席": 88, "異議": 32, "戦場": 144, "送ら": 154, "脱走": 45, "常習犯": 6, "牢獄": 12, "脱出": 270, "強盗": 83, "請け負っ": 22, "仕事": 732, "速い": 74, "##ミレニアム・ファルコン##": 6, "号": 5820, "所持": 168, "引き入れる": 5, "最中": 140, "負傷": 209, "ランド": 117, "操縦": 110, "銀河": 75, "ラン": 49, "―": 1087, "ルート": 446, "通常": 1090, "掛かる": 61, "短縮": 163, "終わら": 43, "カードゲーム": 10, "##スター・ウォーズ世界の用語一覧##": 8, "勝負": 208, "ファルコン": 15, "悪名": 14, "高い": 1336, "犯罪": 151, "生業": 36, "ある時": 76, "輸送": 588, "帝国軍": 23, "検閲": 13, "遭遇": 130, "積み荷": 8, "宇宙": 419, "空間": 353, "投棄": 42, "難": 142, "損害賠償": 28, "ジャバ": 6, "多額": 64, "借金": 90, "途方": 19, "暮れ": 47, "矢先": 17, "酒場": 36, "出会っ": 189, "連れ": 241, "莫大": 49, "報酬": 63, "金": 887, "到着": 380, "##デス・スター##": 15, "牽引": 130, "ビーム": 94, "引っかかっ": 7, "捕まっ": 48, "ワン": 104, "スイッチ": 84, "囚われ": 50, "ルーク": 22, "追撃": 53, "どうにか": 13, "戻り": 188, "基地": 331, "向かう": 441, "受け取っ": 62, "返し": 90, "行く": 518, "早々": 56, "同盟軍": 14, "戦闘機": 133, "無謀": 16, "嘲笑": 12, "失望": 30, "買う": 61, "引き返し": 16, "乗る": 132, "##Xウイング##": 5, "背後": 113, "##TIEファイター##": 22, "死角": 15, "撃墜": 79, "助太刀": 6, "##レイ_(スター・ウォーズ)##": 28, "ア": 66, "勲章": 70, "授与": 203, "返済": 64, "賞金": 104, "しまい": 424, "賞金稼ぎ": 16, "決断": 91, "築か": 86, "秘密基地": 12, "去ろ": 8, "だが": 403, "調子": 51, "悪く": 177, "なかなか": 119, "出発": 208, "襲撃": 292, "逃げ": 114, "間一髪": 7, "修理": 171, "飛行": 338, "追い詰め": 55, "小惑星帯": 6, "逃げ込む": 7, "そこで": 360, "隠し": 204, "体内": 137, "慌て": 28, "抜け出す": 8, "ピンチ": 52, "互い": 85, "気": 467, "一層": 49, "親密": 31, "ゴミ": 42, "奇策": 5, "まんまと": 8, "追っ手": 6, "回避": 196, "旧知": 20, "仲": 232, "頼り": 73, "クラウド": 18, "シティ": 117, "雇わ": 42, "機転": 35, "見逃さ": 6, "秘か": 5, "先回り": 11, "密約": 16, "裏切り": 63, "捕らえ": 140, "カーボン": 9, "凍結": 53, "実験台": 14, "直前": 399, "思い": 378, "確かめ": 21, "合い": 45, "愛してる": 6, "I": 1135, "love": 51, ".)」": 6, "彼女": 1151, "告白": 160, "知っ": 385, "答える": 48, "渡さ": 47, "運ば": 82, "飾ら": 57, "化け": 26, "侵入": 167, "解か": 36, "クリーチャー": 7, "サル": 35, "ラック": 16, "餌": 97, "処刑": 158, "そう": 596, "辛くも": 14, "命拾い": 5, "不意": 18, "突か": 27, "一団": 24, "壊滅": 138, "倒す": 193, "戻っ": 396, "将軍": 478, "託し": 57, "森": 474, "シールド": 66, "リーダー": 283, "撃破": 197, "分から": 105, "メンバー": 1398, "行か": 84, "R2": 23, "3P": 14, "5人": 238, "捜索": 89, "##イウォーク##": 6, "狩猟": 38, "用": 2661, "仕掛け": 183, "罠": 92, "全員": 531, "棲家": 5, "連行": 57, "危うく": 15, "喰わ": 5, "親しく": 61, "現れ": 539, "頼む": 24, "神": 671, "勘違い": 68, "玉座": 10, "見せ": 475, "拘束": 124, "解い": 21, "味方": 155, "につけ": 12, "翌日": 233, "備える": 97, "一行": 86, "さなか": 20, "自分": 1785, "達": 1296, "双子": 135, "兄妹": 58, "明かし": 104, "投降": 31, "戸惑う": 9, "姿": 1238, "真実": 190, "近しい": 12, "疑う": 25, "率いる": 297, "チーム": 2141, "シェルター": 8, "順調": 66, "見え": 321, "実は": 311, "巧み": 65, "##AT-AT##": 5, "取り囲ま": 7, "隠れ": 121, "待機": 60, "集団": 348, "一斉に": 29, "奇襲": 40, "転ずる": 7, "強奪": 39, "兵士": 331, "成し遂げ": 67, "爆破": 70, "光景": 54, "地上": 346, "眺め": 30, "巻き添え": 18, "心配": 128, "きっと": 38, "励まさ": 7, "愛し": 154, "肯定": 53, "帰っ": 163, "引く": 112, "異性": 26, "兄": 741, "改めて": 131, "真相": 123, "キス": 58, "結ば": 164, "息子": 745, "ベン": 63, "儲ける": 8, "祖父": 201, "##ダース・ベイダー##": 11, "傾倒": 31, "二人": 428, "負え": 10, "預け": 70, "ダークサイド": 5, "転向": 162, "弟子": 211, "殺害": 475, "消す": 101, "ショック": 81, "去る": 65, "30年後": 6, "再開": 445, "愛": 633, "見つける": 48, "成り行き": 14, "乗り込ん": 51, "出会う": 127, "助ける": 94, "握る": 47, "##ファースト・オーダー##": 5, "交戦": 80, "駆け付け": 32, "目撃": 113, "救い": 37, "願う": 29, "さえ": 205, "無理": 80, "ぞ": 163, "吐く": 31, "あなた": 231, "父親": 550, "よ": 870, "乗り込む": 30, "援護": 49, "べく": 312, "内部": 494, "爆弾": 180, "仕掛ける": 54, "帰ろ": 21, "語りかける": 9, "説得": 150, "応じ": 389, "見せる": 208, "本当は": 26, "最高指導者": 9, "従っ": 97, "過ぎ": 373, "油断": 17, "貫か": 14, "致命傷": 32, "負い": 39, "振り絞っ": 7, "立つ": 154, "頬": 36, "エネルギー": 428, "コア": 69, "敗れ": 483, "取り残さ": 24, "記憶": 380, "幻影": 42, "現れる": 247, "死": 683, "悲しみ": 57, "揺れ": 38, "一緒": 228, "遅い": 67, "拒絶": 74, "母さん": 25, "志": 118, "生き": 309, "死ん": 243, "いない": 114, "否定": 359, "ライト": 124, "サイド": 99, "帰還": 243, "勇気": 75, "出せ": 50, "励ます": 20, "父さん": 7, "震わせ": 5, "言葉": 870, "無かっ": 211, "笑顔": 80, "てる": 200, "答え": 217, "投げ捨て": 8, "##スター・ウォーズ_エピソード4/新たなる希望##": 7, "経歴": 104, "書か": 550, "小説": 571, "孤児": 38, "育つ": 69, "海賊": 46, "ク": 26, "拾わ": 35, "窃盗": 42, "数々": 195, "仕込ま": 18, "主人": 95, "奴隷": 159, "同然": 46, "母親": 477, "女性": 1693, "おかげ": 63, "辛うじて": 20, "きる": 20, "通う": 155, "忍び込ん": 11, "必死": 52, "勉強": 138, "命令": 403, "出場": 1698, "抜群": 38, "天性": 8, "才": 73, "サーキット": 25, "大いに": 104, "沸か": 6, "19歳": 73, "技量": 23, "赴き": 33, "討伐": 112, "活躍": 1163, "ハット": 16, "所有": 467, "恋": 394, "逆鱗": 11, "触れる": 90, "逃亡": 136, "経由": 807, "入学": 520, "教育課程": 22, "好成績": 54, "修了": 221, "持ち前": 22, "高く": 556, "後に": 151, "愛用": 44, "軍服": 28, "着用": 260, "高級": 155, "将校": 77, "道": 1085, "開け": 102, "軍事法廷": 6, "有罪判決": 26, "剥奪": 57, "除隊": 47, "処分": 244, "借り": 107, "返す": 65, "付き従い": 7, "苦楽": 6, "共に": 436, "兼": 355, "副操縦士": 9, "業者": 146, "4年後": 34, "辞し": 43, "結婚": 1302, "子供": 788, "もうける": 14, "英雄": 141, "題材": 178, "ドラマ": 728, "基づか": 5, "創作": 156, "ストーリー": 385, "本人": 850, "虚像": 9, "嫌っ": 73, "スター・ウォーズ": 15, "草案": 26, "緑色": 115, "肌": 127, "鼻": 106, "エラ": 14, "エイリアン": 14, "オーダー": 45, "スカイ": 51, "面識": 29, "口髭": 10, "生やし": 22, "華麗": 52, "ルーカス": 14, "進展": 92, "助手": 142, "デザイン": 1060, "最終": 580, "稿": 68, "タフ": 19, "##ジェームズ・ディーン##": 6, "スタイル": 427, "皮肉": 50, "屋": 536, "富ん": 30, "冒険": 149, "を通して": 210, "思いやり": 19, "作": 1456, "##アメリカン・グラフィティ##": 5, "キャスト": 195, "起用": 436, "避け": 151, "##ジャック・ニコルソン##": 5, "##シルヴェスター・スタローン##": 7, "挙がっ": 30, "出演者": 350, "オーディション": 158, "相手役": 39, "務め": 1636, "演技": 228, "フォード": 45, "面白い": 63, "キャラ": 357, "けど": 121, "奴": 53, "なれる": 47, "シーク": 9, "探す": 72, "10代": 87, "少年": 477, "キャスティング": 46, "登場シーン": 10, "カット": 199, "映画": 1616, "死ぬ": 163, "殺す": 97, "殺さ": 274, "レン": 36, "後継者": 142, "機会": 285, "貢献": 417, "最終作": 8, "夜明け": 38, "わずか": 390, "役回り": 14, "何故": 30, "ノンクレジット": 36, "俳優": 462, "主役": 137, "無名": 50, "前作": 432, "抜擢": 132, "エピソード4": 12, "特別編": 119, "続": 168, "三部作": 36, "レコード": 240, "##羽佐間道夫##": 8, "劇場公開": 45, "##日本テレビ放送網##": 1062, "##松崎しげる##": 11, "##堀内賢雄##": 12, "##テレビ朝日##": 1121, "エピソード": 328, "##大塚明夫##": 6, "##森川智之##": 7, "声優": 189, "##野沢那智##": 6, "トーク番組": 16, "##ライオンのごきげんよう##": 7, "語っ": 547, "野沢": 22, "スタッフ": 512, "だろ": 329, "台詞": 135, "延々": 10, "ダメ出し": 6, "津嘉山": 5, "やっ": 314, "激怒": 81, "台本": 51, "床": 186, "叩きつけ": 13, "降板": 205, "すなわち": 371, "どちら": 330, "お蔵入り": 11, "音源": 212, "Star": 92, "Wars": 26, "45": 593, "若き": 38, "セレブレーション": 6, "7月18日": 102, "9月19日": 114, "GREATEST": 12, "&": 2656, "8月17日": 232, "S": 1167, "MOVIE": 29, "OF": 187, "ALL": 23, "TIME": 61, "7月15日": 158, "George": 82, "Lucas": 5, "Rough": 8, "draft": 7, "features": 10, "DVD": 467, "THE": 416, "STAR": 39, "From": 91, "Adventures": 12, "Luke": 7, "Script": 9, "Encyclopedia": 59, "5月1日": 226, "Campbell": 5, "Joseph": 42, "Power": 84, "Myth": 9, "159": 49, "85": 187, "複雑": 257, "AOL": 8, "ニュース": 642, "11月14日": 111, "1月24日": 123, "Famous": 6, "Who": 50, "Almost": 6, "Part": 120, "Of": 149, "In": 253, "T": 785, "bon": 5, "e's": 38, "Universe": 11, "Episode": 35, "III": 294, "that": 60, "never": 15, "was": 37, "Anthony": 28, "Abrams": 5, "act": 15, "ew": 9, "article": 518, "2015": 471, "jj": 7, "star": 19, "force": 19, "wiki": 9, "##米倉千尋##": 61, "4th": 83, "シングル": 885, "作詞": 1734, "作曲": 2159, "##都志見隆##": 13, "編曲": 1202, "##OVA##": 114, "##機動戦士ガンダム_第08MS小隊##": 10, "##挿入歌##": 6, "st": 510, "##アルバム##": 378, "##アコースティック##": 5, "収録": 2581, "オリジナル": 2380, "##シングルカット##": 14, "3rd": 121, "##リミックス##": 26, "##ベスト・アルバム##": 38, "##BEST_OF_CHIHIROX##": 17, "私": 889, "##鵜島仁文##": 17, "original": 27, "karaoke": 5, "##坂下町_(愛知県)##": 12, "ちょう": 179, "##町##": 374, "##春日井市##": 38, "北東部": 103, "あたり": 296, "残る": 331, "##1958年##": 280, "##昭和##": 4674, "33年": 85, "##1月1日##": 140, "編入": 413, "坂下": 23, "##尾張藩##": 33, "初代": 825, "##藩主##": 37, "##徳川義直##": 11, "同所": 35, "たびたび": 124, "##鷹狩##": 10, "迷惑": 43, "礼": 59, "限っ": 53, "恩恵": 18, "書状": 77, "書い": 411, "橋": 707, "名残": 85, "##1906年##": 92, "##明治##": 1795, "39年": 98, "##7月17日##": 51, "##11月1日##": 216, "小学校": 538, "編纂": 235, "1940年": 114, "米軍": 100, "20年代": 8, "空中写真": 33, "総務部": 46, "統計": 1672, "課": 649, "1951年": 110, "刊行": 597, "##文化遺産_(世界遺産)##": 26, "特質": 26, "##自然遺産_(世界遺産)##": 23, "##複合遺産_(世界遺産)##": 13, "会合": 104, "件": 323, "##世界遺産条約##": 7, "記念物": 16, "1条": 43, "##彫刻##": 27, "##絵画##": 25, "構造物": 41, "並びに": 98, "組合せ": 14, "又は": 255, "学術": 95, "##ドイツ##": 749, "普通": 640, "group": 27, "連続": 751, "均質": 11, "##景観##": 26, "町並み": 31, "まとまっ": 36, "カテゴライズ": 9, "##遺跡##": 78, "site": 80, "人工": 100, "結合": 234, "区域": 333, "民俗学": 17, "タンザニア": 10, "農業": 233, "指し示す": 6, "訳し": 21, "専門家": 97, "1992年": 730, "履行": 16, "指針": 44, "盛り込ま": 49, "類": 727, "照らし": 26, "##世界遺産委員会##": 6, "先立ち": 25, "ふさわしい": 41, "ひとつだけ": 5, "例示": 18, "##カンボジア##": 11, "創造": 133, "発揮": 253, "帰": 36, "もちろん": 109, "制作": 2178, "定か": 62, "##ロシア##": 459, "##ルーマニア##": 26, "##アルメニア##": 14, "##チリ##": 57, "要衝": 36, "寄与": 80, "##カザフスタン##": 19, "##ノルウェー##": 102, "##アルジェリア##": 57, "化石": 55, "##ペルー##": 42, "##南アフリカ共和国##": 38, "##スロバキア##": 13, "##フィンランド##": 95, "##オマーン##": 7, "##キューバ##": 75, "##ブラジル##": 207, "##アルゼンチン##": 108, "##リトアニア##": 73, "##アンドラ##": 8, "##ハンガリー##": 30, "##ガーナ##": 6, "##セネガル##": 11, "遺産": 88, "ブルガリア": 12, "に当たって": 56, "4項目": 6, "##泰山##": 24, "##イタリア##": 714, "3件": 15, "均衡": 20, "信用": 70, "グローバル": 45, "偏り": 27, "是正": 23, "必要性": 101, "営み": 20, "結びつい": 32, "##ナイジェリア##": 11, "##イラン##": 259, "##メキシコ##": 168, "##産業##": 28, "何らかの": 165, "一様": 16, "重複": 200, "##石見銀山##": 5, "建築家": 41, "##チェコ##": 59, "邸宅": 55, "集合住宅": 7, "##ベネズエラ##": 39, "関連施設": 24, "##ル・コルビュジエ##": 6, "Cultural": 18, "Road": 40, "##紀伊山地の霊場と参詣道##": 5, "##運河##": 49, "##オーストリア##": 117, "##鉄道##": 292, "路": 292, "##姫路城##": 11, "##平泉##": 6, "##首里城##": 11, "##万里の長城##": 6, "##テオティワカン##": 6, "工作物": 5, "訳さ": 47, "検定": 42, "事務局": 124, "古田": 25, "2014": 441, "36": 338, "従う": 82, "UNESCO": 16, "Centre": 18, "List": 92, "に際し": 107, "適宜": 16, "ウィキペディア": 19, "貼っ": 26, "稲葉": 37, "2016": 452, "37": 273, "Industrial": 11, "美術館": 127, "##YOMIURI_ONLINE##": 9, "7月17日": 138, "上野": 87, "魅力": 160, "？”.": 61, "##東京藝術大学##": 20, "信子": 28, "未来": 250, "2号": 335, "〈": 2534, "〉": 2514, "ガイド": 259, "三浦": 81, "智子": 45, "ともこ": 9, "##8月27日##": 46, "##女性##": 169, "##声優##": 966, "身長": 420, "157": 56, "##ぷろだくしょんバオバブ##": 11, "太字": 166, "メインキャラクター": 44, "宮坂": 6, "瑠璃": 12, "つばさ": 26, "ガッツ": 62, "女の子": 183, "マミー": 5, "子": 1271, "ネズミ": 45, "2001年": 1305, "千歳": 30, "赤木": 9, "##炎の蜃気楼##": 6, "マリー": 80, "ローズ": 48, "田中": 349, "##ヴァイスクロイツ##": 5, "Dramatic": 9, "Collection": 42, "Holy": 6, "Children": 13, "##松田聖子##": 35, "※": 2822, "フジテレビ": 172, "グレース": 16, "マーティン": 10, "幼少期": 95, "ジョーイ": 10, "ジル": 39, "サマー": 37, "ルーシー": 14, "･": 420, "パイロット版": 7, "##マイティ・モーフィン・パワーレンジャー##": 36, "ローレン": 16, "ジャー": 20, "2代目": 266, "スカル": 15, "ミン": 14, "ギター": 184, "フライ": 30, "ガール": 48, "テレビ": 1006, "第64話": 7, "ドクター": 36, "ベル": 50, "プロフィール": 553, "1月29日": 110, "##インターネットアーカイブ##": 126, "##三浦智子##": 9, "6月15日": 123, "メディア": 375, "データベース": 299, "12月18日": 138, "ウェイバックマシン": 505, "Movie": 69, "Walker": 51, "allcinema": 261, "IUCN": 93, "自然保護": 15, "詳しく": 130, "直後": 581, "##マダガスカル##": 14, "原生": 8, "国立公園": 18, "##イエローストーン国立公園##": 5, "天然記念物": 29, "##中国##": 653, "IV": 174, "VI": 52, "##タンザニア##": 13, "##三江併流##": 5, "割り当て": 124, "割り当てる": 19, "ひときわ": 11, "美": 264, "美的": 10, "もつ": 310, "自然現象": 15, "##ネパール##": 21, "適用基準": 6, "段階": 419, "地学": 22, "過程": 259, "地理的": 39, "生成": 251, "##ソロモン諸島##": 24, "生態系": 20, "##コンゴ民主共和国##": 14, "##バイカル湖##": 7, "##並河駅##": 11, "##京都府##": 208, "##亀岡市##": 9, "二丁目": 153, "##西日本旅客鉄道##": 384, "JR西日本": 156, "##山陰本線##": 30, "##鉄道駅##": 6188, "番号": 800, "JR": 988, "E1": 48, "##嵯峨野線##": 14, "区間": 1017, "##1935年##": 155, "##7月20日##": 79, "##鉄道省##": 119, "##亀岡駅##": 17, "##八木駅##": 17, "##千代川駅##": 9, "新設": 591, "開業": 1377, "##京都駅##": 188, "##福知山駅##": 11, "##大阪駅##": 44, "発着": 454, "旅客": 296, "取扱い": 64, "24年": 262, "##10月15日##": 70, "同日": 281, "並河": 5, "営業キロ": 9, "3km": 29, "2.0": 110, "km": 328, "##チッキ##": 105, "取扱": 189, "撤廃": 65, "##1971年##": 522, "46年": 76, "##12月1日##": 225, "##無人駅##": 232, "##1987年##": 685, "62年": 243, "##4月1日##": 1089, "##国鉄分割民営化##": 180, "##1988年##": 571, "63年": 78, "##3月13日##": 51, "##平成##": 4406, "元年": 743, "##3月5日##": 49, "寄り": 145, "200メートル": 13, "拡張": 371, "棒線": 9, "普通列車": 31, "帯": 326, "通過": 476, "列車": 771, "##吉富駅_(京都府)##": 8, "舎": 735, "跡地": 240, "歴史公園": 7, "##国鉄DD51形ディーゼル機関車##": 6, "##新幹線0系電車##": 6, "1003": 7, "先頭車両": 8, "運転": 607, "ボディ": 132, "15年": 479, "##ICカード##": 156, "##ICOCA##": 163, "21年": 318, "##9月6日##": 35, "当": 1457, "複線化": 37, "##10月17日##": 51, "##跨線橋##": 88, "エレベーター": 61, "交換": 439, "設備": 427, "##3月17日##": 108, "##駅ナンバリング##": 101, "##相対式ホーム##": 75, "##地上駅##": 211, "##分岐器##": 39, "##日本の鉄道信号##": 23, "##停車場##": 98, "2番": 407, "のり": 328, "1番": 409, "##園部駅##": 11, "連絡": 466, "ホーム": 974, "##JR西日本交通サービス##": 25, "受託": 145, "##日本の鉄道駅##": 164, "早朝": 96, "深夜": 288, "無人": 111, "終日": 62, "員": 595, "利用可能": 115, "地下通路": 17, "結ん": 299, "上表": 9, "路線名": 55, "複線": 41, "本線": 123, "##一線スルー##": 15, "行違い": 11, "停車": 615, "上下線": 38, "通っ": 294, "令和元年": 99, "乗車": 1155, "人員": 1056, "閑散": 7, "高速化": 13, "##ベッドタウン##": 15, "につれ": 56, "利用客": 46, "##国道9号##": 8, "##山陰道##": 5, "900m": 8, "大井": 37, "##エディオン##": 20, "##イエローハット##": 6, "支店": 436, "##簡易郵便局##": 6, "石野": 150, "哲": 204, "停車場": 193, "国鉄": 465, "Ⅱ": 225, "##JTB##": 173, "02980": 132, "##内閣_(日本)##": 19, "##国立印刷局##": 19, "1935": 30, "07": 478, "告示": 321, "266": 28, "##官報##": 83, "国立国会図書館": 328, "デジタル": 499, "コレクション": 476, "https": 2958, "://": 2972, "dl": 84, "ndl": 93, "go": 273, ".jp": 1240, "info": 147, "ndljp": 74, "##大蔵省##": 46, "1917": 14, "##日本国有鉄道##": 407, "公示": 85, "131": 86, "462": 13, "通報": 121, "●": 166, "無": 425, "局": 1206, "##鉄道公報##": 64, "総裁": 137, "室": 1063, "年表": 124, "気動車": 19, "客車": 79, "89年": 6, "ジェー・アール・アール": 11, "144": 82, "88283": 6, "車いす": 12, "円滑": 47, "バリアフリー": 59, "スロープ": 31, "##京都新聞##": 67, "10月3日": 163, "朝刊": 597, "■": 589, "快速": 143, "E13": 6, "##日本の鉄道駅一覧##": 258, "｜": 1056, "JRおでかけネット": 86, "言い換えれ": 12, "ともに": 213, "認定": 487, "とどまる": 27, "側面": 281, "括弧": 184, "示し": 480, "ふ": 191, "りつ": 105, "しょうがっこう": 61, "##船橋市##": 138, "公立": 111, "##小学校##": 278, "##明治5年##": 8, "11月18日": 104, "開校": 233, "##1872年##": 83, "##寺子屋##": 5, "私塾": 6, "令": 167, "でる": 23, "宗派": 19, "寺院": 220, "仮": 200, "校舎": 279, "教員": 192, "生徒": 507, "1873年": 28, "九": 453, "分校": 73, "##船橋市立宮本小学校##": 6, "海神": 15, "寺": 337, "##船橋市立海神小学校##": 6, "九日市": 5, "つくる": 63, "1875年": 31, "小学": 35, "1883年": 24, "##1885年##": 48, "本校": 38, "1887年": 28, "尋常": 44, "1892年": 22, "##高等小学校##": 13, "併設": 256, "1910年": 35, "分教場": 12, "廃校": 44, "分離独立": 22, "1941年": 109, "国民学校": 12, "高等科": 12, "創設": 418, "1970年": 459, "##総武本線##": 24, "##船橋駅##": 17, "下車": 276, "徒歩": 553, "8分": 99, "##京成本線##": 17, "##千葉県小学校一覧##": 11, "公式ホームページ": 170, "Head": 32, "Sector": 6, "ヘッド": 108, "セクタ": 7, "##フロッピーディスク##": 38, "同心円": 13, "トラック": 181, "記録媒体": 6, "アクセス": 283, "絶対": 173, "FD": 13, "表面": 263, "タ": 12, "H": 637, "良い": 441, "方式": 730, "容量": 141, "内側": 147, "外側": 151, "理由": 1088, "適当": 63, "値": 666, "アドレス": 47, "薄れ": 25, "先頭": 80, "番目": 65, "便利": 99, "##Small_Computer_System_Interface##": 15, "##Advanced_Technology_Attachment##": 13, "一丁目": 199, "10月15日": 169, "程": 210, "→": 3650, "7km": 26, "0km": 12, "簡易": 169, "型": 2235, "##自動改札機##": 64, "##交換設備##": 5, "##令和##": 333, "##2月11日##": 62, "東口": 300, "##駅舎##": 57, "下り": 267, "本屋": 33, "西口": 173, "方面": 1177, "行き": 679, "改装": 191, "木造": 141, "残さ": 273, "小型": 332, "物置": 6, "流用": 134, "極めて": 283, "掲出": 7, "小さい": 253, "券売機": 21, "脇": 128, "掲示": 42, "有人": 53, "西南西": 12, "東北": 254, "東側": 296, "改札口": 102, "ロータリー": 129, "周囲": 448, "住宅地": 114, "少し": 339, "沿道": 40, "商業施設": 87, "建ち並ん": 5, "南口": 212, "構内": 284, "植樹": 33, "##大阪府##": 450, "通勤": 98, "客": 408, "学生": 375, "朝夕": 48, "賑わう": 25, "4月2日": 183, "改築": 152, "休日": 167, "##桂川_(淀川水系)##": 50, "河川敷": 18, "利用者": 194, "全国的": 64, "市営": 33, "自動車教習所": 12, "閉校": 60, "左岸": 59, "大納言": 8, "丹波": 19, "篠": 7, "ファーム": 41, "渡り": 221, "自転車": 100, "##国分寺##": 6, "5分": 201, "城門": 33, "移設": 78, "日本国有鉄道": 18, "2月12日": 104, "Charles": 66, "Robinson": 11, "1822": 10, "886": 6, "##政治家##": 168, "ca": 53, "1900": 26, "議会": 329, "1945": 42, "021": 23, "##俳優##": 728, "1964": 93, "-)": 46, "レフェリー": 29, "WWE": 17, "Wesley": 24, "Robins": 12, "1919": 15, "014": 65, "Lawrence": 16, "1818": 11, "894": 7, "人名": 389, "同名": 259, "##1919年##": 212, "##9月7日##": 28, "##実業家##": 81, "鉱業": 40, "海運": 37, "投機": 7, "数多く": 207, "ロビンソン": 39, "##カリフォルニア州##": 175, "##ロングビーチ_(カリフォルニア州)##": 13, "農場": 93, "幼少時代": 11, "##カリフォルニア大学バークレー校##": 21, "学び": 177, "優等": 5, "経済学": 56, "学位": 58, "##海軍兵学校_(アメリカ合衆国)##": 16, "技師": 66, "##1942年##": 205, "##5月##": 196, "講師": 288, "1年": 440, "重巡洋艦": 8, "配属": 137, "士官": 71, "港湾都市": 8, "従事": 186, "##6月##": 269, "##ノルマンディー上陸作戦##": 8, "大尉": 68, "砲": 191, "兵隊": 41, "##沖縄戦##": 16, "終戦": 150, "##1946年##": 261, "##2月##": 310, "海軍": 434, "退役": 120, "帰郷": 46, "暮らし": 299, "##1947年##": 306, "##スタンフォード大学##": 25, "幹部": 261, "プラント": 32, "新車": 32, "香り": 58, "噴霧器": 7, "特許": 105, "社長": 912, "##1950年##": 263, "赴い": 40, "##1951年##": 268, "材木": 37, "開拓": 112, "##パナマ##": 14, "##1952年##": 242, "融資": 43, "鉄鋼": 31, "##1974年##": 508, "##1976年##": 426, "ソビエト連邦": 17, "穀物": 30, "取引": 193, "##ニューメキシコ州##": 9, "にて": 2692, "死去": 1110, "##F-86_(戦闘機)##": 118, "##セイバー##": 29, "F-35": 5, "NA": 39, "52": 289, "号機": 83, "##戦闘機##": 138, "製造者": 44, "##ノースアメリカン##": 6, "##ライセンス生産##": 14, "##カナディア##": 6, "CL": 39, "##コモンウェルス・エアクラフト##": 5, "CA": 48, "#": 1227, "経緯": 272, "##アメリカ空軍##": 77, "##アメリカ海軍##": 169, "##航空自衛隊##": 83, "台湾": 113, "パキスタン": 12, "ユーゴスラビア": 7, "##10月1日##": 421, "860": 9, "##1993年##": 715, "##ボリビア##": 29, "457": 10, "表示": 902, "North": 64, "American": 215, "##ジェット機##": 17, "##愛称##": 47, "重き": 18, "急い": 24, "##朝鮮戦争##": 55, "平凡": 33, "##空対空ミサイル##": 10, "##サイドワインダー_(ミサイル)##": 11, "有効": 242, "実証": 46, "派生": 144, "対抗": 285, "##FJ-1_(航空機)##": 6, "発注": 64, "##P-51_(航空機)##": 8, "主翼": 70, "尾翼": 22, "胴体": 100, "エンジン": 428, "搭載": 930, "機体": 541, "##アメリカ陸軍航空軍##": 5, "5月23日": 139, "XP": 18, "そんな": 215, "ノース": 20, "アメリカン": 45, "前月": 7, "##翼平面形##": 9, "レポート": 139, "先進的": 8, "データ": 939, "基": 260, "開発中": 12, "高速": 347, "装備": 837, "許可": 374, "##アメリカ陸軍##": 85, "了承": 27, "代え": 23, "試作": 175, "終結": 170, "間に合わ": 32, "大戦": 80, "2年後": 89, "予想": 195, "性能": 367, "実用": 159, "実用化": 31, "1948年": 127, "量産型": 9, "A型": 116, "緩": 9, "降下": 33, "世界最高": 23, "樹立": 100, "伴っ": 203, "命名": 401, "陸軍": 247, "航": 62, "頭文字": 87, "振ら": 32, "##鹵獲##": 5, "##ドイツ軍##": 49, "参考": 221, "低": 272, "35度": 97, "縁": 318, "##高揚力装置##": 5, "垂直尾翼": 11, "後方": 144, "両側": 77, "横方向": 9, "エアー": 46, "ブレーキ": 67, "先端": 155, "前方": 122, "アンテナ": 50, "コックピット": 22, "形状": 349, "涙": 212, "滴": 23, "360度": 16, "視界": 61, "空戦": 20, "座席": 89, "空気": 194, "ノズル": 10, "末端": 26, "緊急": 111, "機内": 17, "燃料": 234, "弁": 126, "取付け": 8, "空力": 11, "遊": 82, "動": 107, "増す": 45, "失速": 32, "やすく": 188, "着陸": 81, "上面": 26, "流れ": 628, "制御": 351, "遅らせる": 10, "2種": 76, "機銃": 37, "計": 488, "バッチ": 8, "##レーダー##": 55, "照準器": 7, "##射撃管制装置##": 8, "機首": 26, "測距": 7, "発射": 517, "測定": 182, "計算機": 11, "大気": 58, "密度": 68, "風速": 9, "照準": 37, "射撃": 87, "精度": 94, "飛躍": 51, "##爆弾##": 36, "##ロケット弾##": 8, "携行": 20, "APG": 13, "A-1": 22, "CM": 526, "MA": 93, "火器": 16, "管制": 33, "中核": 106, "皮切り": 76, "防空": 28, "任務": 339, "就い": 113, "##金日成##": 7, "##朝鮮人民軍##": 8, "航空": 253, "##艦載機##": 20, "レシプロ": 10, "参戦": 485, "##ソビエト連邦##": 370, "貸与": 27, "##中国人民解放軍##": 22, "##鴨緑江##": 15, "越え": 185, "きれ": 95, "前線": 68, "##朝鮮半島##": 127, "上空": 108, "史上初": 143, "空中戦": 12, "繰り広げ": 126, "劣っ": 29, "休戦": 37, "2年間": 107, "損失": 65, "78": 196, "800": 119, "戦果": 43, "ソ連": 137, "士": 306, "比べる": 91, "敵機": 27, "早く": 215, "決定的": 65, "操縦士": 7, "意思決定": 15, "結論づけ": 11, "後押し": 57, "初めて": 1116, "##9月24日##": 57, "##中国人民解放軍空軍##": 7, "供与": 43, "人民解放軍": 7, "訓": 62, "超音速": 5, "陳腐": 10, "世界各国": 76, "同盟国": 19, "国外": 112, "換装": 56, "施さ": 135, "別に": 177, "##1960年代##": 85, "後継": 260, "新鋭機": 12, "旧式": 29, "##1980年代##": 165, "概ね": 117, "払い下げ": 39, "アクロ": 6, "先駆け": 96, "突破": 210, "信憑性": 25, "J": 829, "47": 305, "GE": 15, "推力": 55, "N": 830, "サブ": 228, "554": 14, "D": 947, "##偵察機##": 18, "K": 491, "L": 1191, "空": 379, "対空": 45, "95": 203, "ドーム": 41, "外見": 218, "ドッグ": 7, "水平": 94, "456": 12, "E-1": 16, "E-5": 14, "239": 27, "##F-1_(航空機)##": 16, "F-2": 9, "##F-15_(戦闘機)##": 10, "F-4": 102, "試験": 342, "箇所": 268, "増設": 148, "6インチ": 10, "3インチ": 7, "延長": 569, "板": 357, "取り付け": 168, "最高速度": 52, "運動性": 18, "##核爆弾##": 13, "能力": 1045, "純粋": 140, "低速": 24, "12インチ": 11, "相当": 548, "改修": 254, "Q": 316, "返却": 31, "標的": 64, "改造": 465, "仕様": 493, "複": 48, "座": 254, "##練習機##": 10, "高性能": 69, "高等": 109, "不採用": 33, "投下": 34, "##戦闘爆撃機##": 5, "473": 6, "41": 263, "燃料タンク": 23, "太く": 30, "##イノシシ##": 6, "×": 1165, "タイヤ": 57, "188": 48, "口": 685, "移し": 147, "815": 6, "M": 1257, "k.": 71, "290": 48, "購入": 602, "イギリス": 447, "438": 15, "余剰": 23, "売却": 319, "370": 18, "買い取ら": 6, "32": 450, "655": 15, "エイヴォン": 29, "Avon": 10, "112": 82, "kN": 25, "69": 166, "限ら": 321, "##航空母艦##": 93, "格納庫": 23, "##飛行甲板##": 5, "駐": 71, "折り畳み": 7, "着": 320, "艦": 555, "先立っ": 34, "素晴らしい": 43, "20mm": 15, "##機関砲##": 9, "FJ": 15, "海兵隊": 23, "203": 53, "538": 14, "741": 9, "改": 80, "##FJ-4_(航空機)##": 5, "##1962年##": 301, "制式": 49, "型式": 47, "ターボ": 14, "空母": 111, "レドーム": 7, "付与": 102, "3M": 9, "##レギュラス_(ミサイル)##": 15, "誘導": 137, "D2": 44, "##アメリカ海兵隊##": 19, "更新": 392, "##爆撃機##": 109, "核攻撃": 8, "ミサイル": 138, "対": 1188, "##ドッグファイト##": 6, "アルゼンチン": 23, "##1960年##": 255, "##フォークランド紛争##": 5, "予備": 125, "現役": 302, "繋ぎ": 23, "428": 7, "フィリピン": 53, "イラク": 27, "イラン": 18, "インドネシア": 29, "##1973年##": 490, "中古": 41, "無償提供": 5, "エチオピア": 11, "韓国": 411, "122": 76, "ギリシャ": 27, "コロンビア": 18, "サウジアラビア": 9, "スペイン": 91, "270": 31, "##1972年##": 508, "タイ": 164, "##1977年##": 424, "##1969年##": 516, "デンマーク": 37, "飛行隊": 20, "トルコ": 39, "ノルウェー": 31, "##1957年##": 194, "ハンター": 149, "出撃": 100, "転売": 25, "戦力": 115, "努め": 83, "不能": 146, "バングラデシュ": 8, "旧ソ連": 13, "ビルマ": 19, "資金": 241, "スペア": 5, "パーツ": 266, "不足": 253, "前半": 297, "ベネズエラ": 10, "ペルー": 14, "ベルギー": 23, "ポルトガル": 31, "ホンジュラス": 5, "マレーシア": 17, "戦後": 516, "##社会主義##": 64, "軍備": 28, "米英": 5, "米": 481, "84": 156, "##T-33_(航空機)##": 5, "米国": 337, "435": 12, "全天候型": 5, "##ブルーインパルス##": 6, "##国立霞ヶ丘競技場陸上競技場##": 12, "大空": 12, "五色": 14, "描い": 551, "亘っ": 15, "親しま": 85, "##1954年##": 255, "MD": 27, "AP": 84, "##輸送機##": 43, "第1次": 41, "組み立て": 63, "極東": 76, "資本主義": 21, "最先端": 28, "共産": 13, "国産化": 8, "79": 186, "価格": 261, "1億": 91, "5000万円": 30, "7億円": 8, "防衛庁": 27, "割り振ら": 23, "年度": 405, "頼る": 32, "手渡さ": 9, "##3月11日##": 59, "スタート": 467, "1号": 471, "8月9日": 125, "120": 162, "揃う": 19, "処置": 48, "アメリカ軍": 41, "陣": 245, "引き渡さ": 33, "171": 64, "ちなみに": 306, "規格": 192, "多かっ": 373, "3種": 50, "29年": 270, "/-": 21, "152": 57, "180": 73, "小麦": 12, "財源": 16, "32年": 65, "##三菱重工業##": 33, "部品": 184, "国産": 65, "無償": 71, "36年": 126, "総勢": 27, "480": 26, "増やし": 83, "追いつか": 16, "木更津": 40, "格納": 68, "無駄": 29, "37年": 82, "1964年": 234, "返還": 112, "空自": 8, "三菱": 66, "に際して": 162, "##浜松基地##": 5, "航空団": 21, "機運": 21, "31年": 150, "1月10日": 106, "訓練": 426, "新編": 99, "8月24日": 107, "移駐": 6, "引き渡し": 39, "##第8飛行隊_(航空自衛隊)##": 5, "1968年": 322, "43年": 95, "##F-104_(戦闘機)##": 7, "##11月6日##": 43, "1953年": 157, "遡り": 10, "立川": 49, "##兵站##": 6, "勤務": 373, "ヘイ": 14, "欲": 50, "設計図": 16, "もたらさ": 61, "資金面": 11, "新造": 36, "小牧": 21, "教材": 43, "銃口": 16, "##機関銃##": 15, "撤去": 260, "威嚇": 22, "ダミー": 9, "カメラ": 202, "焦点": 67, "短": 82, "K-1": 19, "四角い": 18, "備わる": 6, "レンズ": 132, "窓": 217, "シャッター": 46, "##F-4_(戦闘機)##": 26, "異": 109, "機種": 205, "司令部": 171, "替え": 115, "補完": 42, "つい": 423, "52年": 54, "55年": 60, "##2月29日##": 21, "##11月13日##": 31, "退い": 55, "解": 116, "##1982年##": 619, "57年": 75, "##3月15日##": 119, "1981年": 505, "全幅": 58, "全高": 15, "4.5m": 14, "最大離陸重量": 5, "kg": 129, "空虚重量": 6, "046": 11, "570": 20, "##ノット##": 30, "105": 107, "航続距離": 36, "454": 14, "固定": 334, "乗員": 92, "製造番号": 8, "並べ": 73, "改め": 236, "ならっ": 16, "サイト": 474, "掲載": 1106, "ここ": 874, "スクラップ": 34, "解体": 284, "廃棄": 99, "足り": 69, "非公開": 27, "法人": 183, "軍隊": 217, "祭": 317, "航空祭": 6, "不定期": 356, "公開": 1413, "MIT": 20, "前者": 146, "3B": 14, "表さ": 132, "半ば": 210, "訂正": 83, "仮に": 47, "急降下": 20, "範疇": 16, "食糧不足": 5, "有償": 14, "対価": 37, "アメリカ政府": 17, "累積": 40, "28年": 250, "用意": 330, "費用": 211, "FILE": 26, "最強": 188, "軍用機": 24, "図鑑": 206, "74": 165, "75": 268, "##丸_(雑誌)##": 5, "2010年": 2535, "72": 205, "Pakistan": 5, "Air": 75, "official": 84, "website": 58, "71": 176, "航空宇宙": 16, "工業": 410, "50年": 178, "歩み": 89, "社団法人": 88, "jac": 5, "common": 16, "pdf": 698, "toukei": 6, "_": 1814, "73": 180, "]』": 16, "決定版": 62, "##学研ホールディングス##": 60, "05": 525, "有限会社": 99, "週刊": 282, "##デアゴスティーニ・ジャパン##": 5, "No.": 669, "93": 194, "堂": 277, "襟": 12, "capensis": 18, "一種": 294, "13.": 108, "15cm": 12, "体重": 295, "成鳥": 10, "短い": 240, "灰色": 68, "嘴": 21, "持ち": 636, "頭頂": 13, "黒い": 220, "はさま": 13, "眼": 221, "走る": 196, "茶色": 43, "2本": 296, "白い": 201, "喉": 36, "白く": 33, "腹部": 71, "汚": 18, "斑点": 30, "不明瞭": 30, "模様": 313, "薄い": 91, "茶色い": 9, "縞": 17, "無く": 269, "南端": 70, "山岳地帯": 29, "600m": 20, "4000m": 12, "地点": 386, "##庭園##": 67, "##公園##": 117, "二次": 115, "植生": 23, "好み": 94, "##都市##": 80, "巣": 72, "植物性": 6, "草": 140, "杯": 70, "からみ": 11, "木": 515, "褐色": 93, "がかっ": 17, "青色": 90, "産み": 28, "抱": 15, "雛": 28, "父": 1733, "##亜種##": 20, "一般的": 280, "小柄": 76, "中型": 83, "##アンデス山脈##": 11, "Z": 234, "黒点": 11, "別種": 28, "鋭い": 60, "とまっ": 5, "雄": 135, "さえずり": 5, "音節": 12, "口笛": 14, "吹く": 40, "ティー": 28, "##種子##": 21, "##昆虫類##": 7, "##クモ##": 19, "つがい": 10, "縄張り": 13, "保つ": 89, "小規模": 145, "群れ": 71, "おとなしく": 9, "慶": 48, "珠": 20, "キム": 54, "朝": 530, "##大韓民国##": 401, "##ソウル特別市##": 131, "##言語学者##": 6, "##博士（学術）##": 7, "##東海大学##": 58, "教養学部": 10, "教授": 800, "芸能事務所": 34, "##ホリプロ##": 62, "##芦屋市##": 13, "過ごす": 58, "都合": 152, "小学生": 168, "日韓": 64, "在住": 202, "母語": 11, "番組": 3201, "出演": 3542, "新聞": 532, "ラジオ": 493, "寄稿": 74, "学科": 272, "卒業": 1386, "大学院": 240, "修士課程": 53, "##東京大学大学院総合文化研究科・教養学部##": 21, "博士": 392, "課程": 201, "専任": 55, "准教授": 39, "昇格": 341, "東京大学": 28, "博士論文": 21, "談話": 22, "韓日": 23, "懇談会": 31, "委員": 462, "6年間": 37, "月曜日": 164, "##ニュースキャスター##": 30, "日本政府": 49, "公式見解": 9, "正当性": 18, "実効": 10, "高まり": 72, "力関係": 12, "逆転": 170, "日本人": 263, "##排外主義##": 5, "弱い": 162, "矛先": 9, "分析": 309, "文部科学省": 32, "費": 201, "補助金": 37, "成果": 176, "報告書": 183, "李": 135, "共編": 121, "言説": 16, "共通認識": 9, "?』": 14, "##学校法人東海大学出版会##": 9, "8月5日": 118, "国際学": 5, "すすめ": 44, "10月20日": 171, "索引": 25, "単著": 18, "2月20日": 131, "歪み": 17, "##祥伝社##": 28, "新書": 78, "5月31日": 146, "96": 170, "誤解": 103, "018": 33, "##東浩紀##": 8, "対談": 157, "巻末": 78, "##イースト・プレス##": 7, "論法": 9, "10月9日": 122, "共著": 370, "vs": 450, "嘘": 97, "077": 7, "##双葉社##": 110, "1月17日": 121, "575": 36, "叩か": 15, "女": 1241, "正論": 8, "##ビートたけしのTVタックル##": 6, "～、": 20, "コメンテーター": 82, "##朝まで生テレビ!##": 5, "7月26日": 117, "4月25日": 166, "10月22日": 132, "7月28日": 117, "9月1日": 247, "8月10日": 171, "9月15日": 168, "1月1日": 241, "4月26日": 134, "8月15日": 146, "パネラー": 16, "##フジテレビジョン##": 1540, "レギュラー": 537, "5月4日": 110, "1月22日": 118, "4月8日": 202, "4月15日": 157, "6月24日": 123, "3月16日": 139, "6月22日": 102, "6月29日": 121, "3月29日": 178, "##讀賣テレビ放送##": 175, "##ネプリーグ##": 5, "SP": 331, "3月26日": 170, "TOKYO": 114, "MX": 55, "月曜": 252, "MC": 251, "##ノンストップ!##": 6, "##ビーエス朝日##": 20, "1月12日": 120, "##テレビ大阪##": 37, "6月2日": 124, "##TBSテレビ##": 1337, "##行列のできる法律相談所##": 8, "6月16日": 90, "##情報ライブ_ミヤネ屋##": 9, "6月18日": 104, "5月6日": 102, "##ペケ×ポン##": 10, "9月13日": 139, "10月18日": 147, "11月29日": 221, "9月14日": 104, "##テレビ愛知##": 44, "4月19日": 145, "##サンテレビジョン##": 55, "6月20日": 111, "6月3日": 138, "11月3日": 160, "12月17日": 112, "1月13日": 121, "2月5日": 110, "##BSフジ##": 62, "3月24日": 282, "5月19日": 118, "9月29日": 153, "テレビ東京": 152, "隔週": 76, "金曜": 265, "6月21日": 138, "2月28日": 160, "3月27日": 175, "5月8日": 83, "8月14日": 136, "7月4日": 132, "7月11日": 116, "コーナー": 1204, "##CBCテレビ##": 70, "1月9日": 108, "WOWOW": 21, "ワイドショー": 21, "6月25日": 152, "6月1日": 252, "##文化放送##": 143, "株式会社": 1357, "着任": 44, "まし": 561, "4月9日": 157, "u": 398, "tokai": 9, "ac.jp": 148, "about": 61, "kokusai": 6, "news": 1258, "html": 1274, "n/": 111, "history": 78, "民団": 15, "福島県": 35, "主催": 461, "友好": 102, "テーマ": 546, "仏像": 24, "補償": 68, "勝": 223, "敗": 53, "１": 439, "」”.": 374, "11月27日": 152, ".net": 219, "detail": 113, "php": 101, "number": 19, "04": 540, "沸く": 5, "韓": 88, "本音": 27, "日刊": 40, "SPA!": 8, "6月4日": 138, "nikkan": 7, "公式サイト": 1357, "バックナンバー": 26, "放送": 5360, "tv": 37, "tokyo": 43, "co.jp": 1047, "backnumber": 6, "/?": 85, "oricon": 87, "full": 87, "/.": 27, "4月3日": 146, "##ロリ・パウロ・サンドリ##": 6, "ポルトガル語": 36, "Paulo": 7, "##1月29日##": 32, "##10月3日##": 69, "##サッカー選手##": 104, "サッカー": 152, "指導者": 287, "ロリ": 7, "選手時代": 19, "ポジション": 265, "##ミッドフィールダー##": 42, "EC": 28, "1966": 101, "968": 10, "1969": 131, "1970": 117, "##アトレチコ・パラナエンセ##": 8, "1971": 109, "972": 12, "1973": 90, "1974": 161, "976": 6, "SC": 44, "1977": 106, "1979": 137, "##クリシューマEC##": 7, "1981": 162, "1982": 141, "1983": 138, "1984": 166, "##グアラニFC##": 5, "1985": 172, "986": 10, "1988": 198, "989": 17, "1990": 230, "1991": 213, "993": 19, "1994": 296, "1995": 310, "1996": 282, "UAE": 5, "##ECジュベントゥージ##": 5, "2000": 522, "2001": 1061, "##東京ヴェルディ1969##": 23, "ヘッドコーチ": 54, "2002": 461, "##SCインテルナシオナル##": 5, "2005": 559, "##アトレチコ・ミネイロ##": 6, "006": 74, "2008": 629, "009": 53, "2010": 678, "オフィシャルサイト": 135, "Soccerway": 27, "WorldFootball": 42, "Transfermarkt": 52, "League": 125, "Data": 127, "応援": 343, "!": 1755, "インタビュー": 633, "犬": 255, "陰": 56, "嚢": 12, "arvensis": 8, "##雑草##": 45, "##アフリカ##": 106, "原産": 32, "世界中": 164, "##外来種##": 14, "##帰化植物##": 15, "##茎##": 46, "直立": 36, "##和名##": 54, "##花##": 161, "開": 126, "目立た": 29, "原産地": 28, "移入": 54, "見かける": 23, "野草": 14, "11月5日": 169, "485": 14, "DB": 21, "林弥栄": 9, "平野隆久": 14, "写真": 665, "野": 143, "咲く": 65, "##山と溪谷社##": 17, "溪": 12, "ハンディ": 11, "635": 35, "07001": 5, "）”.": 919, "3月31日": 348, "石川": 161, "いし": 61, "かわ": 28, "れん": 54, "じろう": 31, "##6月22日##": 45, "##10月29日##": 36, "##秋田県議会##": 7, "##国民新党##": 26, "##秋田県##": 100, "支部": 259, "##日本未来の党##": 6, "連": 234, "副代表": 7, "##秋田市長##": 11, "農業経済": 46, "専攻": 235, "##千葉大学##": 41, "##1990年##": 619, "立候補": 249, "初当選": 41, "3期": 115, "##自由民主党_(日本)##": 255, "##民社党##": 19, "市政": 30, "与党": 36, "倒し": 204, "##日本共産党##": 109, "革新": 47, "##秋田市##": 24, "ガス": 218, "移管": 319, "##中高一貫校##": 11, "サービスセンター": 12, "ユニーク": 43, "電話": 211, "意見": 377, "提言": 60, "聞く": 148, "市長": 143, "3期目": 10, "現金": 43, "授受": 8, "取り沙汰": 15, "妻": 1041, "介護": 43, "辞任": 147, "結党": 24, "2期目": 15, "落選": 181, "政党": 82, "解消": 252, "同党": 34, "離党": 53, "推薦": 191, "何度": 163, "構図": 37, "82歳": 5, "没": 218, "死没": 10, "##従五位##": 49, "叙": 46, "##旭日小綬章##": 5, "追贈": 34, "1983年": 550, "##日本社会党##": 39, "現職": 86, "##第43回衆議院議員総選挙##": 9, "##無所属##": 68, "##第44回衆議院議員総選挙##": 9, "##救急救命士##": 9, "##江田五月##": 8, "日外アソシエーツ": 68, "市長選": 11, "ブログ": 336, "氏": 1022, "８": 71, "歳": 148, "秋田魁新報": 11, "電子版": 62, "官報": 270, "631": 10, "令和3年": 72, "12月7日": 94, "7月23日": 118, "X": 963, "県議会議員": 5, "公式ブログ": 134, "10分": 222, "やぎ": 26, "##Category:日本の鉄道駅_や##": 5, "##南丹市##": 16, "八木": 52, "電化": 67, "急行": 115, "特急": 170, "外さ": 48, "##1899年##": 59, "嵯峨": 17, "延伸": 194, "貨物": 280, "##1907年##": 117, "40年": 218, "##8月1日##": 168, "国有": 26, "##1909年##": 130, "42年": 142, "##10月12日##": 61, "##鉄道路線の名称##": 14, "##1912年##": 139, "45年": 141, "##3月1日##": 156, "改定": 129, "59年": 108, "##2月1日##": 173, "##1992年##": 637, "##みどりの窓口##": 80, "営業": 692, "自動改札機": 14, "##3月14日##": 114, "##4月10日##": 71, "##橋上駅##": 46, "日中": 145, "時間帯": 242, "中線": 15, "3番": 231, "名乗っ": 173, "分岐": 215, "不可": 115, "当日": 218, "単線": 14, "番線": 13, "役所": 275, "支所": 177, "役場": 180, "郵便局": 226, "西小学校": 8, "中学校": 355, "##船井郡##": 10, "##京丹波町##": 5, "通行": 205, "土": 402, "プレスリリース": 552, "2月26日": 115, "アーカイブ": 2458, "。,": 173, "web": 1296, "archive": 701, "org": 960, "west": 33, "jr.": 21, "press": 175, "items": 10, "00": 2324, "オープン": 584, "4月12日": 97, "。.": 400, "kyoto": 34, "np": 63, "選手": 2231, "イギリス海軍": 5, "護衛空母": 9, "##4月7日##": 65, "##1991年##": 671, "##3月19日##": 35, "##MBSテレビ##": 130, "##トーク番組##": 56, "##バラエティ番組##": 145, "放送時間": 186, "毎週": 433, "火曜": 158, "##日本標準時##": 110, "アナウンサー": 332, "##角淳一##": 5, "関西": 287, "##お笑いタレント##": 45, "##政治##": 76, "##経済##": 104, "##スポーツ##": 93, "##芸能##": 6, "語り合っ": 11, "##深夜番組##": 15, "同局": 122, "午後": 147, "ワイド番組": 34, "##ちちんぷいぷい_(テレビ番組)##": 40, "引き継が": 124, "席": 453, "白黒": 27, "##イカ##": 50, "人形": 191, "建前": 15, "怒っ": 51, "赤い": 251, "##浜村淳##": 5, "##上岡龍太郎##": 5, "##桂文珍##": 10, "##月亭八方##": 5, "##大島渚##": 11, "UK.PROJECT": 11, "INC": 65, ".）": 150, "##レコード会社##": 65, "##芸能事務所##": 39, "傘下": 330, "##インディーズ##": 35, "##レコードレーベル##": 103, "1987年": 602, "Unknown": 5, "発売": 4278, "1990年": 674, "##下北沢##": 13, "##12月##": 256, "1994年": 786, "##EMIミュージック・ジャパン##": 70, "##ユニバーサルミュージック_(日本)##": 54, "契約": 787, "##ライブハウス##": 10, "CDショップ": 6, "エージェント": 43, "##Caravan_(シンガーソングライター)##": 5, ")→": 51, "##rhythm_zone##": 8, "Slow": 13, "Flow": 8, "Music": 194, "High": 73, "RECORDS": 64, "〜)": 40, "meets": 12, "plan": 8, "2月2日": 114, "##インペリアルレコード_(日本)##": 5, "Records": 69, "##ポニーキャニオン##": 98, "##バップ##": 19, "ROLL": 10, "##NBCユニバーサル・エンターテイメントジャパン##": 18, "31日": 95, "活動休止": 80, "Au": 6, "##元ちとせ##": 5, "##エピックレコードジャパン##": 24, "##アリオラジャパン##": 7, "##SPEEDSTAR_RECORDS##": 11, "8日": 134, "##DAIZAWA_RECORDS##": 10, "##POLYSICS##": 22, "Label": 8, "24日": 121, "完結": 127, "##ソニー・ミュージックレコーズ##": 39, "##日本コロムビア##": 100, "ソニー": 50, "MUSIC": 106, "LAST": 15, "オーナー": 153, "FREAKS": 5, "ROCK": 62, "NR": 164, "BLUE": 32, "再結成": 69, "SEXY": 8, "inc": 17, "##エスエムイーレコーズ##": 5, "3月25日": 236, "1993年": 685, "ベストアルバム": 55, "トリビュートアルバム": 9, "##MO'SOME_TONEBENDER##": 7, "##odol##": 8, "5月14日": 137, "無期限活動休止": 5, "10月11日": 118, "##UNISON_SQUARE_GARDEN##": 5, "##トイズファクトリー##": 5, "ROSE": 6, "フレンズ": 14, "5月9日": 265, "逝去": 98, "##岸田繁##": 32, "主題歌": 436, "##銀杏BOYZ##": 6, "1月15日": 155, "6月10日": 162, "実質的": 114, "BEACH": 15, "OFFICE": 15, "9月11日": 116, "##THE_BOOM##": 5, "初恋": 62, "℃": 20, "##LOST_IN_TIME##": 6, "要": 364, "メジャーデビュー": 94, "##avex_trax##": 25, "ライブ": 683, "盤": 276, "Record": 28, "record": 9, "Play": 37, "3月5日": 139, "Sound": 48, "##ポリスター##": 13, "Artists": 13, "##氣志團##": 7, "影": 220, "苦": 27, "須": 12, "##BUMP_OF_CHICKEN##": 12, "##PhilHarmoUniQue##": 6, "SONG": 28, "CR": 41, "UX": 5, "CBSソニー": 6, "わがまま": 31, "##りょう_(女優)##": 8, "パラシュート": 13, "Low": 16, "WONDER": 8, "RELEASE": 9, "TV": 521, "Aaron": 12, "field": 26, "TiNSTAR": 10, "records": 20, "LABEL": 10, "8月19日": 102, "@": 145, "福岡": 170, "##［Alexandros］##": 23, "]／": 17, "##the_telephones##": 17, "##THE_NOVEMBERS##": 11, "##BIGMAMA##": 18, "BIG": 35, "CAT": 12, "クラブ": 672, "8月2日": 106, "仙台": 185, "新木場STUDIO": 11, "COAST": 11, "8月20日": 152, "##TOTALFAT##": 13, "片平": 10, "実": 310, "石毛": 7, "輝": 41, "8月21日": 111, "8月22日": 108, "##asobius##": 6, "＆": 596, "大阪": 652, "7月16日": 102, "名古屋": 206, "HALL": 8, "弾き語り": 24, "##GOING_UNDER_GROUND##": 6, "from": 375, "##ウソツキ_(バンド)##": 6, "8月23日": 140, "extra": 5, ")／": 6, "DJ": 165, "ノブ": 23, "8月18日": 108, "UK": 52, ".)": 142, "##ストレイテナー##": 13, "##ORANGE_RANGE##": 9, "##polly##": 5, "Helsinki": 13, "Club": 82, "Limited": 34, "Walls": 6, "7月8日": 169, "CLUB": 38, "7月29日": 120, "心斎橋": 7, "概要": 330, "YouTube": 194, "チャンネル": 295, "(@": 512, "PROJECT": 45, "Twitter": 473, "Facebook": 156, "LINE": 51, "Add": 8, "Friend": 17, "##:en:Zonotrichia##": 6, "びら": 8, "##シングル##": 463, "##見良津健雄##": 8, "##アニメーション映画##": 21, "リポート": 91, "3枚": 118, "アルバム": 1450, "ミックス": 46, "##Colours_(米倉千尋のアルバム)##": 6, "ガンダム": 43, "20周年": 100, "##ベストアルバム##": 10, "YEARS": 19, "AFTER": 10, "All": 135, "Time": 106, "Best": 81, "アウトロ": 5, "フェードアウト": 15, "いつの日か": 7, "##HP-UX##": 6, "##UNIX##": 42, "##ヒューレット・パッカード##": 7, "HP": 327, "1939年": 108, "##オペレーティングシステム##": 54, "ワークステーション": 9, "##サーバ##": 37, "基幹": 67, "信頼性": 60, "金融": 90, "証券": 18, "既存": 182, "パッケージ": 198, "##シェル##": 10, "ユーザ": 63, "プラットホーム": 30, "稼動": 57, "動作": 256, "監視": 189, "TOC": 8, "カーネル": 34, "組み込ん": 27, "商用": 37, "実績": 195, "##NTTドコモ##": 59, "##インテル##": 23, "##Itanium##": 5, "##CPU##": 32, "保証": 94, "アーキテクチャ": 27, "互換性": 71, "エミュレーション": 5, "パフォーマンス": 144, "##ソースコード##": 17, "オブジェクト": 71, "サイズ": 284, "入出力": 19, "ディスク": 126, "エリア": 513, "柔軟": 44, "処理": 576, "行える": 75, "ファイル": 298, "復旧": 54, "速やか": 31, "##日本電気##": 76, "##日立製作所##": 51, "##沖電気工業##": 7, "##三菱電機##": 30, "OEM": 15, "自社開発": 8, "互換": 44, "7700": 11, "シグマ": 6, "グリッド": 49, "日立": 61, "1000": 285, "ブレード": 17, "##モトローラ##": 8, "##MC68000##": 13, "プロセッサ": 25, "基づい": 285, "200": 373, "400": 216, "500": 410, "レンジ": 18, "インターネット": 142, "位置付け": 85, "v": 397, "アップデート": 49, "リリース": 1068, ")”.": 1021, "4月11日": 129, "books": 282, "unix": 13, "Enterprise": 38, "—": 342, "HA": 7, "ー": 437, "教科書": 112, "Project": 99, "albicollis": 9, "性別": 68, "U.": 169, ".;": 332, "1975": 212, "Effect": 15, "release": 82, "their": 26, "Research": 93, "Communication": 36, "66": 197, "doi": 576, "1016": 67, "0006": 6, "x": 1892, "9.": 267, "ISSN": 267, "PM": 118, "ncbi": 25, "nlm": 25, "h.": 68, "gov": 78, "pubmed": 6, "よしと": 9, "みえ": 31, "西日本": 107, "旅客鉄道": 10, "駅": 912, "福岡県": 31, "JR九州": 46, "なき": 116, "##4月4日##": 78, "##9月26日##": 57, "系列局": 70, "テレビドラマ": 155, "MBS": 88, "##東宝芸能##": 8, "##日曜日##": 242, "23:00": 68, "##日本たばこ産業##": 25, "##一社提供##": 50, "愛情": 64, "恋愛": 161, "芝居": 99, "##オムニバス##": 77, "形式": 767, "真夜中": 47, "わかば": 9, "##斉藤由貴##": 5, "真一": 18, "##風間杜夫##": 13, "2回": 596, "ラスト": 130, "プログラム": 429, "久美子": 26, "谷": 220, "4月18日": 144, "3回": 447, "僕": 267, "女神": 76, "タケシ": 9, "##木村拓哉##": 29, "マユミ": 18, "4回": 282, "度目": 69, "偶然": 154, "幸太郎": 8, "菜": 36, "恵": 54, "5月2日": 109, "5回": 304, "夜空": 21, "晩餐会": 15, "真紀": 25, "浩三": 5, "##平田満##": 5, "パパ": 62, "レッスン": 41, "真澄": 12, "##金山一彦##": 5, "5月16日": 152, "7回": 227, "見合い": 23, "紀子": 16, "昌": 63, "8回": 216, "##うじきつよし##": 9, "5月30日": 161, "9回": 183, "別れる": 16, "新婚": 20, "初夜": 7, "加奈子": 10, "6月6日": 149, "10回": 162, "訣別": 7, "11回": 142, "12回": 139, "鐘": 91, "武志": 16, "藤森": 8, "6月27日": 145, "13回": 97, "男": 1433, "決算": 48, "村井": 44, "14回": 96, "あと": 269, "エピローグ": 23, "新吉": 8, "##佐野史郎##": 7, "15回": 78, "晶子": 12, "大原": 39, "16回": 85, "##蟹江敬三##": 7, "17回": 72, "忘れる": 19, "圭子": 18, "田口": 46, "18回": 73, "ちいさな": 18, "決意": 244, "19回": 78, "##松原千明##": 9, "達夫": 21, "20回": 115, "##萩原聖人##": 8, "8月29日": 98, "21回": 68, "憶": 10, "健二": 30, "直子": 35, "9月5日": 142, "22回": 69, "渡": 117, "若菜": 7, "9月12日": 92, "23回": 58, "入園": 24, "びき": 8, "##中野英雄##": 8, "24回": 65, "再婚": 132, "孝治": 6, "奈々子": 5, "最終回": 243, "鏡": 161, "脚本": 1138, "##岡田惠和##": 5, "演出": 1076, "プロデューサー": 634, "##東通企画##": 5, "ほんの": 33, "夏": 681, "##伊勢正三##": 9, "永遠": 98, "キ": 80, "59": 247, "いち": 120, "##キ番号##": 7, "昭和13年": 51, "代わる": 64, "##旅客機##": 33, "昭和14年": 56, "純": 146, "TK": 59, "双発": 30, "重量": 228, "過大": 16, "##航空用エンジン##": 26, "指示": 286, "##1940年##": 195, "昭和15年": 58, "昭和16年": 52, "骨組み": 9, "##降着装置##": 15, "450": 47, "##馬力##": 27, "原型": 212, "安価": 97, "やや": 369, "打ち切り": 81, "大き": 301, "手頃": 7, "稼働率": 9, "##司令部##": 33, "40m": 21, "自重": 33, "全備": 22, "空冷": 18, "星": 702, "気筒": 41, "乗客": 151, "寺田": 30, "研": 59, "朝日": 131, "2巻": 298, "7号": 82, "通巻": 87, "第9": 132, "馬力": 78, "2基": 71, "時速": 49, "##九七式輸送機##": 6, "##日本製航空機の一覧##": 8, "##WILLER##": 22, "##WILLER_TRAVEL##": 11, "##旅行会社##": 25, "ウェブサイト": 162, "法人格": 8, "##2023年##": 39, "本体": 226, "平成6年": 54, "##5月24日##": 46, "##大阪市##": 397, "##北区_(大阪市)##": 31, "業績": 122, "伸ばし": 116, "つづけ": 31, "自社ビル": 5, "結ぶ": 506, "##ツアーバス##": 12, "Express": 18, "##高速バス##": 135, "##インターネット##": 126, "活用": 275, "予約": 177, "高い評価": 62, "人気": 814, "ホールディングス": 62, "実質": 186, "##持株会社##": 57, "現行": 151, "社名": 236, "ブランド名": 52, "EXPRESS": 15, "##WILLER_EXPRESS##": 20, "一新": 97, "乗合": 16, "##ヒュンダイ・ユニバース##": 18, "乗車券": 81, "但し": 182, "##11月##": 209, "##梅田スカイビル##": 6, "親会社": 91, "サービス": 815, "会員": 363, "交通": 421, "第十": 67, "二条": 8, "申し込み": 28, "決済": 27, "##コンビニエンスストア##": 37, "払込": 16, "##ゆうちょ銀行##": 11, "##現金自動預け払い機##": 9, "集合場所": 5, "電子メール": 7, "受信": 128, "係員": 39, "店頭": 52, "削減": 146, "##アルピコ交通##": 19, "他社": 99, "事業者": 160, "いち早く": 41, "自前": 13, "##バスターミナル##": 29, "##バスタ新宿##": 15, "閉鎖": 332, "梅田": 37, "庭園": 93, "敷地内": 125, "cafe": 8, "##全日本空輸##": 49, "ANA": 76, "提携": 223, "割引": 58, "セット": 439, "##チェジュ航空##": 11, "##格安航空会社##": 17, "入国": 28, "旅行者": 16, "宿泊施設": 31, "宿泊": 77, "充当": 22, "ホテル": 291, "チェックイン": 10, "フェリー": 31, "船舶": 138, "ポータル": 49, "航路": 175, "将来的": 26, "参画": 49, "ポータルサイト": 33, "SMART": 6, "宿": 171, "簡単": 217, "目指し": 388, "ステップ": 74, "図ら": 57, "定期": 243, "事業所": 103, "##佐渡汽船##": 8, "高速船": 12, "コスト削減": 15, "運行": 1390, "貸切": 29, "運賃": 163, "##国土交通省##": 121, "下限": 12, "ぎりぎり": 20, "孫請け": 5, "手数料": 41, "差し引い": 7, "額": 303, "下回る": 30, "頻繁": 167, "要請": 281, "放映": 344, "##NHKスペシャル##": 22, "格安": 12, "競争": 142, "裏": 515, "運転士": 19, "長時間": 62, "安全": 256, "徹底": 120, "解除": 202, "車体": 228, "安い": 33, "実例": 18, "引き合い": 20, "両立": 41, "記者発表": 9, "村瀬": 17, "取り組み": 119, "費やし": 33, "積極的": 115, "吸い上げ": 5, "根本": 68, "違和感": 33, "ツアー": 346, "日常的": 28, "毎日": 218, "日々": 202, "業界": 236, "##北近畿タンゴ鉄道##": 6, "KTR": 5, "京都丹後鉄道": 14, "切っ": 101, "##WILLER_TRAINS##": 10, "引き継ぎ": 49, "再出発": 26, "ネット": 660, "分社化": 15, "運営会社": 59, "お知らせ": 427, "22日": 100, "社名変更": 92, "Traicy": 19, "3月3日": 136, "3月7日": 117, "2000年代": 67, "旅行会社": 10, "当該": 286, "打ち切ら": 40, "倒産": 74, "任せ": 65, "急成長": 11, "注が": 7, "##日経ビジネス##": 10, "逆襲": 49, "新幹線": 59, "新サービス": 6, "合戦": 185, "～」（": 27, "汐留": 6, "リーダーズ": 5, "EYE": 8, "9月4日": 161, "6月5日": 123, "9月24日": 144, "レンタカー": 14, "ポイント": 419, "共同企画": 15, "##大阪エヴェッサ##": 7, "キャンペーン": 213, "就職": 123, "無料": 364, "##WILL_(米倉千尋の曲)##": 8, "ウィル": 20, "10枚": 39, "##岩本正樹##": 7, "テレビアニメ": 298, "##封神演義_(漫画)##": 10, "オープニング": 279, "##Category:楽曲_う##": 5, "14t": 13, "エンディング": 287, "off": 44, "vocal": 12, "version": 64, "5月26日": 141, "BD": 60, "6巻": 106, "初回生産": 6, "限定版": 27, "特典": 130, "CD": 687, "本名": 543, "アーネスト": 5, "テレル": 5, "##12月16日##": 70, "男性": 677, "##プロボクサー##": 31, "##世界ボクシング協会##": 51, "##ヘビー級##": 34, "王者": 176, "##モハメド・アリ##": 7, "ライバル": 204, "アリ": 41, "タイトル": 1057, "##イリノイ州##": 34, "##シカゴ##": 64, "長身": 62, "活かし": 83, "ジャブ": 5, "名手": 33, "アマ": 24, "リング": 206, "1957年": 197, "プロ": 618, "強豪": 59, "下し": 95, "1965年": 229, "空位": 17, "王座決定戦": 44, "ベルト": 84, "懸け": 8, "判定勝ち": 91, "王座": 344, "地味": 44, "1967年": 316, "WBC": 21, "一戦": 20, "試合前": 33, "挑発": 41, "試合": 964, "止め": 207, "刺さ": 39, "俺": 179, "言っ": 482, "みろ": 9, "叫び": 40, "トーナメント": 165, "返り咲き": 12, "カムバック": 6, "ボクシング": 66, "プロモーター": 12, "転身": 86, "市会": 8, "出馬": 140, "晩年": 177, "患っ": 45, "9敗": 10, "ロイター": 17, "##男子ボクサー一覧##": 16, "11枚": 23, "##ドリームキャスト##": 35, "ゲーム": 1443, "Truth": 20, "菊地": 89, "陽子": 54, "くち": 22, "ようこ": 16, "##10月28日##": 62, "##12月23日##": 30, "##アイドル歌手##": 6, "##女優##": 55, "血液型": 185, "##港区_(東京都)##": 95, "出生": 161, "まもなく": 113, "##青森県##": 144, "##八戸市##": 35, "転居": 62, "##堀越高等学校##": 19, "##Seventeen_(日本の雑誌)##": 9, "賞": 862, "入賞": 106, "ヒロイン": 193, "ベテラン": 77, "移籍": 790, "##ポップ・ミュージック##": 12, "##音楽ユニット##": 46, "ミニ・アルバム": 6, "AUTUMN": 9, "高校": 824, "同級生": 188, "##岡田有希子##": 10, "##本田美奈子.##": 8, "##南野陽子##": 9, "##長山洋子##": 5, "##倉沢淳美##": 7, "渡辺": 255, "##松本友里##": 5, "##永瀬正敏##": 5, "##片岡孝太郎##": 12, "良かっ": 51, "特技": 160, "##新体操##": 12, "##スケート##": 5, "##電子オルガン##": 5, "##白血病##": 25, "32歳": 33, "タッチ": 53, "キープ": 18, "5月21日": 155, "B面": 91, "##森永製菓##": 18, "イメージ": 432, "ソング": 109, "わく": 9, "...": 195, "Ki": 11, "ス": 81, "名義": 640, "レーベル": 241, "10月25日": 189, "園田": 12, "夏子": 13, "##太陽にほえろ!##": 33, "アイドル": 199, "東宝": 34, "5月11日": 109, "可愛": 8, "エミ": 8, "##大映テレビ##": 35, "亜紀": 56, "##土曜ワイド劇場##": 84, "##家政婦は見た!##": 10, "1985年": 550, "悪女": 20, "志願": 66, "6月7日": 124, "夜": 715, "殺人": 188, "##金曜ドラマ_(TBS)##": 13, "第65話": 8, "アイツ": 7, "オレ": 40, "受験": 122, "!!」（": 28, "##国際放映##": 36, "##銀河テレビ小説##": 16, "下町": 38, "娘": 1273, "第4話": 194, "死神": 41, "!」（": 162, "##月曜ドラマランド##": 20, "##水戸黄門_(第14-21部)##": 45, "第9話": 143, "悪": 170, "暴い": 9, "頭巾": 19, "諏訪": 54, "-」（": 141, "##C.A.L##": 57, "1988年": 589, "11月7日": 115, "おゆき": 7, "##大岡越前_(テレビドラマ)##": 72, "第21話": 51, "奉行": 64, "9月10日": 144, "きん": 88, "##八百八町夢日記##": 6, "1シリーズ": 50, "第15話": 54, "若": 76, "同心": 16, "泣け": 5, "ぶん": 42, "第2話": 205, "非情": 21, "黒田": 64, "槍": 64, "##テレビ東京##": 560, "相川": 21, "縫": 16, "東映": 80, "第7話": 158, "呪い": 68, "7シリーズ": 7, "第3話": 178, "おし": 9, "##東海テレビ放送##": 86, "第28話": 18, "ユキ": 22, "ホステス": 10, "##火曜サスペンス劇場##": 46, "高須": 12, "##さすらい刑事旅情編##": 5, "Ⅳ": 16, "##暴れん坊将軍IV##": 6, "大奥": 14, "殺人者": 14, "由美": 45, "辻": 62, "いずみ": 45, "2月9日": 108, "三巻": 10, "順子": 14, "8月13日": 110, "レギュラー出演": 134, "アシスタント": 247, "##るんるんナイト_ワオ!##": 6, "##TBSラジオ##": 199, "水曜": 155, "パートナー": 186, "楽曲": 732, "タイアップ": 78, "農": 47, "すこやか": 5, "カルテット": 8, "鳩": 14, "サクラ": 65, "テレビ番組": 202, "東京": 1375, "ポスト": 107, "##日本タレント名鑑##": 24, "VIP": 52, "タイムズ": 50, "464": 15, "PART": 21, "SPECIAL": 66, "INTERVIEW": 13, "渋谷": 94, "景": 46, "くだい": 6, "MEADS": 10, "Medium": 5, "Extended": 7, "Defense": 14, "System": 174, "##北大西洋条約機構##": 25, "##地対空ミサイル##": 14, "開発計画": 22, "自": 145, "走": 162, "機動": 74, "野戦": 39, "操作": 464, "省力": 8, "一本": 164, "共同開発": 37, "##2012年##": 1596, "分担": 43, "58%": 13, "17%": 6, "抵触": 22, "あたる": 417, "見送ら": 23, "続行": 45, "迎撃": 66, "FT": 26, "ランス": 5, "戦術": 109, "##弾道ミサイル##": 5, "探知": 54, "追跡": 125, "11月6日": 135, "同時": 216, "パトリオット": 5, "延期": 129, "かかわら": 314, "##ソフトウェア##": 63, "##ハードウェア##": 29, "##ユーロ##": 30, "費やす": 13, "そのほか": 102, "中規模": 17, "##弾頭##": 29, "射程": 94, "直撃": 55, "##巡航ミサイル##": 12, "ミサイル発射": 10, "装填": 33, "周": 133, "##C-130_(航空機)##": 5, "SL": 52, "組み込む": 29, "German": 39, "Government": 20, "Under": 21, "Pressure": 9, "Bloomberg": 7, "2月16日": 153, "bloomberg": 12, "government": 5, "under": 12, "pressure": 5, "missile": 6, "project": 24, "Your": 60, "Industry": 16, "Integrated": 14, "First": 90, "Launch": 5, "Dual": 9, "Success": 12, "at": 472, "White": 73, "Range": 5, "us": 121, "releases": 17, "For": 105, "defense": 8, "system": 36, "DW": 5, "5月15日": 163, "dw": 6, "a-1": 10, "Germany": 34, "its": 39, "Update": 19, "6月9日": 125, "update": 31, "contract": 5, "sources": 8, "Reuters": 18, "uk": 76, "reuters": 16, "germany": 5, "ZX": 9, "INTERNATIONAL": 14, "FOR": 61, "コンセプト": 166, "木原": 15, "坪": 53, "16年": 300, "##8月10日##": 60, "営業休止": 28, "26年": 222, "営業再開": 27, "##郵便局##": 84, "合築": 13, "現在地": 109, "踏切": 86, "挿": 9, "北側": 320, "延び": 29, "有効長": 13, "極端": 102, "短く": 107, "クイック": 27, "チャージ": 107, "##自動券売機##": 67, "ジャスト": 34, "アウェイ": 13, "12t": 14, "初回": 125, "封入": 69, "##作詞##": 130, "##作曲##": 184, "##編曲##": 137, "##テレビアニメ##": 198, "##1##": 180, "##オープニング##": 5, "##主題歌##": 88, "5t": 67, "Sweet": 56, "True": 18, "Love": 238, "##エンディング##": 6, "（\"": 12, "##1932年##": 162, "##6月19日##": 34, "##ディフェンダー_(サッカー)##": 52, "センターバック": 9, "##サッカーブラジル代表##": 16, "##1958_FIFAワールドカップ##": 11, "1958年": 211, "大会": 1477, "1962年": 192, "キャプテン": 117, "コンビ": 333, "組み": 135, "6試合": 20, "45歳": 28, "##リオデジャネイロ##": 17, "交通事故": 38, "ユース": 83, "1948": 51, "950": 22, "1951": 50, "965": 11, "##CRフラメンゴ##": 7, "1965": 95, "##アソシアソン・ポルトゥゲーザ・ジ・デスポルトス##": 5, "967": 13, "スペイン語": 73, "1967": 108, "1958": 87, "962": 8, "出場機会": 55, "無し": 171, "ex": 67, "do": 54, "Flame": 38, "Milton": 6, "5月7日": 153, "##世界シンクロナイズドスケーティング選手権##": 20, "Skating": 9, "Champion": 44, "ships": 16, "##シンクロナイズドスケーティング##": 20, "世界選手権": 40, "##ミネアポリス##": 5, "例年": 61, "開催地": 21, "毎回": 172, "通例": 41, "シーズン中": 39, "##フィギュアスケート競技会##": 7, "2009": 626, "カレンダー": 52, "##セブン&アイ・ホールディングス##": 27, "##ヨーク_(小売業)##": 36, "##株式会社_(日本)##": 964, "##スーパーマーケット##": 65, "##完全子会社##": 6, "マート": 14, "##ヨークベニマル##": 8, "棲み分け": 6, "赤塚": 6, "タウン": 101, "##ロードサイド店舗##": 9, "集約": 73, "##イトーヨーカ堂##": 17, "##2010年代##": 10, "館": 910, "##イトーヨーカドー##": 6, "直営": 58, "ディスカウント": 6, "##ザ・プライス##": 6, "業態": 29, "マーケット": 37, "今回": 167, "フーズ": 17, "プライス": 14, "IY": 19, "##鳩##": 5, "##ロゴタイプ##": 25, "青": 345, "ロゴ": 223, "マーク": 266, "オレンジ": 98, "##nanaco##": 6, "カウンター": 76, "##1975年##": 411, "テリトリー": 10, "全額": 44, "冠スポンサー": 12, "中継": 600, "経営破綻": 17, "再建": 254, "受け皿": 17, "協賛": 83, "数社": 12, "##合併_(企業)##": 73, "したこと": 32, "株式": 286, "100%": 118, "スポンサー": 230, "##ショッピングセンター##": 73, "セントラル": 18, "##玉村町##": 9, "5月13日": 144, "##江東区##": 45, "一部店舗": 18, "譲受": 39, "10月21日": 134, "中野": 91, "リニューアルオープン": 52, "水海道": 5, "##常総市##": 7, "キー": 116, "テナント": 62, "##取手市##": 10, "##2月22日##": 46, "結城": 64, "##結城市##": 9, "##2月28日##": 49, "##1月14日##": 31, "高坂": 20, "##東松山市##": 9, "入れ替わり": 35, "若葉": 40, "富士見": 15, "団地": 234, "マンション": 97, "##深谷市##": 9, "##蓮田市##": 5, "##7月3日##": 39, "深谷": 15, "##12月31日##": 59, "##幸手市##": 5, "##6月26日##": 36, "##6月29日##": 38, "##春日部市##": 9, "##1月22日##": 36, "画像": 240, "##5月27日##": 50, "##大田区##": 43, "##7月7日##": 43, "##足立区##": 18, "##温泉##": 112, "施設": 1149, "##10月18日##": 34, "##千葉市##": 98, "##稲毛区##": 5, "のち": 1294, "##八千代市##": 6, "##2月17日##": 44, "経営環境": 7, "動向": 104, "見据え": 14, "##松戸市##": 9, "##9月3日##": 43, "##3月3日##": 57, "パチンコ店": 7, "デリカ": 41, "関東": 285, "長野県": 38, "決算公告": 52, "HD": 46, "食品スーパー": 13, "埼玉": 37, "おお": 131, "セブン": 42, "戦略": 267, "Impress": 7, "Watch": 50, "インプレス": 9, "5月12日": 121, "ますます": 58, "68": 182, "スーパー": 371, "新型": 134, "新会社": 47, "(株)": 44, "フォーマット": 63, "推進": 462, "company": 48, "リニューアル": 318, "軌跡": 112, "北口": 171, "茨城新聞": 8, "Return": 33, "マイ": 85, "セルフ": 30, "13t": 12, "初回盤": 44, "カード": 859, "二期": 36, "オープニングテーマ": 147, "遠くへ": 7, "～」": 63, "##器楽曲##": 40, "##サンシティ_(南アフリカ)##": 10, "Sun": 42, "City": 110, "##リゾート##": 15, "都市圏": 31, "車": 1157, "2時間": 163, "岩": 168, "##サバナ_(地理)##": 6, "広がる": 147, "麓": 98, "接する": 194, "南アフリカ": 30, "##ホテル##": 146, "界": 477, "##不動産##": 34, "サン": 73, "インターナショナル": 95, "一代": 16, "築い": 146, "Sol": 6, "##移民##": 21, "二世": 19, "##遊園地##": 72, "##ゴルフ場##": 13, "##白人##": 46, "専用": 679, "一大": 61, "娯楽": 56, "##12月7日##": 39, "##アパルトヘイト##": 12, "黒人": 91, "居住": 201, "国家": 416, "モラル": 13, "反し": 63, "##賭博##": 10, "レビュー": 73, "合法的": 13, "##ヨハネスブルグ##": 5, "大都市圏": 10, "近距離": 35, "たちまち": 25, "週末": 93, "行楽": 13, "カジノ": 21, "招き": 82, "寄せ": 205, "230": 61, "コンサートホール": 10, "Super": 52, "##クイーン_(バンド)##": 6, "##エルトン・ジョン##": 9, "スター": 260, "料": 178, "呼び寄せ": 32, "連日": 29, "公演": 927, "反": 229, "ギタリスト": 50, "Steven": 12, "Van": 41, "音楽業界": 10, "政治活動": 23, "アーティスト": 339, "取り上げ": 285, "##ヒップホップ##": 45, "ロック": 243, "R&B": 8, "ミクスチャー": 5, "##リンゴ・スター##": 28, "##ボノ##": 7, "##ボブ・ディラン##": 7, "##ルー・リード##": 7, "##ザック・スターキー##": 8, "49人": 5, "組": 957, "こんな": 94, "演奏": 774, "豪華": 82, "ミュージシャン": 179, "保守": 83, "ラジオ局": 34, "オンエア": 77, "控え": 151, "悪条件": 6, "##ビルボード##": 20, "38位": 7, "ホール": 359, "カントリークラブ": 12, "ロスト": 12, "ゴルフコース": 5, "大勢": 66, "会場": 294, "##1990年代##": 124, "決勝": 355, "##4月19日##": 39, "首脳": 29, "立会い": 9, "ナス": 6, "エンターテイメント": 47, "ワールド": 107, "エンターテインメント": 45, "キングダム": 6, "ケープ": 11, "テーブル": 48, "ベイ": 37, "カーニバル": 23, "シティー": 13, "##レソト##": 5, "##ボツワナ##": 7, "リザーブ": 9, "##ザンビア##": 9, "ロイヤル": 54, "N4": 7, "R5": 10, "Properties": 5, "|": 1456, "Hotel": 18, "##歴史群像##": 12, "れきし": 5, "##歴史##": 80, "##軍事##": 38, "隔月": 20, "刊": 330, "編集": 659, "季刊": 23, "創刊": 206, "##学研プラス##": 15, "毎号": 15, "グラフ": 41, "CG": 108, "多用": 126, "##戦争##": 106, "検証": 142, "紹介": 1457, "##雑誌##": 75, "##軍事史##": 14, "##戦国時代_(日本)##": 183, "特集記事": 17, "柱": 187, "10本": 40, "時事": 17, "現代史": 24, "こだわら": 9, "幅広く": 74, "収載": 10, "巻頭": 22, "##中世##": 103, "カラー": 319, "グラフィック": 157, "探訪": 30, "従軍": 149, "##松本零士##": 14, "連載開始": 52, "##小林源文##": 9, "##戦記##": 8, "##漫画##": 340, "扉絵": 13, "イラストレーター": 27, "著名": 168, "##小松崎茂##": 9, "重なる": 48, "特集": 401, "組ま": 80, "B2": 78, "必ず": 260, "変える": 180, "切り口": 10, "とっ": 297, "出典": 307, "参考文献": 20, "##機動戦士ガンダム##": 56, "##機動警察パトレイバー##": 10, "フィクション": 46, "##ムック_(出版)##": 16, "アナザー": 6, "クロニクル": 31, "兄弟": 449, "ルーツ": 69, "単発": 114, "出版": 1166, "織田信長": 10, "収め": 332, "博し": 63, "遂に": 53, "##バブル景気##": 17, "余波": 11, "売り上げ": 147, "未だ": 40, "右肩上がり": 5, "三国志": 10, "手伝っ": 31, "比較": 360, "編集部": 206, "感じ": 409, "強み": 15, "培っ": 18, "図解": 42, "絵": 352, "再現": 304, "総括": 93, "編集長": 108, "新井": 93, "わかり": 73, "あげる": 73, "長け": 49, "活字": 16, "読ま": 74, "でし": 100, "重点": 56, "読者": 159, "強かっ": 52, "ホームページ": 381, "離れ": 616, "情勢": 73, "負担": 214, "内容": 1105, "部数": 15, "単位": 411, "変動": 148, "ミリタリー": 11, "好評": 81, "結論": 126, "本誌": 44, "看板": 149, "体裁": 38, "サブタイトル": 70, "Magazine": 81, "ぶれ": 9, "明示": 71, "創刊号": 48, "いかに": 68, "闇": 188, "鮮明": 15, "浮かび上がら": 6, "真": 316, "ファン": 522, "方々": 31, "ドキドキ": 17, "しながら": 98, "なれ": 149, "思う": 173, "クレジット": 238, "メッセージ": 285, "推理": 83, "4号": 161, "17号": 19, "19号": 20, "切り込む": 6, "!（": 214, "20号": 40, "変型": 8, "区切り": 30, "B5": 17, "表紙": 205, "付い": 267, "7000": 26, "潜在": 25, "20万": 29, "30万人": 15, "AURA": 8, "取材": 348, "読者層": 12, "50歳": 30, "49歳": 6, "中年": 35, "少年時代": 68, "マンガ": 89, "体験": 209, "3割": 48, "頼ら": 23, "当て": 180, "奇しくも": 15, "老舗": 49, "##世界の艦船##": 15, "##関ヶ原の戦い##": 58, "話題": 350, "使える": 180, "嬉しい": 14, "ね": 485, "##AERA##": 12, "##ニューズウィーク##": 6, "取り込み": 22, "どころか": 39, "20代": 56, "若年層": 13, "##ジャーナリズム##": 5, "接点": 24, "ライター": 60, "大賞": 218, "受賞者": 90, "難点": 15, "文芸": 94, "出版社": 164, "育てる": 50, "弱点": 111, "言及": 189, "##諜報##": 8, "出さ": 322, "インフォメーション": 45, "触れ": 215, "ありません": 13, "見れ": 51, "見方": 99, "概念的": 7, "しかも": 153, "スタンス": 26, "コンピュータゲーム": 21, "presents": 74, "しり": 26, "戦国": 106, "､": 104, "エンタテインメント": 53, "幕末": 57, "工藤": 72, "尚": 113, "廣": 35, "ロジック": 6, "##フジテレビ##": 71, "』,": 38, "67": 173, "150": 184, "知識": 276, "泉": 136, "目次": 22, "混沌": 23, "』(": 483, "3月30日": 189, "##岐阜県道77号岐阜環状線##": 11, "ぎふけんどう": 25, "77": 233, "##岐阜県##": 541, "##岐阜市##": 269, "一周": 37, "##都道府県道##": 255, "##主要地方道##": 90, "起点": 399, "薮田": 20, "日野南": 7, "##国道156号##": 17, "交点": 275, "##都市計画道路##": 15, "環状線": 24, "法規": 43, "起": 76, "終点": 422, "経過": 231, "交差点": 1051, "##国道21号##": 43, "##岐阜県道1号岐阜南濃線##": 24, "同市": 130, "##羽島郡##": 17, "##岐南町##": 12, "445": 15, "40年代": 12, "49年": 92, "開通": 761, "##5月11日##": 59, "##建設省##": 106, "##3月21日##": 60, "##鵜飼い大橋##": 6, "全面": 146, "156": 71, "外郭": 17, "環状": 35, "##東海旅客鉄道##": 129, "##東海道線_(名古屋地区)##": 10, "潜り": 14, "##長良川##": 89, "渡る": 200, "##国道157号##": 28, "##名古屋鉄道##": 191, "交差": 111, "正木": 13, "東進": 18, "福光": 11, "##国道256号##": 6, "渡っ": 243, "トンネル": 165, "合流地点": 7, "渋滞": 58, "車線": 230, "岩戸": 6, "琴塚": 14, "蔵前": 12, "狭い": 101, "平行": 87, "市道": 65, "##岐阜県道181号岐阜那加線##": 5, "高田": 136, "進路": 92, "芋島": 8, "181": 40, "号線": 46, "進む": 334, "加納竜興町": 10, "3丁目": 90, "抜け": 120, "城東通": 13, "重複区間": 37, "宇佐": 7, "鏡島": 7, "片側": 77, "##岐大バイパス##": 7, "##岐阜県道92号岐阜巣南大野線##": 10, "鏡島精華": 6, "##岐阜県道195号岐阜千本松原公園自転車道線##": 7, "立体交差": 22, "##岐阜県道163号墨俣合渡岐阜線##": 6, "菅生": 11, "##岐阜県道53号岐阜関ケ原線##": 7, "##国道303号##": 16, "北島": 61, "中3": 21, "土居": 22, "##岐阜県道287号上白金真砂線##": 6, "##国道248号##": 12, "街道": 115, "##旧中山道##": 6, "流": 323, "加納城南通": 9, "2丁目": 133, "##岐阜県道31号岐阜垂井線##": 12, "##岐阜県道151号岐阜羽島線##": 12, "##岐阜大学##": 9, "593": 5, "）.": 260, "公報": 50, "1986": 188, "657": 5, "u.": 94, "pref.": 30, "lg": 40, "81": 173, "検索": 193, "県域": 11, "1月27日": 96, "2月27日": 114, "12月19日": 166, "##s:道路法第五十六条の規定に基づく主要な都道府県道及び市道##": 21, "五月十一日": 20, "七": 553, "十": 1474, "##岐阜県の県道一覧##": 25, "##放射線・環状線##": 5, "ひの": 24, "巻き": 73, "##ステッカー##": 10, "##セルフカバー##": 15, "ビデオ": 270, "エンディング曲": 14, "WILL": 6, "acoustic": 5, "10t": 46, "祥子": 15, "りお": 12, "しょうこ": 5, "##8月5日##": 42, "##歌手##": 314, "O型": 108, "芸名": 138, "柴田": 57, "しば": 21, "芸能界入り": 15, "##聖飢魔II##": 5, "デビューシングル": 21, "##ミュージック・ビデオ##": 82, "発言": 480, "青山": 99, "りんご": 23, "あ": 423, "おやま": 18, "##巨乳##": 44, "##AV女優##": 57, "##ABO式血液型##": 175, "150cm": 12, "スリーサイズ": 15, "B1": 95, "63": 218, "H9": 10, "趣味": 377, "読書": 140, "カラオケ": 159, "りんごちゃん": 5, "AV": 112, "改名": 397, "爆乳": 32, "##シネマユニット・ガス##": 7, "ソープ": 23, "もし": 148, "中出し": 81, "ソープ嬢": 8, "女子校生": 60, "7月21日": 123, "9月22日": 114, "ドリーム": 109, "少女": 503, "12月11日": 115, "##実録出版##": 98, "ベスト": 189, "##ゴーゴーズ_(アダルトビデオ)##": 5, "乳": 64, "魂": 197, "ちち": 9, "メガネ": 99, "1月19日": 153, "##桃太郎_(アダルトビデオ)##": 11, "レズビアン": 23, "わたし": 88, "ほしい": 126, "2月8日": 109, "##ソフト・オン・デマンド##": 25, "ハメ撮り": 19, "め": 184, "ねっ": 9, "2月10日": 160, "##グローリークエスト##": 11, "きり": 79, "込ん": 40, "4月27日": 143, "淫": 12, "射精": 12, "列伝": 174, "Vol.2": 83, "7月3日": 358, "緊縛": 40, "犯さ": 15, "乳房": 9, "4月7日": 143, "##アタッカーズ##": 26, "禁断": 29, "近親相姦": 14, "凌辱": 48, "果て": 62, "15t": 12, "##実況パワフルプロ野球8##": 7, "##PlayStation_2##": 88, "##ゲーム##": 95, "曲": 1545, "サウンドトラック": 38, "｢": 167, "パワプロ": 23, "音楽館": 6, "｣": 167, "6t": 38, "##jam_(アルバム)##": 5, "越し": 44, "そら": 23, "T2": 50, "z": 949, "WAKA": 5, "べ": 176, "けい": 61, "ふじ": 53, "くら": 54, "藤倉": 5, "勉": 33, "つとむ": 8, "##8月24日##": 25, "##7月##": 288, "##ミドル級##": 93, "フック": 22, "アッパー": 15, "連打": 34, "得意": 366, "ファイター": 47, "##武蔵坊弁慶##": 12, "扮": 76, "##1964年##": 337, "新人王": 11, "り": 266, "連勝": 34, "##5月25日##": 46, "##スーパーウェルター級##": 28, "挑戦": 538, "KO": 95, "負け": 246, "東洋": 97, "判定負け": 71, "##12月25日##": 64, "破っ": 126, "1年後": 64, "##11月23日##": 51, "再戦": 34, "江藤": 27, "右ストレート": 5, "痛": 30, "打": 76, "奪回": 33, "##3月26日##": 67, "狙っ": 123, "内藤": 49, "心不全": 18, "11敗": 7, "引分け": 10, "##ボクシング日本王者一覧##": 10, "##コンピュータ##": 78, "1つ": 662, "略さ": 31, "数値": 160, "一意": 23, "通し番号": 8, "従って": 92, "##CD-ROM##": 31, "1本": 338, "扱える": 30, "利点": 75, "bit": 68, "48": 279, "みや": 60, "ざき": 34, "がっ": 115, "##1924年##": 180, "##大正##": 924, "13年": 349, "官立": 29, "##旧制専門学校##": 27, "##1920年##": 232, "##高等農林学校##": 5, "創立": 354, "本科": 98, "畜産学科": 5, "科": 905, "獣医": 84, "農産": 12, "宮崎": 95, "専門学校": 102, "専": 70, "##学制改革##": 43, "文部省": 42, "単科大学": 5, "諦め": 66, "模索": 56, "工": 226, "学芸": 19, "学部": 109, "新制": 71, "##宮崎大学##": 13, "包括": 49, "農学部": 26, "同窓会": 85, "称し": 416, "旧制": 82, "誘致": 71, "##内務大臣_(日本)##": 16, "陳情": 21, "鹿児島": 95, "##西郷従道##": 9, "##1923年##": 234, "宮崎県": 16, "県下": 11, "民間企業": 21, "4万円": 5, "6万円": 7, "予定地": 14, "##宮崎市##": 8, "踏査": 10, "9月25日": 160, "##勅令##": 19, "222": 67, "直轄": 62, "官制": 18, "9日": 104, "入学式": 38, "修業年限": 38, "附属": 247, "##1926年##": 177, "実習": 60, "補習": 10, "校内": 42, "校友会": 10, "報": 309, "温室": 11, "新築": 89, "下北": 13, "林": 271, "寄贈": 122, "##串間市##": 6, "##1929年##": 189, "住吉": 20, "牧場": 136, "認可": 163, "##1930年##": 151, "落成": 76, "会館": 158, "開館": 213, "##1933年##": 183, "南米": 39, "戦争": 550, "ともなっ": 21, "##南洋諸島##": 30, "##海南島##": 18, "##1936年##": 195, "##1937年##": 215, "畜産科": 7, "獣": 247, "3月28日": 155, "付": 1088, "165": 59, "専修": 20, "1期": 235, "限り": 571, "7月6日": 106, "本館": 93, "焼失": 121, "第1部": 121, "第2部": 95, "宮原": 14, "校長": 183, "事務": 122, "松岡": 51, "忠一": 9, "転じ": 124, "3代": 107, "喜雄": 5, "11月24日": 144, "杉原": 7, "清一": 5, "178": 47, "番地": 73, "後身": 49, "キャンパス": 126, "5664": 5, "昭和20年": 77, "11月28日": 131, "50周年": 114, "記念誌": 75, "編集委員会": 138, "周年": 98, "五十": 41, "年史": 45, "前身": 385, "沿革": 142, "##Butterfly_Kiss##": 5, "バタフライ": 14, "キッス": 18, "##シンガーソングライター##": 53, "16枚": 6, "##10月31日##": 65, "ヶ月": 503, "ぶり": 255, "アニメ": 637, "aqua.": 16, "##RAVE_(漫画)##": 11, "前期": 170, "第1話": 340, "第25話": 53, "挿入歌": 90, "##パチンコ##": 83, "エンドレス": 14, "バトル": 202, "##オリコンチャート##": 170, "24位": 13, "ランクイン": 91, "##DAM_(カラオケ)##": 11, "歌唱": 208, "回数": 189, "集計": 50, "##FAIRY_TAIL##": 9, "コラボレーション": 78, "漫画": 395, "琥珀": 11, "揺りかご": 5, "エンディングテーマ": 179, "##オフヴォーカル##": 23, "(#": 149, "STORY": 26, "##タワーレコード##": 23, "tower": 10, "item": 18, "Butterfly": 6, "Kiss": 26, "-%": 18, "7%": 58, "90%": 44, "A5": 46, "E3": 253, "81%": 71, "AE": 29, "BA": 92, "##オリコン##": 98, "contents": 29, "prof": 8, "artist": 27, "products": 13, "music": 71, "What": 62, "?”.": 49, "machine": 8, "sp": 35, "』”.": 42, "特装版": 14, "##ナタリー_(ニュースサイト)##": 75, "nat": 168, "ali": 185, "e.mu": 168, "comic": 88, "ユメ": 24, "』.": 34, "blog": 72, "excite": 20, "##リビア##": 17, "##リーズ##": 8, "##IATA都市コード##": 6, "Airport": 126, "##IATA空港コード##": 20, "long": 33, "ひだまり": 5, "つれ": 18, "##シール##": 11, "あいのうた": 6, "live": 20, "収録曲": 116, "八犬伝": 31, "東方": 102, "八": 542, "異聞": 33, "とうほ": 10, "はっ": 14, "##あべ美幸##": 8, "##プロジェクト:漫画##": 125, "##曲亭馬琴##": 5, "読本": 65, "##エメラルド_(雑誌)##": 6, "##角川書店##": 194, "連載中": 40, "##少女漫画##": 27, "単行本": 201, "##冬水社##": 5, "13巻": 45, "21巻": 19, "##ドラマCD##": 18, "ミュージカル": 239, "##舞台##": 139, "化さ": 92, "連載": 870, "##CIEL_(雑誌)##": 5, "5話": 40, "角川": 39, "10巻": 61, "第41話": 9, "11巻": 41, "##9月21日##": 49, "壱": 18, "巻": 757, "##7月25日##": 50, "##1月##": 307, "一期": 43, "14巻": 28, "##2016年##": 1480, "‐": 369, "続編": 220, "5年前": 35, "突然": 206, "広まっ": 87, "謎": 354, "##疫病##": 8, "飛び火": 6, "防ぐ": 171, "尽くさ": 22, "大塚村": 9, "生き残り": 67, "犬塚信乃": 6, "犬川荘介": 5, "浜路": 28, "はずれ": 26, "##教会##": 58, "静か": 69, "信乃": 48, "荘介": 27, "特殊": 459, "備わっ": 25, "ある日": 161, "噂": 189, "聞きつけ": 10, "召喚": 74, "届く": 49, "出迎え": 16, "断る": 31, "画策": 49, "攫わ": 18, "大都市": 46, "帝都": 52, "登場人物": 409, "1人": 703, "演": 673, "犬塚": 6, "いぬ": 19, "づか": 31, "##朴璐美##": 10, "##柿原徹也##": 8, "幼少": 125, "##坂口湧久##": 5, "18歳": 160, "##主人公##": 38, "村長": 42, "生まれつき": 17, "病弱": 24, "13歳": 81, "女装": 20, "美人": 162, "村雨": 12, "宿し": 10, "小さく": 188, "言動": 110, "少々": 65, "子供っぽい": 17, "好き": 794, "常に": 444, "完璧": 74, "幼馴染": 67, "大切": 123, "レバー": 54, "幽霊": 76, "ゴキブリ": 5, "苦手": 155, "封じ": 131, "覚え": 140, "莉芳": 16, "異父": 15, "孝": 53, "玉": 227, "持ち主": 160, "右腕": 89, "##牡丹##": 29, "痣": 10, "むら": 156, "##宮野真守##": 7, "##岡本信彦##": 5, "宿る": 17, "さめ": 5, "まる": 89, "妖刀": 9, "カラス": 27, "刀": 126, "雨": 228, "自在": 45, "##朔##": 9, "潜む": 19, "拾": 25, "怒ら": 46, "あらゆる": 204, "魔": 398, "裂く": 5, "この世": 56, "妖": 19, "取り": 246, "憑": 46, "伝わり": 27, "伏姫": 8, "固く": 18, "封印": 136, "行方不明": 91, "鞘": 39, "##日野聡##": 5, "##松村龍之介##": 5, "20歳": 99, "##相模国##": 47, "端整": 6, "折": 81, "生命": 196, "分かち": 9, "生きること": 15, "変身": 278, "出来る": 475, "冬": 293, "倒れ": 163, "引き取ら": 57, "亡くなり": 50, "昔": 224, "懐か": 11, "誰": 383, "義": 134, "後ろ": 142, "切ら": 43, "傷痕": 8, "よし": 125, "ろ": 116, "美木": 5, "マサオ": 7, "半身": 11, "身体": 249, "くれ": 353, "家": 2829, "体力": 119, "衰え": 48, "不思議": 155, "犬飼": 14, "ぬ": 449, "かい": 167, "ぱち": 7, "##大川透##": 5, "##10月20日##": 91, "26歳": 49, "27歳": 31, "隊長": 185, "実子": 75, "養子": 243, "小文": 8, "吾": 49, "3年前": 31, "喰らう": 18, "鬼": 321, "文吾": 9, "婚約者": 52, "沼": 53, "藺": 7, "亡くなっ": 201, "養父": 41, "急死": 76, "自害": 38, "謀る": 6, "死ね": 15, "悲嘆": 10, "お気に入り": 73, "メグ": 13, "世話役": 8, "旧市街": 58, "警備": 110, "巡回": 49, "義父": 52, "乗っ": 256, "動じ": 18, "相性": 39, "牝馬": 23, "らい": 46, "風": 702, "喰らっ": 11, "身の丈": 10, "尺": 70, "操る": 88, "犬田": 6, "こ": 397, "ぶんご": 5, "##寺島拓篤##": 5, "23歳": 49, "24歳": 52, "旅館": 71, "那": 36, "若旦那": 5, "面倒": 104, "上手く": 66, "厨房": 13, "出入り": 80, "兵卒": 8, "悌": 10, "腰": 99, "ふう": 43, "阪": 20, "毛野": 7, "け": 122, "##12月19日##": 41, "美貌": 39, "剣術": 18, "2年前": 45, "蒼": 33, "ともども": 37, "心臓": 72, "九重": 11, "蘇生": 42, "##能楽師##": 9, "旦": 10, "さけ": 9, "名乗り": 115, "髪の毛": 36, "息": 115, "吹きかけ": 5, "蝶": 56, "私服": 27, "着物": 44, "着る": 27, "同業者": 13, "巡業": 24, "回っ": 88, "誤認": 22, "襲い": 75, "掛かっ": 45, "泊まっ": 14, "休業": 81, "智": 47, "##進藤尚美##": 8, "本性": 23, "夜叉": 12, "姫": 307, "嘗て": 10, "山奥": 18, "城": 766, "裏切ら": 25, "我が": 74, "殺し": 261, "城内": 55, "喰らい": 12, "亡霊": 31, "引き込み": 14, "奪わ": 188, "興味": 201, "恩人": 23, "姉": 404, "犬山": 31, "道節": 7, "ま": 581, "ど": 188, "##三木眞一郎##": 7, "汽車": 26, "雪": 189, "死にかけ": 11, "生き別れ": 6, "妹": 524, "会い": 99, "生きよう": 5, "雪姫": 8, "救わ": 63, "周り": 172, "真冬": 13, "寒さ": 22, "薬師": 24, "一族": 373, "薬": 247, "旦那": 21, "開く": 126, "恋人": 236, "欲しい": 111, "しょっちゅう": 11, "アタック": 79, "忠": 106, "左肩": 25, "ひめ": 32, "##能登麻美子##": 11, "シーン": 584, "遭難": 49, "しかけ": 25, "毎年": 457, "遊ん": 35, "友人": 419, "美しい": 156, "歌声": 34, "惚れ": 67, "大変": 109, "嫉妬深い": 5, "犬村": 5, "大角": 12, "いかく": 6, "##津田健次郎##": 5, "旧姓": 79, "無口": 22, "無表情": 12, "6歳": 63, "師": 335, "清": 129, "衣装": 160, "小物": 14, "親子": 142, "邪眼": 16, "見抜く": 12, "昏睡": 7, "雛衣": 5, "屋敷": 200, "和": 184, "作業場": 12, "右足": 19, "猫": 181, "いつも": 221, "傍": 31, "死期": 8, "悟っ": 21, "実父": 66, "結界": 43, "守っ": 99, "半年": 170, "鞠": 6, "つき": 203, "唄": 114, "四方": 43, "景色": 21, "歌っ": 200, "壊れ": 47, "思念": 5, "塊": 75, "儀": 48, "願い": 126, "授かっ": 32, "仁": 104, "しのぶ": 24, "##代永翼##": 6, "##新谷良子##": 5, "22歳": 53, "一時期": 171, "飯倉": 5, "尋常小学校": 13, "クラス": 714, "学級委員": 6, "神隠し": 7, "遭い": 57, "天狗": 19, "10年間": 70, "育て": 210, "見かけ": 64, "12歳": 67, "華月": 7, "隠さ": 80, "棗": 5, "葉月": 18, "聞き": 115, "お手伝い": 9, "左腕": 64, "かげ": 40, "##石田彰##": 9, "異母兄弟": 11, "瓜二つ": 31, "一度": 183, "生かす": 23, "寿命": 75, "渡し": 145, "ゝ": 34, "法師": 14, "使い果たし": 18, "亡くなる": 81, "はづき": 34, "親": 313, "ハーフ": 51, "人里": 11, "連れ戻さ": 5, "里": 273, "張っ": 60, "壊さ": 24, "重傷": 149, "負っ": 134, "焼か": 26, "逃がし": 14, "斬ら": 14, "落とす": 72, "持ち帰り": 13, "妖怪": 66, "そっけ": 5, "里見": 38, "尾崎": 116, "緋": 16, "ノ": 388, "観月": 8, "四家": 5, "家系": 111, "加護": 17, "司る": 49, "おき": 146, "引き取り": 14, "古城": 23, "建っ": 59, "持ち物": 14, "さとみ": 9, "##神谷浩史##": 8, "特区": 6, "特別": 798, "司祭": 36, "後見人": 16, "八つ": 20, "命じる": 36, "授け": 76, "やつ": 23, "ふさ": 9, "犬神": 6, "巫女": 31, "飼い犬": 12, "守り神": 5, "懐い": 10, "さき": 55, "かなめ": 5, "##浪川大輔##": 8, "妾": 32, "狐": 64, "性格": 916, "健康": 242, "とても": 175, "強烈": 54, "籠": 69, "トラウマ": 24, "フェネ": 8, "泳げ": 14, "カナヅチ": 6, "談": 98, ")。": 520, "本妻": 10, "異母": 53, "笙": 5, "院": 309, "僧": 99, "青蘭": 5, "##竹本英史##": 14, "##杉山紀彰##": 6, "使役": 18, "傷つけ": 27, "村上": 132, "下山": 13, "郎": 253, "匹": 152, "普段": 241, "着物姿": 8, "二足歩行": 12, "見た目": 95, "愛らしい": 10, "危害": 28, "豹変": 9, "殺そ": 33, "傾き": 22, "死人": 13, "追い出さ": 18, "塚": 63, "那智": 21, "ち": 168, "##下野国##": 47, "どうしても": 42, "受け取り": 31, "頼ま": 54, "楓": 34, "帰り": 85, "がら": 49, "半": 376, "身代わり": 14, "隠居": 83, "かえで": 5, "##小野坂昌也##": 5, "尻尾": 31, "二本": 27, "喋る": 40, "邑": 36, "織": 36, "あやね": 5, "みづき": 8, "巳": 16, "15歳": 148, "髪": 234, "瞳": 72, "他人": 133, "敏感": 25, "庭": 142, "特製": 43, "習っ": 20, "響": 47, "ひびき": 8, "大地": 105, "治める": 29, "誇る": 161, "##大蛇##": 13, "冬眠": 8, "面々": 36, "霊": 209, "後者": 204, "真名": 10, "許し": 98, "鱗": 33, "争う": 65, "兵衛": 102, "##星野充昭##": 6, "亭主": 17, "小夜子": 11, "女将": 57, "甘い": 61, "病気": 229, "がち": 102, "乳母": 14, "いろいろ": 96, "ぬい": 7, "同い年": 24, "夫妻": 175, "引き取っ": 24, "養女": 56, "血": 226, "姉弟": 27, "故人": 69, "出兵": 34, "戻る": 308, "孤独": 64, "耐え": 120, "判ら": 8, "知り": 179, "罪悪感": 8, "身投げ": 5, "好ん": 86, "もらっ": 167, "貴": 41, "敦": 31, "たか": 64, "のぶ": 50, "##武蔵国##": 62, "弥": 45, "奈": 47, "守": 172, "早紀": 6, "女学校": 23, "働い": 155, "帳簿": 12, "任さ": 84, "大事": 87, "##小林沙苗##": 8, "16歳": 124, "煉": 5, "美少女": 104, "オタク": 26, "漢方": 10, "腕前": 55, "時に": 169, "勝気": 13, "案じ": 15, "一筋": 26, "合う": 90, "##医師##": 120, "全寮": 11, "同室": 7, "10年前": 23, "両親": 329, "他界": 36, "捨て": 167, "萩原": 30, "健太": 68, "はぎ": 8, "わら": 43, "けん": 118, "12歳。": 5, "疎ま": 14, "長男": 507, "慕っ": 63, "けれども": 31, "いじめ": 57, "遭っ": 52, "秘密": 282, "神父": 51, "あま": 19, "しん": 163, "ぷ": 7, "同左": 10, "老": 75, "お茶": 30, "気に入っ": 63, "征": 52, "まさき": 12, "枢機卿": 10, "リリス": 14, "嬢": 27, "柾": 12, "変わっ": 304, "##大塚芳忠##": 12, "高位": 20, "聖職者": 31, "終始": 50, "マイペース": 22, "弟": 815, "守護": 104, "守護天使": 6, "侵入者": 12, "容赦": 15, "溺愛": 33, "自覚": 63, "どうして": 37, "年上": 73, "優しく": 39, "綺麗": 31, "絶つ": 13, "誰も知らない": 8, "皇族": 51, "皇女": 33, "療養": 61, "人質事件": 5, "名物": 94, "描か": 659, "絵葉書": 7, "お土産": 16, "売ら": 62, "遥か": 55, "怨霊": 11, "八人": 7, "若者": 132, "先祖": 110, "総じて": 22, "ひな": 13, "従妹": 18, "喘息": 6, "陥る": 58, "りき": 17, "##松本保典##": 7, "母方": 74, "伯父": 49, "置": 37, "等身大": 15, "繊細": 35, "変えよ": 12, "引っ越し": 47, "取り戻す": 50, "病": 203, "憑かれ": 11, "一体": 135, "妙": 68, "たえ": 12, "祖母": 126, "仲居": 18, "なつめ": 7, "##佐々木望##": 5, "仕える": 69, "大好き": 133, "房": 85, "毛": 203, "生え": 101, "球体": 29, "手のひら": 19, "浸かる": 8, "見つかり": 27, "投げ飛ばさ": 5, "追いかけ": 44, "やって来": 47, "住みつい": 5, "ナルシスト": 8, "気味": 71, "目玉": 40, "ちょっと": 112, "グロ": 5, "いや": 34, "うさ": 16, "くま": 64, "新市街": 5, "番人": 23, "鈴": 24, "ウサギ": 35, "クマ": 24, "想う": 16, "可愛い": 89, "のに": 256, "中身": 70, "凶暴": 34, "具現": 38, "電撃": 49, "放つ": 216, "熊谷": 47, "すず": 10, "正体": 245, "やな": 16, "##小清水亜美##": 5, "14歳": 80, "双頭": 10, "龍": 123, "片割れ": 7, "宿主": 32, "離さ": 20, "なくなり": 64, "通い": 63, "小早川": 17, "るり": 10, "財閥": 29, "令嬢": 41, "よかっ": 43, "口添え": 5, "シスターズ": 5, "十二": 39, "外れ": 148, "古び": 6, "シスター": 23, "容貌": 28, "花街": 11, "たまに": 25, "昼間": 75, "預かり": 15, "落合": 29, "つぐみ": 5, "臨時": 265, "手伝い": 62, "茜": 80, "あかね": 16, "医者": 112, "事故": 421, "亡くし": 57, "代々": 94, "桜庭": 9, "さくら": 98, "じょうじ": 8, "##檜山修之##": 9, "見習い": 88, "軍医": 10, "あだ名": 86, "ラブ": 79, "テロリスト": 36, "親戚": 74, "姉妹": 258, "##勝生真沙子##": 5, "暗躍": 29, "あお": 13, "欠け": 34, "失": 35, "くし": 33, "呼べ": 7, "呼び名": 68, "告げる": 54, "##日本刀##": 33, "落葉": 12, "ちば": 41, "顔": 712, "左目": 19, "失明": 26, "一週間": 47, "引き換え": 54, "はく": 20, "##皆川純子##": 8, "岡村": 43, "さやか": 34, "金色": 63, "譲り受け": 52, "歩い": 58, "起因": 53, "甘く": 22, "行き場": 8, "宿す": 13, "紺": 27, "こん": 44, "別れ": 155, "懐": 24, "上手": 55, "7歳": 48, "人見知り": 9, "先生": 447, "童話": 20, "牧田": 7, "まき": 39, "執事": 37, "長らく": 163, "振る舞っ": 5, "遠方": 30, "物心": 11, "たつ": 36, "あおい": 32, "古い": 317, "知り合い": 84, "道中": 72, "ちゅ": 72, "だい": 168, "巷": 7, "退治": 73, "数珠": 7, "掛け": 198, "捕え": 26, "封じ込め": 15, "コミックス": 125, "絶版": 34, "88": 230, "20日": 136, "##あすかコミックス##": 6, "既刊": 37, "12月28日": 107, "10月1日": 403, "6月28日": 166, "28日": 137, "12月27日": 114, "##東京メトロポリタンテレビジョン##": 71, "##日本BS放送##": 34, "2期": 243, "総監督": 56, "##薄桜鬼_〜新選組奇譚〜##": 5, "演出家": 27, "##プロジェクト:アニメ##": 248, "ーション": 37, "旧友": 20, "原作": 1098, "/「": 8, "シリーズ構成": 52, "キャラクターデザイン": 198, "デザインワークス": 6, "剛一": 7, "安田": 54, "京": 130, "弘": 43, "荒木": 36, "プロップ": 9, "作画監督": 279, "凱": 9, "美術監督": 37, "松本": 189, "鈴木": 324, "隆文": 5, "岡崎": 51, "えりか": 8, "杉浦": 24, "美穂": 28, "美術": 467, "藤井": 108, "一志": 14, "撮影監督": 38, "3D": 130, "松村": 44, "正宏": 6, "音響監督": 33, "音楽": 1488, "音楽プロデューサー": 36, "岩下": 9, "なつき": 10, "##スタジオディーン##": 6, "##バンダイビジュアル##": 37, "##ランティス##": 27, "##フロンティアワークス##": 8, "##こだまさおり##": 7, "第13話": 73, "未使用": 22, "寿": 100, "第26話": 38, "ふしぎ": 39, "!』": 115, "金曜日": 176, "配信": 614, "ラジオ番組": 108, "##アニメイトTV##": 10, "2月15日": 239, "##ラジオパーソナリティ##": 95, "替わり": 48, "メイン": 483, "0回": 9, "回": 733, "ゲスト": 710, "14日": 145, "##シアターサンモール##": 7, "上演": 139, "浅井": 25, "One": 138, "空想": 27, "組曲": 39, "一座": 22, "田沼": 11, "−": 1502, "千田": 9, "株式会社KADOKAWA": 6, "COMICS": 9, "DX": 103, "振付": 52, "井上": 206, "卓": 32, "DDR": 5, "須田": 24, "田上": 12, "篤志": 12, "照明": 204, "衣裳": 45, "ヘアメイク": 15, "前田": 144, "オペレーター": 53, "志水": 6, "れいこ": 7, "内野": 41, "田島": 42, "誠治": 7, "水木": 43, "福島": 105, "稔": 32, "スペクトル": 25, "菊池": 48, "高良": 18, "康成": 8, "はるな": 17, "平田": 32, "小道具": 41, "装飾": 141, "現場": 342, "佐野": 65, "佐藤": 221, "希": 56, "萌": 72, "法子": 8, "吉野": 68, "美紀": 9, "宣伝": 249, "正田": 12, "綾香": 5, "CLIE": 6, "カメラマン": 55, "刈谷": 33, "賢一": 16, "ロゴデザイン": 9, "グッズ": 93, "ディレクション": 19, "サカキ": 15, "art": 22, "万里子": 5, "天野": 81, "渡邉": 18, "栗原": 42, "アイズ": 8, "カオス": 15, "オフィス": 135, "トップコート": 5, "マサ": 9, "オプション": 179, "50音順": 11, "コミック": 250, "プロダクション": 136, "小川": 113, "安井": 11, "詩織": 12, "製作委員会": 55, "27日": 135, "岡田": 134, "志乃": 26, "竹内": 57, "顕": 44, "本多": 60, "伸一郎": 5, "田原": 46, "聖子": 12, "谷中": 6, "荒井": 28, "studio": 21, "チラシ": 24, "渡邊": 72, "穂": 31, "ジャパン": 174, "エグゼクティブプロデューサー": 24, "コンテンツ": 123, "あの": 216, "雑誌": 697, "まさかの": 14, "リアル": 80, "？": 600, "増刊": 136, "！”.": 182, "Times": 96, "クランクイン": 23, "3日": 191, "j": 793, "l": 657, "n": 2054, "o": 292, "ステージ": 916, "ナタリー": 180, "stage": 32, "身の回り": 17, "世話": 71, "大抵": 62, "狂人": 11, "##2月4日##": 52, "ビジュアル": 35, "12人": 47, "10月27日": 133, "KADOKAWA": 32, "公式アカウント": 16, "きた": 210, "アリー": 9, "##香川県##": 141, "##高松市##": 75, "##倉庫##": 27, "##複合商業施設##": 19, "##高松港##": 6, "トレンド": 27, "スポット": 119, "##ギャラリー_(美術)##": 6, "ブティック": 11, "##カフェ##": 36, "##レストラン##": 54, "雑貨店": 7, "入居": 122, "広場": 318, "##コンサート##": 12, "##貨物##": 23, "一時": 483, "保管": 146, "##本州四国連絡橋##": 9, "残す": 133, "雅子": 36, "地権者": 12, "農業協同組合": 8, "JA": 72, "直角": 39, "並ぶ": 167, "棟": 398, "軸": 310, "敷き": 23, "外観": 139, "内装": 47, "留める": 19, "##港##": 25, "雰囲気": 179, "北浜": 7, "集う": 25, "おさえ": 7, "希望者": 18, "浮上": 95, "所有者": 58, "延床面積": 37, "099": 8, "187": 42, "所在地": 385, "〒": 68, "760": 16, "4番": 161, "14号": 46, "##四国旅客鉄道##": 58, "##高松駅_(香川県)##": 22, "##高松琴平電気鉄道##": 31, "乗り場": 61, "34度": 44, "21分": 15, "7秒": 37, "134度": 8, "5秒": 65, "134": 81, "##イリューシン##": 7, "##スラヴ人##": 16, "##姓##": 58, "創設者": 53, "テスト": 237, "##ウクライナ語##": 23, "##高井田駅_(大阪府柏原市)##": 12, "たかい": 7, "##柏原市##": 13, "大字": 225, "##関西本線##": 24, "Q2": 12, "##大和路線##": 26, "60年": 144, "##8月29日##": 56, "##河内堅上駅##": 12, "##柏原駅_(大阪府)##": 10, "##10月4日##": 59, "23年": 277, "##エレベーター##": 89, "##2月20日##": 45, "##2月21日##": 53, "##みどりの券売機プラス##": 5, "##ホーム有効長##": 7, "6両編成": 19, "130m": 6, "##八尾駅##": 5, "##乗車カード##": 38, "年鑑": 740, "南側": 252, "##大和川##": 18, "##近鉄大阪線##": 16, "資料館": 99, "学院": 99, "循環": 184, "バス": 693, "きらめき": 13, "平日": 308, "18年": 408, "##近鉄バス##": 9, "青谷": 12, "かりん": 5, "おば": 44, "乗り入れる": 31, "城東": 10, "貨物線": 10, "##おおさか東線##": 5, "同線": 39, "乗換": 20, "仮称": 78, "直通快速": 5, "改札": 126, "老朽化": 102, "一旦": 185, "改修工事": 68, "便器": 6, "洋式": 15, "下水道": 8, "接続": 501, "区間快速": 19, "##交通新聞##": 117, "8月31日": 185, "342": 26, "いよいよ": 30, "サービス開始": 67, "いたし": 52, "インターネット・アーカイブ": 9, "時刻表": 173, "9月28日": 164, "##高砂北口駅##": 5, "ぐち": 40, "##高砂市##": 8, "朝日町": 6, "##高砂線##": 16, "##7月10日##": 40, "##高砂駅_(国鉄)##": 11, "##停留所##": 19, "##1943年##": 348, "##戦時買収私鉄##": 7, "無人化": 73, "##単式ホーム##": 121, "有し": 261, "ごろ": 295, "取り壊さ": 37, "正面": 197, "##山陽電気鉄道##": 14, "##加古川駅##": 6, "乗り継ぎ": 19, "駐輪場": 41, "##尾上駅##": 8, "242": 28, "394": 9, "##廃駅##": 48, "Fields": 6, "宮田": 31, "やた": 5, "##10月2日##": 70, "##東京府##": 72, "コンサルタント": 23, "アソシエイト": 10, "客員教授": 45, "生まれる。": 124, "初等教育": 9, "中等教育": 9, "空襲": 56, "勧め": 136, "大学": 979, "パスポート": 12, "1年間": 154, "知人": 60, "経済学部": 29, "##ユニリーバ##": 6, "リサーチ": 57, "支社": 201, "赴任": 105, "来日": 196, "80歳": 14, "報道": 429, "情報番組": 44, "秋": 518, "話す": 160, "##徹子の部屋##": 15, "読ん": 132, "いたこと": 62, "##黒澤明##": 27, "字幕": 38, "追って": 70, "終生": 23, "##関東大震災##": 66, "恐怖": 156, "終戦直後": 16, "##呉市##": 32, "広": 172, "出国": 20, "東京オリンピック": 8, "前年": 329, "相談": 194, "選び": 78, "姓名": 19, "名乗る": 179, "しみず": 14, "ひで": 31, "##マンドリン##": 8, "作曲家": 146, "指揮者": 44, "##大阪市立大学##": 32, "学生時代": 76, "処女作": 9, "動機": 111, "プレリュード": 8, "出世": 52, "音楽界": 11, "再演": 66, "序曲": 20, "コンクール": 86, "技術顧問": 6, "全般": 118, "師事": 149, "EX": 94, "With": 58, "You": 204, "メロディ": 70, "交響": 45, "前奏曲": 8, "オーケストラ": 108, "Access": 13, "変奏曲": 5, "うた": 121, "Life": 212, "抒情詩": 5, "向こう": 63, "あなたへ": 10, "山中": 109, "ゆだね": 9, "合奏": 18, "Campus": 5, "木村": 178, "弓": 72, "Wind": 14, "想い": 156, "はせ": 23, "時代劇": 34, "あなたに": 28, "．": 240, "ショパン": 10, "だから": 51, "っ子": 25, "Dear": 18, "WOMAN": 9, "赤星": 12, "まり": 41, "Beyond": 19, "Sunset": 8, "太郎": 190, "石坂": 7, "慶彦": 5, "ジャニーズ": 15, "楽章": 207, "Claude": 22, "レコード大賞": 11, "メドレー": 46, "こめ": 31, "花束": 18, "熱血": 37, "雫": 14, "夢中": 34, "ぼくら": 22, "ツイッター": 21, "わり": 9, "18枚": 5, "連動": 106, "応募券": 8, "##Xbox_(ゲーム機)##": 7, "eX": 17, "##ジョン・レノン##": 14, "##ポール・マッカートニー##": 17, "##ビートルズ##": 91, "カバー曲": 17, "##SPRING〜start_on_a_journey〜##": 6, "徳田": 19, "とく": 58, "なおみ": 19, "##5月1日##": 122, "##福岡県##": 297, "##身長##": 40, "161": 46, "バスト": 37, "80": 383, "ウェスト": 20, "ヒップ": 34, "靴": 83, "##特技##": 10, "##書道##": 28, "##カラオケ##": 36, "##浪速区##": 5, "人達": 31, "どこか": 119, "懐かしい": 17, "演劇": 170, "ナオミ": 10, "教室": 227, "注い": 48, "##連続テレビ小説##": 68, "1978": 113, "##芋たこなんきん##": 5, "加代子": 10, "2017": 424, "第6話": 165, "絵図": 42, "－": 821, "お姉さん": 57, "##土曜ドラマ_(NHK)##": 15, "##警視庁鑑識班##": 5, "1月8日": 108, "##二十四の瞳##": 7, "##ドラマ30##": 6, "大久保": 42, "早苗": 42, "##月曜ゴールデン##": 33, "遺し": 34, "松子": 5, "##木曜ミステリー##": 9, "##科捜研の女##": 15, "第10話": 104, "恵子": 39, "第24話": 42, "血縁": 12, "1975年": 446, "ABC": 68, "松竹": 42, "女郎": 13, "40周年": 68, "10月30日": 152, "##朝日放送テレビ##": 178, "ローカル": 92, "##部長刑事##": 6, "劇場版": 197, "PAR": 23, "植木": 24, "さよなら": 56, "パーティー": 110, "殺人事件": 132, "東條": 9, "リン": 46, "珍": 60, "念": 99, "とら": 125, "やん": 29, "##大阪ガス##": 13, "っけ": 12, "チェンジ": 20, "チャンス": 102, "☆": 631, "Oh!": 14, "my": 79, "ちゃん": 484, "思": 35, "ギ": 7, "~": 153, "パレード": 55, "ブラボー": 9, "##福岡県出身の人物一覧##": 8, "日誌": 67, "Ameba": 90, "Blog": 101, "所属事務所": 119, "足利": 43, "尊": 230, "あしか": 7, "じ": 266, "##鎌倉時代##": 92, "##室町時代##": 74, "##南北朝時代_(日本)##": 39, "##武将##": 131, "##室町幕府##": 57, "##征夷大将軍##": 65, "在職": 45, "##1338年##": 7, "##1358年##": 5, "##鎌倉幕府##": 66, "##御家人##": 34, "##足利貞氏##": 11, "次男": 298, "##足利将軍家##": 8, "祖": 178, "源": 195, "みなも": 16, "うじ": 30, "##河内源氏##": 20, "##源義国##": 12, "##足利氏##": 61, "宗家": 81, "8代目": 17, "##棟梁##": 5, "当主": 350, "慣例": 34, "に従い": 88, "##得宗##": 13, "##北条高時##": 15, "##偏諱##": 19, "打倒": 51, "##新田義貞##": 42, "同族": 83, "##正慶##": 10, "##1333年##": 14, "##後醍醐天皇##": 56, "##伯耆国##": 26, "挙兵": 71, "幕府軍": 5, "率い": 326, "##上洛##": 15, "##丹波国##": 27, "幕府": 212, "##六波羅探題##": 12, "滅ぼし": 51, "勲功": 13, "諱": 25, "はる": 43, "高氏": 26, "15人": 27, "##建武の新政##": 10, "##公卿##": 37, "発覚": 137, "政情": 15, "不安": 117, "##鎌倉##": 75, "残党": 37, "##北条時行##": 5, "##中先代の乱##": 5, "窮地": 52, "陥っ": 144, "##足利直義##": 83, "救援": 147, "乱": 74, "留まり": 55, "##恩賞##": 8, "配布": 193, "##武家政権##": 6, "構え": 149, "解釈": 282, "天皇": 123, "##建武の乱##": 6, "大勝": 23, "敗北": 274, "都落ち": 6, "##光厳上皇##": 6, "追討": 30, "##院宣##": 6, "発給": 39, "##京都##": 150, "##践祚##": 6, "開い": 221, "降っ": 43, "##吉野##": 5, "##南朝_(日本)##": 31, "創始": 33, "基本方針": 20, "発布": 21, "幕政": 7, "事実上": 304, "保守派": 21, "法令": 99, "側近": 83, "##高師直##": 21, "##崩御##": 62, "弔う": 15, "建立": 217, "尊氏": 25, "##観応の擾乱##": 13, "起こっ": 232, "終息": 17, "##足利直冬##": 13, "奔走": 45, "手腕": 34, "##歌人##": 102, "武家": 64, "執奏": 9, "##後光厳天皇##": 6, "撰": 51, "進": 96, "##勅撰和歌集##": 8, "##1305年##": 6, "確実": 144, "生誕": 90, "##本貫##": 10, "名字": 46, "根拠": 151, "##足利市##": 42, "##上杉氏##": 48, "上杉": 156, "##鎌倉市##": 45, "##日本史##": 8, "研究者": 229, "活動拠点": 29, "見解": 168, "##側室##": 18, "##正室##": 46, "産ん": 36, "##足利高義##": 5, "後世": 84, "##難太平記##": 8, "つかっ": 6, "山鳩": 5, "飛ん": 79, "肩": 143, "止まり": 54, "##1319年##": 5, "ぜ": 118, "##元服##": 31, "賜り": 14, "又": 71, "##嫡男##": 8, "三郎": 75, "決まり": 48, "関わら": 130, "名付け": 227, "遺児": 26, "##家督##": 43, "望ん": 91, "北条氏": 79, "次ぎ": 17, "待遇": 41, "比べれ": 17, "圧倒的": 126, "##執権##": 17, "##元弘##": 21, "##元徳##": 8, "##1331年##": 9, "継い": 259, "継ぐ": 78, "2度目": 217, "倒幕": 7, "派兵": 25, "拠る": 22, "##楠木正成##": 13, "動員": 115, "辞退": 83, "##太平記##": 25, "反感": 41, "##承久の乱##": 7, "大将": 130, "##北条泰時##": 13, "導い": 64, "対外": 33, "務める": 572, "再来": 19, "返せ": 8, "決して": 127, "名声": 49, "本意": 16, "出陣": 50, "##足利尊氏##": 37, "##朝廷##": 38, "挨拶": 107, "さっ": 5, "さと": 31, "呆れ": 21, "させ": 195, "関わっ": 157, "##貴族##": 39, "##僧侶##": 33, "##死刑##": 20, "厳罰": 6, "処さ": 31, "##持明院統##": 7, "##1332年##": 5, "##隠岐島##": 5, "働き": 177, "位階": 9, "報い": 8, "隠岐": 10, "西国": 15, "##足利義詮##": 26, "同行": 110, "ふたり": 85, "残留": 110, "##三河国##": 34, "謀反": 58, "起こす": 185, "腹心": 22, "打ち明け": 23, "被官": 19, "濃密": 6, "海老名": 11, "六郎": 17, "季": 43, "行": 629, "密か": 76, "参": 73, "候": 76, "後醍醐": 17, "戦死": 256, "4月29日": 101, "繋ぐ": 42, "兵": 650, "軍勢": 135, "催促": 10, "発し": 116, "##播磨国##": 41, "##近江国##": 43, "##佐々木道誉##": 13, "糾合": 20, "六波羅": 5, "攻略": 257, "豪族": 50, "##関東##": 37, "##上野国##": 77, "叛乱": 27, "起こり": 192, "追い込ん": 33, "北条": 86, "捕まり": 22, "##梅松論##": 11, "亡父": 6, "法要": 24, "満足": 100, "##建長##": 13, "閑": 13, "造営": 67, "##1275年##": 5, "経済的": 136, "突出": 45, "##吾妻鏡##": 40, "書式": 23, "をめぐって": 95, "争っ": 68, "源氏": 30, "一門": 86, "別格": 14, "変わら": 200, "仲裁": 22, "正当": 74, "裁定": 37, "認める": 149, "記し": 204, "##政権##": 168, "挿入": 126, "##鎮守府将軍##": 6, "##兵衛府##": 18, "##所領##": 12, "##従三位##": 40, "兼ねる": 40, "要職": 31, "就か": 8, "家臣": 265, "送り込ん": 28, "敬遠": 31, "世人": 6, "##陸奥守##": 11, "##北畠顕家##": 6, "任じ": 107, "##陸奥国##": 115, "駐屯": 33, "擁立": 118, "戦功": 44, "あげ": 200, "不遇": 30, "##護良親王##": 5, "敵視": 26, "不安定": 113, "要因": 194, "##建武_(日本)##": 31, "##1334年##": 5, "幽閉": 44, "##1335年##": 8, "##信濃国##": 128, "時行": 5, "占拠": 76, "独断": 31, "##官職##": 14, "向かっ": 408, "やむなく": 34, "駆逐": 67, "回復": 388, "本拠": 90, "置き": 150, "拒ん": 32, "奸": 5, "義貞": 9, "奥州": 16, "赦免": 18, "求めて": 77, "断髪": 7, "劣勢": 44, "救う": 105, "無益": 5, "新田": 128, "破り": 173, "進軍": 57, "正統性": 15, "工作": 113, "##1336年##": 10, "##正月##": 12, "入京": 7, "##比叡山##": 25, "なくし": 21, "攻勢": 62, "晒さ": 28, "1月30日": 195, "2月4日": 94, "筑後": 6, "大友": 24, "2月11日": 153, "##摂津国##": 31, "大敗": 94, "喫し": 145, "兵庫": 63, "退き": 17, "進言": 62, "容れ": 25, "放棄": 163, "下っ": 43, "途上": 42, "##山口県##": 138, "##下関市##": 33, "##筑前国##": 5, "##延元##": 14, "参拝": 36, "初旬": 28, "次郎": 78, "圧倒": 76, "立て直し": 29, "武士": 87, "5月25日": 152, "##湊川の戦い##": 6, "洛中": 5, "遁世": 6, "願望": 21, "夢": 624, "信心": 25, "今生": 5, "総て": 17, "安寧": 7, "趣旨": 72, "願文": 7, "納め": 57, "逃れ": 193, "立てる": 59, "和議": 9, "申し入れ": 48, "##三種の神器##": 6, "譲っ": 59, "中原": 42, "賢": 63, "##源頼朝##": 59, "##大納言##": 32, "##鎌倉殿##": 5, "##奈良県##": 217, "##吉野郡##": 8, "光明": 15, "三種": 7, "偽物": 16, "帯同": 19, "本物": 96, "##北朝_(日本)##": 14, "##暦応##": 6, "名実": 12, "##夢窓疎石##": 7, "供養": 66, "権威": 76, "誇示": 9, "デモンストレーション": 9, "離反": 72, "##貞和##": 6, "攻め落とし": 11, "焼き払う": 9, "政務": 38, "指揮": 596, "握り": 24, "主従": 8, "統治権": 10, "所管": 53, "##岩波書店##": 296, "呼び起こし": 5, "抗争": 119, "##中立##": 5, "逃げ込ん": 26, "邸": 117, "包囲": 160, "求める": 321, "##出家##": 45, "退く": 27, "了解": 21, "思わ": 653, "優柔不断": 10, "呼び戻し": 9, "##鎌倉公方##": 6, "東国": 50, "庶子": 42, "猶子": 5, "##観応##": 8, "##1350年##": 6, "##中国地方##": 23, "遠征": 189, "戻ろ": 8, "##和睦##": 6, "6年": 515, "寵": 12, "童": 62, "代理人": 38, "氏直": 11, "一緒に": 218, "嫌い": 196, "行列": 59, "##里_(尺貫法)##": 11, "2km": 55, "記": 352, "##高氏##": 6, "見捨て": 23, "護送": 13, "恨ん": 13, "補佐": 149, "勝者": 53, "敗者": 27, "失墜": 10, "おかしく": 20, "ところが": 179, "むしろ": 145, "尊大": 7, "振る舞う": 17, "死罪": 10, "流罪": 8, "降参": 11, "##太刀##": 20, "まるで": 63, "振る舞い": 59, "迫力": 22, "一転": 44, "震え": 13, "そもそも": 80, "細かい": 72, "拘ら": 19, "敗戦": 140, "あくまで": 120, "理想": 119, "幾度": 32, "戦乱": 26, "即し": 12, "言い": 184, "難かっ": 5, "続出": 33, "優勢": 53, "ゆく": 160, "続発": 12, "終": 53, "播磨": 13, "佐々木": 119, "赤松": 12, "帰順": 37, "企て": 58, "北陸": 180, "綸旨": 5, "廃": 157, "##東海道##": 91, "##静岡県##": 516, "##静岡市##": 60, "##清水区##": 18, "##小田原市##": 21, "##1352年##": 6, "毒殺": 37, "疑い": 123, "前夜": 42, "薨去": 29, "##文和##": 7, "##1355年##": 10, "嫡子": 52, "共同統治": 12, "通説": 37, "顧み": 17, "##21世紀##": 27, "##森茂暁##": 5, "不在": 107, "破ら": 28, "##新田義興##": 6, "##新田義宗##": 13, "退却": 57, "すぐさま": 27, "##畿内##": 18, "上皇": 20, "##皇太子##": 30, "拉致": 55, "取り戻し": 90, "今度": 106, "うけ": 55, "##1354年##": 5, "奉じ": 19, "撃退": 94, "決戦": 190, "到る": 13, "##東寺##": 12, "本陣": 35, "突撃": 84, "敗走": 28, "討ち": 32, "漏らし": 16, "行なう": 62, "下向": 16, "企てる": 11, "制止": 22, "小路": 38, "##京都市##": 234, "死因": 40, "背中": 136, "条": 446, "##葬儀##": 25, "丁度": 14, "孫": 303, "##足利義満##": 11, "個人的": 32, "親交": 126, "3点": 37, "危険": 297, "あう": 35, "度々": 183, "笑み": 13, "恐れる": 18, "慈悲深く": 7, "恨む": 6, "仇敵": 9, "金銀": 20, "武具": 24, "財産": 112, "勇猛": 14, "矢": 111, "頭上": 31, "危ない": 19, "やはり": 164, "笑っ": 45, "取り合わ": 5, "##源威集##": 5, "危機的状況": 9, "浮かべ": 17, "負けれ": 8, "それで": 31, "近づい": 56, "時機": 7, "教え": 306, "くれれ": 7, "動揺": 72, "著者": 189, "鬼神": 8, "気配": 39, "胆力": 7, "寛容": 20, "走っ": 137, "すれ": 489, "許容": 40, "幕": 148, "閣": 46, "部下": 339, "気前": 6, "良さ": 48, "逸話": 97, "窺い": 9, "##旧暦##": 10, "風習": 34, "流行": 192, "##贈位##": 11, "届け": 66, "届い": 46, "そば": 90, "夕方": 149, "残ら": 33, "姿勢": 200, "功績": 205, "即座": 61, "すでに": 255, "権利": 260, "別人": 71, "史料": 280, "100年": 142, "御前": 15, "即時": 17, "無頓着": 6, "みな": 73, "苦戦": 106, "切腹": 17, "背い": 14, "天下": 78, "べから": 14, "生死": 41, "根源": 26, "切断": 94, "べし": 35, "ゆえ": 155, "振り回さ": 25, "傷つき": 11, "無意識": 21, "苦悩": 41, "背負う": 9, "冷淡": 9, "背景": 328, "実家": 227, "後ろ盾": 25, "子供たち": 177, "守る": 306, "##双極性障害##": 5, "素直": 59, "いざ": 30, "こもっ": 11, "矛盾": 72, "古来": 35, "板挟み": 8, "発狂": 10, "歴": 115, "##足利家時##": 10, "自殺": 123, "曾孫": 32, "血筋": 25, "異常": 232, "評し": 132, "遺伝": 46, "受け継が": 65, "忠誠": 48, "不自然": 29, "精神医学": 5, "患者": 213, "常人": 11, "差別": 71, "偏見": 19, "慎重": 99, "悪さ": 47, "感じる": 84, "##戦後##": 79, "偏向": 21, "先入観": 5, "確証": 21, "14世紀": 23, "引きこもり": 5, "対峙": 83, "やむを得ず": 10, "支持": 468, "厳密": 158, "追認": 9, "くれる": 184, "楽観": 10, "政治体制": 13, "方面軍": 16, "総指揮": 19, "官": 331, "弓矢": 19, "とある": 69, "擾乱": 5, "取ら": 169, "定説": 24, "深化": 6, "質": 160, "呼び方": 34, "拮抗": 18, "平時": 20, "言い難い": 18, "御": 314, "当家": 5, "室町": 16, "殿": 149, "なぞらえ": 19, "三条": 32, "倉": 49, "亀田": 14, "おおよそ": 37, "給付": 25, "##北条義時##": 7, "政治家": 211, "芸術家": 50, "足跡": 50, "名高い": 27, "##連歌##": 6, "句": 65, "入": 182, "専ら": 39, "専念": 119, "和歌": 30, "##永享##": 8, "心境": 30, "詠ん": 18, "いそ": 7, "ぢ": 47, "ひき": 32, "ける": 23, "ほり": 32, "47歳": 7, "迷い": 23, "嘆き": 21, "願っ": 37, "政局": 8, "窺える": 25, "先例": 21, "打ち立て": 17, "源頼義": 5, "父子": 57, "名人": 54, "披露": 505, "倣っ": 36, "学ん": 192, "地蔵菩薩": 7, "絵画": 159, "伝わっ": 86, "扇": 33, "流し": 144, "##真言宗##": 16, "##醍醐寺##": 6, "座主": 6, "崇敬": 18, "護持": 5, "祈祷": 20, "霊力": 12, "の子": 374, "##日野家##": 6, "縁戚": 20, "端緒": 13, "にあたって": 118, "筆": 70, "写し": 37, "写本": 42, "蔵": 184, "##重要文化財##": 87, "##天台宗##": 45, "帰依": 19, "鎮魂": 10, "寺社": 27, "勅命": 11, "受け継い": 50, "##宝戒寺##": 19, "開山": 55, "散逸": 18, "庇護": 40, "##広島県##": 198, "##尾道市##": 29, "奈良": 67, "毘沙門天": 6, "大岩": 8, "重代": 7, "##薙刀##": 8, "##骨喰藤四郎##": 7, "ほ": 68, "かみ": 48, "鑑定": 34, "##4月13日##": 39, "上申": 12, "赤地": 9, "錦": 49, "威": 26, "鎧": 84, "御剣": 19, "也": 61, "黒": 407, "是": 58, "昨日": 27, "進上": 11, "申": 47, "骨": 149, "喰": 11, "同時代": 65, "殿様": 27, "在": 154, "衆": 192, "到": 13, "##長享##": 9, "9代": 46, "征伐": 17, "坂本": 171, "まれ": 92, "##脇差##": 6, "##大日本帝国##": 93, "国宝": 21, "前記": 32, "下る": 42, "8代": 49, "##文明_(日本)##": 30, "##1483年##": 10, "取り立て": 23, "世間": 103, "流布": 33, "名刀": 5, "献上": 73, "とか": 107, "甲冑": 24, "両断": 5, "兜": 20, "袖": 81, "欠": 16, "奉納": 59, "明治": 183, "流出": 83, "##メトロポリタン美術館##": 13, "所蔵": 179, "逆賊": 6, "##江戸時代##": 474, "##徳川光圀##": 5, "##水戸学##": 5, "##朱子学##": 9, "名分": 7, "皇統": 10, "正統": 29, "放逐": 14, "否定的": 14, "観": 159, "##幕末##": 95, "論者": 28, "木像": 5, "1934年": 94, "9年": 462, "##斎藤実##": 9, "##男爵##": 39, "文章": 149, "動乱": 31, "苦難": 19, "苦しみ": 39, "乗り越え": 40, "骨格": 30, "形作っ": 6, "群像": 22, "繋がる": 52, "日本文化": 11, "開創": 10, "過言": 6, "恥じ": 15, "立派": 44, "詳しい": 84, "8年前": 10, "装": 114, "カリスマ": 26, "単に": 230, "給与": 47, "細やか": 9, "観察": 190, "特長": 31, "200年": 29, "報わ": 6, "無気力": 7, "40代": 19, "参与": 16, "劇的": 47, "変わる": 194, "好例": 5, "##今東光##": 9, "毒舌": 15, "』[": 47, "困る": 19, "いれ": 142, "##上杉謙信##": 40, "##武田信玄##": 182, "器量": 17, "##織田信長##": 72, "認めよ": 7, "暗に": 7, "歴史小説": 11, "##井沢元彦##": 6, "とどめ": 43, "突き": 39, "人柄": 31, "##徳川家康##": 125, "センス": 58, "##応永##": 19, "##源義家##": 20, "遺書": 27, "生まれ変わり": 25, "取る": 258, "予言": 47, "代目": 229, "世": 281, "悟り": 30, "縮める": 5, "引き替え": 5, "祈願": 60, "自刃": 29, "まさに": 46, "貞世": 7, "証言": 229, "拝見": 10, "発願": 10, "けり": 20, "信頼": 166, "置ける": 5, "野望": 58, "有り": 51, "使命": 45, "駆ら": 19, "牛耳っ": 5, "疑問": 182, "提起": 31, "故": 145, "仏": 272, "感激": 25, "書簡": 52, "宛先": 8, "従兄弟": 53, "対決": 243, "存在自体": 6, "11歳": 52, "眼前": 7, "本当": 96, "あろ": 182, "はたして": 8, "##川合康##": 5, "義家": 81, "一環": 193, "##京都国立博物館##": 7, "騎馬": 22, "武者": 27, "像": 365, "##松平定信##": 7, "肖像": 62, "武田": 262, "廉": 26, "たけ": 76, "かど": 15, "##安土桃山時代##": 62, "##甲斐国##": 87, "##武田氏##": 146, "18代": 17, "##武田信虎##": 41, "##武田信繁##": 7, "同母": 29, "出家": 61, "軒": 141, "信綱": 19, "号す": 11, "##武田二十四将##": 19, "##天文_(元号)##": 192, "##1541年##": 15, "晴信": 43, "##信虎_(映画)##": 12, "##駿河国##": 51, "##今川義元##": 20, "家督": 161, "相続": 123, "##諏訪氏##": 20, "攻め": 223, "滅ぼす": 34, "17年": 347, "##1548年##": 23, "##高白斎記##": 21, "拠れ": 45, "西川": 72, "所領": 121, "没収": 88, "知行": 30, "取次": 22, "##1551年##": 11, "駿河": 38, "##武田義信##": 11, "正室": 77, "##甲陽軍鑑##": 102, "騎": 95, "家臣団": 31, "鑑": 51, "惣": 38, "人数": 127, "免許": 197, "一門衆": 5, "##武田信豊_(甲斐武田氏)##": 9, "##永禄##": 161, "##1561年##": 26, "##川中島の戦い##": 28, "守備": 202, "##元亀##": 51, "##1570年##": 20, "信濃": 94, "##高遠城##": 12, "##1573年##": 15, "重鎮": 33, "##飯田城_(信濃国)##": 26, "##大島城##": 11, "帰国": 414, "身柄": 26, "居城": 69, "住まわせ": 5, "##天正##": 345, "##1575年##": 35, "##長篠の戦い##": 25, "設楽": 12, "布陣": 21, "大戸": 6, "相": 229, "備": 48, "西上野": 5, "左翼": 47, "箕輪": 9, "城代": 25, "昌豊": 9, "長篠": 17, "##山県昌景##": 24, "二番": 20, "##1582年##": 45, "織田": 58, "徳川": 94, "勢": 176, "##甲州征伐##": 12, "##織田信忠##": 10, "先鋒": 30, "大した": 11, "執拗": 42, "狩り": 91, "##武田勝頼##": 73, "13日": 95, "立石": 21, "##森長可##": 9, "配下": 124, "##享年##": 20, "##甲府市##": 70, "画家": 183, "##甲府##": 17, "重要文化財": 31, "夫人": 333, "重文": 18, "唐": 50, "天神": 27, "##1567年##": 14, "##影武者##": 16, "見分け": 25, "つか": 109, "病死": 77, "内外": 64, "隠す": 43, "引き揚げ": 14, "##北条氏政##": 13, "確かめる": 13, "使者": 126, "欺い": 8, "逍遥": 15, "意味合い": 64, "各務": 9, "豊前": 5, "膝": 50, "名馬": 33, "段": 379, "偽っ": 30, "太刀": 10, "浴びせ": 33, "刺し": 38, "預かっ": 19, "##身延町##": 6, "伝わる": 154, "婦人": 99, "落ちる": 80, "深い": 274, "##高野山##": 44, "成慶院": 13, "##十二天##": 11, "平山": 85, "221": 41, "240": 51, "##神奈川県立歴史博物館##": 8, "名品": 11, "展": 228, "図録": 33, "神奈川県": 43, "文化財": 177, "田沢": 7, "裕": 32, "賀": 34, "384": 9, "平山優": 21, "日本史": 39, "吉川弘文館": 44, "1980年": 468, "東宝映画": 6, "##山﨑努##": 7, "##大河ドラマ##": 125, "##信長_KING_OF_ZIPANGU##": 8, "##風林火山_(NHK大河ドラマ)##": 23, "役と": 5, "譚": 78, "惨": 5, "短編": 188, "ブリッジ": 34, "##コンピュータゲーム##": 99, "7t": 28, "stars": 9, "##トッド・ラングレン##": 8, "##カバー##": 14, "おもいで": 7, "いっぱい": 66, "20枚": 9, "##想い出がいっぱい##": 8, "カバー": 289, "7枚": 51, "##阿木燿子##": 7, "##鈴木キサブロー##": 10, "SMILE": 16, "GO": 92, "HAPPY": 31, "リスナー": 193, "おさむ": 26, "すずき": 41, "##4月25日##": 53, "##放送作家##": 35, "##脚本家##": 49, "##作詞家##": 24, "##タレント##": 212, "##映画監督##": 120, "収": 31, "読み": 291, "ペンネーム": 48, "##安房郡##": 5, "##千倉町##": 6, "##南房総市##": 21, "##大島美幸##": 12, "##明治学院大学##": 10, "中退": 142, "志す": 32, "##太田プロダクション##": 6, "芸人": 185, "審査員": 150, "昌平": 15, "さん": 1351, "気持ち": 184, "ダメ": 56, "お前": 103, "事務所": 643, "##土田晃之##": 6, "##よゐこ##": 18, "しっぽ": 16, "##テレビ番組##": 61, "##ラジオ番組##": 79, "##脚本##": 74, "脚色": 38, "手がける": 88, "出る": 432, "少なかっ": 63, "夫婦": 205, "##コマーシャルメッセージ##": 212, "露出": 93, "##SMAP##": 55, "##キャイ〜ン##": 16, "##ココリコ##": 31, "芸能人": 147, "ブレーン": 17, "ヒット作": 24, "##荒井昭博##": 5, "コント": 58, "生み出し": 109, "##めちゃ×2イケてるッ!##": 12, "##SMAP×SMAP##": 14, "弄ら": 5, "14年": 340, "元日": 16, "65回": 13, "##草彅剛##": 16, "扮する": 22, "池": 164, "鯉": 14, "エサ": 23, "やる": 134, "##香取慎吾##": 12, "妨害": 136, "めげ": 12, "見事": 78, "20点": 5, "満点": 29, "##森三中##": 12, "交際": 115, "酔っ": 17, "せい": 231, "初対面": 27, "大島": 82, "っす": 14, "ノリ": 20, "会う": 63, "たび": 112, "精神的": 53, "見かね": 15, "##村上知子##": 6, "注意": 316, "電話番号": 12, "##婚姻届##": 15, "##ブスの瞳に恋してる##": 10, "##稲垣吾郎##": 9, "主演": 858, "11月22日": 135, "ちゃんこ": 5, "27年": 227, "##ブログ##": 129, "##育児休業##": 5, "曰く": 227, "ッ": 39, "一時的": 127, "待望": 21, "授かる": 10, "##ニッポン放送##": 200, "かけて": 122, "ノーギャラ": 6, "雇っ": 22, "打破": 20, "む": 47, "たん": 57, "##白鵬翔##": 18, "幕内": 20, "祝賀": 26, "力士": 33, "気付き": 29, "##遠藤聖大##": 5, "##大映ドラマ##": 5, "公言": 59, "##テレビドラマ##": 230, "クール": 62, "大映": 13, "評論": 110, "注目": 407, "##中居正広の金曜日のスマイルたちへ##": 11, "##クイズプレゼンバラエティー_Qさま!!##": 6, "##お願い!ランキング##": 5, "##AbemaTV##": 17, "TRIBE": 6, "冠番組": 11, "乙": 51, "##森田一義アワー_笑っていいとも!##": 46, "水曜日": 124, "木曜日": 129, "##笑っていいとも!増刊号##": 10, "日曜日": 150, "##笑っていいとも!特大号##": 7, "年末": 71, "春": 598, "秋の": 66, "改編": 139, "##テレフォンショッキング##": 8, "学年": 185, "2人": 994, "##中居正広##": 31, "##FNSの日##": 15, "007": 161, "##SMAP☆がんばりますっ!!##": 5, "テレ朝": 15, "バラエティ": 72, "境界線": 65, "スペシャル": 737, "TBS": 270, "司会": 491, "ジャッジ": 70, "##エフエム東京##": 104, "##Amazonプライム・ビデオ##": 7, "##『ぷっ』すま##": 7, "正月": 113, "特番": 173, "ようこそ": 34, "!!（": 68, "##もしもツアーズ##": 11, "vol.1": 44, "vol.2": 46, "##ココリコミラクルタイプ##": 13, "黄金伝説": 16, "A級": 59, "##いきなり!黄金伝説。##": 10, "≒": 32, "デキ": 13, "○": 632, "##爆笑問題の検索ちゃん##": 5, "##なるほど!ザ・ワールド##": 11, "祭典": 36, "12月12日": 116, "9月16日": 115, "##人生が変わる1分間の深イイ話##": 7, "##金曜ロードSHOW!##": 6, "人生": 393, "運命": 161, "選択": 585, "996年": 6, "##初詣!爆笑ヒットパレード##": 8, "フライヤー": 5, "若手": 180, "視聴率": 56, "##バイキング_(テレビ番組)##": 9, "会社員": 22, "巡り": 74, "クリスマス": 77, "素敵": 34, "見つけよ": 6, "ディレクター": 297, "くちびる": 7, "24時間": 124, "##ベイエフエム##": 6, "日曜": 327, "デビュー作": 76, "##オールナイトニッポン##": 17, "##槇原敬之##": 7, "##花王##": 29, "共演": 635, "##ミツカン##": 6, "##Ameba_(ネットサービス)##": 7, "##麒麟麦酒##": 20, "##SunSet_Swish##": 5, "本編": 316, "カップル": 41, "前説": 6, "10月2日": 154, "SUNDAY": 8, "8月3日": 137, "##鈴木おさむ##": 33, "フライデー": 7, "ゲスト出演": 205, "STYLE": 78, "J-WAVE": 6, "美幸": 10, "##オールナイトニッポンR##": 5, "番組冒頭": 8, "コール": 115, "赤坂": 43, "9月27日": 155, "レギュラー番組": 63, "引き続き": 305, "##いずみ吉紘##": 5, "ミッキー": 19, "##石井浩二##": 5, "9月26日": 135, "BS-i": 16, "ダブル": 123, "ライフ": 81, "1月7日": 131, "##山おんな壁おんな##": 8, "2023年": 59, "##Netflix##": 29, "プロデュース": 429, "##ジャングル大帝##": 15, "吹き替え": 67, "##新宿スワン##": 6, "アニメ映画": 34, "だって": 30, "ヒーロー": 166, "たかっ": 86, "もしも": 26, "描け": 10, "BOOK": 68, "ACT": 16, "Black": 101, "Cherry": 8, "##なかよし##": 25, "PV": 67, "横顔": 14, "」-": 38, "JAPAN": 117, "Japanese": 61, "FIVE": 11, "合作": 58, "##三瓶##": 7, "days": 25, "DAYS": 9, "ボク": 44, "バカ": 66, "はなし": 35, "JAPANESE": 5, "GIRL": 25, "##菊池桃子##": 24, "青春": 202, "ラブレター": 11, "校歌": 104, "##Kis-My-Ft2##": 6, "＋": 260, "情": 53, "神様": 74, "コネクション": 13, "大吉": 6, "小吉": 5, "まぼろし": 21, "集英社": 80, "ZERO": 30, "怨": 14, "サー": 20, "復讐": 148, "誓っ": 30, "##ぶんか社##": 15, "Digital": 45, "手掛け": 158, "若手芸人": 19, "劇団": 154, "ザ": 157, "座長": 47, "SECRET": 7, "LIVE": 219, "7月1日": 324, "新宿": 153, "ニューハーフ": 5, "ヤクザ": 65, "2日": 184, "5月17日": 103, "枚": 344, "9月8日": 164, "下北沢": 46, "本多劇場": 9, "ホスピタル": 6, "太陽": 204, "エンジェル": 35, "〜』(": 6, "11月30日": 208, "MUSEUM": 18, "原宿": 12, "ゼロ": 128, "春子": 16, "ブック": 91, "トークライブ": 15, "お見合い": 14, "仲良く": 36, "SHOW": 48, "単独ライブ": 15, "##天王洲_銀河劇場##": 12, "7661": 7, "ケチャップ": 8, "痩せ": 32, "いいえ": 5, "国勢調査": 22, "##都築浩##": 5, "##ぴあ##": 23, "ノベライズ": 24, "594": 15, "役に立つ": 16, "せっかく": 6, "嫌わ": 32, "メール": 90, "ワースト": 11, "##扶桑社##": 50, "##マガジンハウス##": 50, "♥": 103, "短歌": 46, "648": 6, "拝啓": 11, "愛しき": 9, "778": 10, "##林真理子##": 10, "禁煙": 32, "##宝島社##": 19, "悩め": 6, "##太田出版##": 16, "3月10日": 122, "7783": 5, "250": 166, "6月17日": 98, "男と女": 19, "##秋元康##": 17, "##朝日新書##": 5, "創っ": 25, "50人": 44, "8月28日": 127, "30代": 29, "――": 298, "ススメ": 18, "##KADOKAWA##": 106, "1月21日": 125, "流儀": 19, "12月23日": 113, "ママ": 113, "早め": 23, "ダイアリー": 12, "渾身": 10, "##幻冬舎##": 55, "3月17日": 131, "11月12日": 132, "1月31日": 165, "ハルカ": 16, "王子": 223, "さま": 94, "単行": 181, "2月18日": 133, "部長": 376, "10月4日": 136, "9月20日": 150, "##スタジオパークからこんにちは##": 8, "注釈": 80, "薄く": 51, "初出演": 41, "##新型コロナウイルス感染症_(2019年)##": 22, "罹患": 21, "ともなう": 26, "休演": 26, "4月6日": 164, "ORICON": 139, "NEWS": 239, "マスメディア": 24, "オンライン": 267, "婚": 28, "結婚後": 48, "別居": 31, "##デイリースポーツ##": 36, "3月22日": 106, "daily": 63, "gossip": 20, "##映画.com##": 22, "eiga": 68, "宴会": 20, "人脈": 25, "入江": 24, "秘話": 33, "##日刊ゲンダイ##": 21, "2月1日": 196, "なぜ": 296, "Ｍ": 13, "愛す": 11, "SNS": 42, "##MANTANWEB##": 11, "オフィシャル": 79, "MV": 30, "絶望": 61, "次世代": 61, "新番組": 34, "始動": 87, "インディアンス": 5, "お笑いナタリー": 28, "owarai": 9, "節目": 46, "伊勢": 50, "結婚式": 119, "描く": 323, "””.": 19, "11月17日": 111, "連続ドラマ": 89, "2月29日": 40, "鈴木浩介": 6, "シアターガイド": 8, "書き下ろし": 86, "!?": 72, "連発": 62, "貧困": 45, "格差": 35, "ホラー": 22, "!”.": 89, "9月21日": 138, "悩み": 94, "コラボ": 86, "JS": 11, "南房総": 14, "来春": 14, "千倉": 15, "10月10日": 176, "htm": 167, "4月13日": 159, "愛憎": 18, "渦巻く": 7, "ナターシャ": 148, "突入": 164, "8月27日": 115, "##高須光聖##": 9, "##細野晴臣##": 21, "名付け親": 21, "浜崎": 12, "Smile": 12, "Company": 120, "Instagram": 138, "御影": 10, "湯": 130, "面白く": 29, "（株）": 177, "代表取締役社長": 113, "日産": 79, "本気": 67, "12年": 466, "7月9日": 118, "CI": 32, "NRA": 19, ".NET": 25, "録": 295, "##精神医学##": 20, "##モノマニア##": 5, "ギリシャ語": 17, "狂気": 35, "思考": 104, "感情的": 10, "感情": 177, "示さ": 182, "没頭": 25, "一般人": 62, "がたい": 34, "価値観": 35, "##公共事業##": 8, "##サブカルチャー##": 9, "熱心": 94, "嗜好": 16, "微妙": 67, "##絹##": 13, "##岩手県##": 133, "##宮城県##": 241, "##ローカルタレント##": 8, "パーソナリティ": 237, "リポーター": 158, "##東武鉄道##": 50, "##特別急行列車##": 32, "##日光市##": 94, "##滝##": 28, "##山##": 168, "##華厳宗##": 9, "##仏教##": 115, "##宗派##": 6, "##経典##": 10, "##寺院##": 107, "##東武日光駅##": 6, "特急列車": 22, "全日本": 111, "##選手権##": 17, "競技": 272, "シンクロナイズド": 8, "スケーティング": 10, "日本代表": 188, "選考": 139, "かね": 95, "##全日本シンクロナイズド・スケーティング選手権##": 9, "同時開催": 5, "28回": 48, "2020": 350, "27回": 44, "2019": 394, "26回": 88, "2018": 560, "25回": 63, "##ネズミモチ##": 5, "鼠": 15, "japonicum": 5, "##樹木##": 7, "紫": 152, "黒色": 58, "熟し": 11, "##果実##": 68, "##ネズミ##": 29, "糞": 16, "連想": 46, "暖地": 10, "自生": 41, "植え": 70, "別称": 40, "##葉##": 216, "似る": 29, "よば": 64, "以西": 60, "##本州##": 54, "##四国##": 79, "##琉球列島##": 12, "##台湾##": 324, "人家": 17, "植栽": 16, "山地": 57, "野生": 110, "##低木##": 7, "枝": 134, "樹": 189, "茎": 34, "灰": 94, "皮": 106, "##対生##": 5, "長さ": 333, "cm": 154, "楕円形": 34, "##葉縁##": 5, "鋸歯": 10, "厚手": 6, "革質": 11, "つや": 9, "##葉柄##": 6, "##ミリメートル##": 83, "mm": 178, "紫色": 39, "帯びる": 15, "##花序##": 25, "円錐": 70, "咲かせ": 10, "目立つ": 101, "つく": 186, "特有": 71, "異臭": 7, "径": 131, "冠": 106, "四つ": 57, "割れ": 36, "雄しべ": 8, "対面": 56, "出て": 157, "まっすぐ": 33, "真っ白": 14, "散らばっ": 15, "遠目": 7, "結実": 11, "落": 31, "棒状": 19, "粉": 42, "吹い": 19, "##トウネズミモチ##": 10, "薬用": 29, "樹皮": 25, "観賞": 35, "潮風": 7, "煤煙": 6, "日照": 5, "土質": 12, "劣悪": 22, "耐える": 29, "堅": 29, "強": 284, "防風": 6, "穴埋め": 17, "つぶし": 13, "var": 50, "丸く": 31, "詰まっ": 21, "園芸": 47, "乾燥": 113, "貞子": 14, "わに": 14, "じょ": 21, "称する": 171, "##生薬##": 5, "滋養": 5, "強壮": 8, "##漢方薬##": 11, "血管": 18, "コレステロール": 5, "沈着": 9, "抑制": 116, "予防": 60, "##民間療法##": 6, "虚弱体質": 6, "保健": 78, "##グラム##": 234, "##立方センチメートル##": 6, "煎じ": 9, "汁": 53, "水性": 5, "エキス": 12, "服用": 17, "老化": 5, "薬草": 24, "視力": 21, "減退": 15, "胃腸": 5, "冷え": 13, "やすい": 435, "##禁忌##": 6, "焼酎": 7, "リットル": 26, "浸し": 18, "3か月": 55, "寝かせ": 7, "つくり": 53, "毎晩": 11, "就寝": 13, "盃": 17, "1杯": 10, "飲む": 73, "茶": 100, "同属": 23, "生える": 38, "あちこち": 34, "本種": 139, "厚く": 52, "##葉脈##": 7, "脈": 51, "透け": 10, "球形": 25, "野外": 68, "やっかい": 5, "脱落": 55, "離": 44, "薬品": 29, "##季語##": 16, "##冬##": 12, "以北": 85, "米倉": 48, "浩司": 49, "梶田": 36, "-).": 25, "Thunb": 16, ".”": 572, "BG": 39, "Plants": 57, "インデックス": 46, "YList": 36, "153": 65, "##永岡書店##": 12, "川原": 22, "126": 82, "好": 113, "224": 39, "フィールド": 112, "7月20日": 120, "11月10日": 143, "使い方": 60, "ひと目でわかる": 8, "健康法": 7, "ガイドブック": 39, "5月10日": 154, "522": 26, "##1911年##": 128, "44年": 123, "##11月5日##": 50, "##王寺駅##": 46, "信号所": 12, "##1922年##": 210, "信号場": 13, "格上げ": 18, "48年": 76, "接し": 159, "##天王寺駅##": 6, "トイレ": 133, "汲み取り": 5, "17時": 39, "8時": 60, "窓口": 141, "##奈良駅##": 47, "県境": 41, "山間部": 35, "土手": 11, "##サクラ##": 39, "開花": 37, "ライトアップ": 19, "##ベルトコンベア##": 8, "積載": 40, "引込み線": 5, "コンベア": 9, "支柱": 26, "コンクリート": 60, "遺構": 49, "放置": 84, "##三郷駅_(奈良県)##": 9, "終着": 43, "亀": 33, "瀬": 26, "##JR難波駅##": 6, "全通": 38, "鉄道事業": 16, "＞": 298, "ロケーション": 6, "主たる": 39, "置く": 379, "##政治団体##": 9, "基盤": 173, "党首": 65, "党": 301, "色彩": 44, "##社会民主連合##": 6, "##自由連合_(日本)##": 28, "##山口市##": 11, "議会議員選挙": 11, "公認候補": 23, "諸派": 5, "##宇部市##": 9, "選挙区": 75, "く": 213, "##:w:Osmanthus##": 14, "和名": 88, "漢字表記": 21, "##属_(分類学)##": 152, "##高木##": 8, "##雌雄異株##": 6, "単": 115, "柄": 114, "腋": 12, "束": 33, "生": 732, "裂": 17, "筒": 50, "##子房##": 5, "上位": 262, "ふつう": 35, "##種_(分類学)##": 239, "アジア": 253, "Don": 80, "P.S.": 7, "Green": 43, "insularis": 5, "Koidz": 11, "絶滅危惧": 42, "IB": 14, "EN": 18, "Nakai": 13, "et": 350, "ori": 5, "VU": 12, "fragrans": 5, "Makino": 11, "シロ": 23, "準": 146, "NT": 14, "佐竹義輔": 5, "木本": 18, "平凡社": 108, "-)「": 5, "うけい": 15, "##東海ラジオ放送##": 35, "##中央競馬##": 52, "レース": 423, "##中京競馬場##": 15, "実況中継": 12, "若干": 203, "解説者": 34, "流さ": 118, "実況": 206, "スポーツ": 461, "余裕": 72, "スタジオ": 534, "パーソナリティー": 44, "?]": 68, "##土曜日##": 139, "重賞": 84, "前提": 161, "##高松宮記念_(競馬)##": 15, "##金鯱賞##": 18, "##愛知杯##": 6, "##チャンピオンズカップ_(中央競馬)##": 5, "##G1_(競馬)##": 10, "音声": 218, "##大阪放送##": 44, "モニター": 69, "画面": 471, "通じて": 7, "録音": 376, "番組編成": 16, "見送り": 22, "自社制作": 63, "プロ野球中継": 7, "裏送り": 7, "見送っ": 27, "直球": 15, "##成東城##": 6, "とうじょ": 8, "##山武市##": 10, "##日本の城##": 30, "##千葉氏##": 38, "南郷": 7, "常": 94, "築城": 96, "##1530年##": 9, "##享禄##": 6, "再興": 100, "その子": 45, "胤": 65, "定": 88, "八郎": 84, "##1590年##": 41, "##小田原征伐##": 29, "落城": 43, "戦役": 24, "以": 174, "って": 310, "入城": 54, "##1620年##": 13, "##元和_(日本)##": 60, "移": 81, "封": 191, "##廃城##": 11, "右岸": 49, "丘陵": 49, "土塁": 22, "五つ": 27, "##主郭##": 8, "祭ら": 9, "東端": 54, "郭": 79, "台地": 57, "堀": 90, "北西": 151, "西方": 98, "合せ": 15, "西端": 45, "櫓": 72, "二重": 84, "遮断": 46, "北東": 172, "拡がっ": 5, "宅地": 40, "##日本の城一覧##": 23, "##4月6日##": 76, "##9月28日##": 69, "##日本テレビネットワーク協議会##": 71, "全国ネット": 50, "深夜番組": 22, "放送枠": 57, "##プラチナイト##": 8, "参加者": 124, "キャッチコピー": 79, "##中島知子##": 8, "印象": 170, "薄かっ": 8, "男女": 194, "裁く": 8, "付き合う": 12, "##オセロ_(お笑いコンビ)##": 7, "ナレーター": 95, "ウォッチャー": 6, "##フットボールアワー##": 15, "小野": 90, "坂田": 33, "康子": 15, "TM": 33, "##福王寺貴之##": 5, "SW": 45, "村松": 23, "CAM": 20, "津野": 12, "祐一": 18, "AUD": 6, "瀧": 10, "健太郎": 23, "久": 59, "VE": 29, "塩原": 8, "益": 34, "VTR": 179, "今野": 19, "LD": 22, "小笠原": 46, "雅登": 5, "LO": 16, "星野": 70, "大道具": 35, "祥": 16, "電飾": 17, "米山": 12, "持": 116, "晃一": 5, "美和": 18, "平井": 51, "花": 605, "飾": 42, "熊田": 6, "康夫": 11, "結髪": 5, "メイク": 49, "静子": 17, "技術協力": 40, "##日本テレビアート##": 14, "クリエイティブ": 31, "OP": 197, "##フォーミュレーション##": 5, "音効": 25, "高取": 9, "謙": 28, "長谷川": 52, "和美": 25, "広報": 281, "梶原": 21, "美緒": 60, "AD": 129, "竹下": 13, "デスク": 54, "呉羽": 5, "あゆみ": 139, "##日企##": 10, "##創輝##": 7, "首藤": 7, "由紀子": 17, "加藤": 184, "義明": 18, "高橋": 340, "武井": 5, "正弘": 9, "面高": 6, "宇佐見": 5, "教": 130, "小島": 77, "俊一": 17, "チーフプロデューサー": 59, "##梅原幹##": 5, "著作": 324, "榎本": 19, "丈": 54, "藤岡": 31, "絵里子": 5, "大矢": 5, "晃": 28, "12月31日": 174, "##セカンド・ライン##": 10, "second": 19, "line": 26, "##ルイジアナ州##": 24, "##ニューオーリンズ##": 71, "##ニューオリンズ・ブラスバンド##": 12, "生み出さ": 71, "リズム": 100, "ビート": 34, "称さ": 252, "##ジャズ##": 129, "##リズム・アンド・ブルース##": 33, "##ファンク##": 10, "##ジャズ葬##": 6, "葬儀": 67, "歩く": 112, "ファースト": 61, "遺族": 72, "奏でる": 22, "魅せ": 20, "参列": 34, "重々しい": 7, "葬送": 5, "賛美歌": 5, "墓地": 85, "棺": 22, "運ん": 60, "埋葬": 121, "帰路": 26, "賑やか": 7, "活気": 25, "スウィング": 7, "賛美": 7, "スピリチュアル": 5, "ポピュラー": 38, "ホット": 39, "移り": 147, "盛り上がっ": 26, "墓場": 16, "悼む": 17, "明る": 23, "天国": 63, "祝う": 32, "込め": 101, "楽しむ": 129, "練り歩く": 6, "通行人": 15, "踊り": 91, "ハンカチ": 8, "振り": 138, "傘": 37, "盛り上げる": 6, "##アフリカ系アメリカ人##": 20, "コミュニティー": 15, "根ざし": 8, "生活支援": 5, "手配": 34, "取り仕切っ": 8, "守護者": 8, "健在": 52, "切り離し": 12, "##ニューオーリンズ・ジャズ&ヘリテッジ・フェスティバル##": 5, "と死": 30, ".new": 24, "power": 14, "History": 249, "Second": 52, "Line": 30, "Orleans": 17, "Block": 7, "Parties": 11, "Motion": 13, "Parade": 8, "博司": 7, "ひろし": 38, "1970年代後半": 18, "##スピードスケート##": 12, "制す": 14, "1979年": 438, "選手権": 258, "世界選手権大会": 14, "個人総合": 25, "メダリスト": 58, "銅": 97, "快挙": 37, "女王": 134, "輝き": 43, "びっくり": 29, "スポーツ報知": 42, "hochi": 21, "OHT": 21, "6月11日": 89, "さんご": 5, "##生駒郡##": 11, "##三郷町##": 8, "丁目": 250, "請願": 49, "碑": 104, "##2月13日##": 33, "##2月14日##": 50, "##10月22日##": 42, "大雨": 46, "氾濫": 32, "8両編成": 24, "跨線橋": 35, "単式": 30, "複合型": 12, "をもって": 209, "市販": 83, "JR時刻表": 9, "改札機": 38, "精算": 25, "機器": 249, "2019年度": 58, "036": 13, "##国道25号##": 8, "何度も": 10, "##地滑り##": 5, "不通": 22, "分断": 68, "出口": 113, "乗降": 90, "##大晦日##": 19, "曲線": 63, "不可解": 22, "わたる": 80, "対策": 437, "交番": 141, "##日本郵便##": 76, "豪雨": 36, "決壊": 19, "運休": 140, "##奈良交通##": 12, "統": 71, "にあたる": 199, "湊": 29, "341": 16, "令和2年度": 17, "運輸": 297, "xls": 14, "##同人サークル##": 5, "##NEC##": 9, "##PC-8800シリーズ##": 28, "スクロール": 36, "##シューティングゲーム##": 45, "本作": 1245, "##コミックマーケット##": 14, "頒布": 20, "ゲームデザイナー": 12, "長野": 185, "入社": 388, "往年": 26, "復刻": 65, "ゲーム内容": 10, "パワーアップ": 63, "アイテム": 409, "ショット": 129, "クリア": 310, "オーソドックス": 14, "自機": 88, "残": 80, "失う": 98, "ゲームオーバー": 47, "弾": 407, "テキスト": 113, "描画": 56, "稼い": 27, "崎元": 6, "今作": 165, "FM音源": 6, "ドライバ": 12, "鳴らさ": 10, "内蔵": 136, "フル": 101, "使い": 299, "SSG": 5, "鳴らし": 31, "1ch": 6, "効果音": 38, "モード": 468, "シンセ": 7, "ドラム": 114, "珠玉": 6, "深み": 14, "ノイズ": 105, "ラップ": 59, "音色": 34, "ステレオ": 26, "ミュージック": 180, "さらなる": 54, "BGM": 174, "ゲームソフト": 77, "ファミコン": 26, "STAGE": 30, "気に入り": 34, "デモ": 185, "岩田": 49, "曲名": 44, "余談": 8, "Doll": 6, "味わい": 27, "質感": 12, "硬い": 48, "コピー": 106, "パッチ": 23, "マスター": 211, "ラスボス": 8, "到達": 218, "ダメージ": 336, "一説": 70, "FROM": 12, "##サウンドトラック##": 35, "##コンパクトカセット##": 9, "オープニングデモ": 6, "F5": 22, "押す": 59, "両名": 23, "ディープ": 11, "ライナー": 51, "楽しめる": 60, "いきなり": 73, "押し": 157, "起動": 90, "プログラマー": 31, "イニシャル": 21, "エッチ": 25, "しばらく": 228, "鳴り": 25, "連射": 33, "ポーズ": 52, "オート": 51, "難易度": 159, "蘇る": 31, "PC-9801": 75, "永久保存版": 14, "第2弾": 71, "ASCII.jp": 11, "3月23日": 178, "眠れる": 7, "名作": 74, "オールド": 14, "移植": 164, "匠": 23, "電": 148, "気鋭": 5, "】”.": 57, "ファミ通": 32, "9月23日": 103, "youtube": 46, "watch": 58, "w": 214, "1月2日": 167, "清水": 183, "澄子": 10, "##参議院議員##": 39, "##位階##": 20, "##従四位##": 55, "##社会民主党_(日本_1996-)##": 29, "日朝": 18, "国交": 41, "正常化": 15, "##福井県##": 175, "進学": 382, "在学中": 115, "##空襲##": 45, "労働組合": 19, "評議": 18, "日本婦人会議": 6, "事務局長": 66, "##秘書##": 20, "常任": 50, "顧問": 194, "##さいたま市##": 26, "連合": 215, "##第15回参議院議員通常選挙##": 5, "比例代表": 6, "社会党": 16, "局長": 132, "##1995年##": 774, "##北京市##": 60, "##非政府組織##": 8, "世話人": 8, "##第17回参議院議員通常選挙##": 9, "副": 361, "##第19回参議院議員通常選挙##": 8, "政界": 60, "アイ": 47, "日本女性": 6, "84歳": 8, "歿": 5, "##夫婦別姓##": 26, "##人権##": 15, "別姓": 8, "法律上": 26, "子ども": 184, "不条理": 9, "いつ": 119, "しろ": 69, "でしょ": 73, "1946年": 105, "民法": 19, "宿題": 5, "くらし": 35, "平和": 217, "ジェンダー": 25, "題し": 129, "##石原慎太郎##": 26, "知事": 269, "##上田清司##": 6, "男女共同参画": 5, "##参議院##": 81, "##慰安婦##": 93, "##強制連行##": 22, "##厚生省##": 35, "担当者": 49, "答弁": 21, "実態": 126, "3月21日": 424, "予算委員会": 7, "残念": 28, "コリア": 7, "研究所": 481, "所長": 141, "会談": 70, "挺対協": 18, "３": 215, "北朝鮮": 85, "シンポジウム": 58, "平壌": 9, "賠償金": 6, "南北": 205, "共闘": 57, "三木": 33, "元首相": 17, "海部": 5, "首相": 163, "ビザ": 15, "降り": 128, "発起人": 34, "自宅": 287, "９月": 9, "本格的": 115, "動き出し": 18, "機関紙": 17, "謝罪": 96, "もとづく": 13, "疑惑": 76, "自分自身": 57, "清算": 37, "同列": 7, "同月": 148, "##北朝鮮による日本人拉致問題##": 11, "##質問主意書##": 5, "失踪": 75, "事情聴取": 7, "捜査": 232, "総合的": 21, "承知": 18, "酷似": 57, "日本人女性": 7, "抽出": 74, "同人": 49, "生年月日": 19, "引き出し": 38, "##外務省##": 64, "訪問": 274, "在日": 28, "##朝鮮人##": 5, "厳格": 56, "保障": 59, "講じる": 13, "朝鮮": 177, "外相": 21, "宛て": 62, "早期": 93, "要望書": 22, "植民地支配": 11, "正常": 56, "直ちに": 67, "侵害": 51, "遺骨": 23, "問題解決": 14, "訴え": 174, "##戦争責任##": 5, "追及": 56, "##護憲##": 5, "ネットワーク": 254, "##フェミニズム##": 17, "市民運動": 7, "朝鮮半島": 34, "問い": 33, "実行委員長": 8, "200人": 68, "100周年": 80, "委員長": 186, "医療": 189, "私たち": 86, "綱領": 24, "無償化": 5, "署名運動": 5, "呼びかけ": 104, "##大宮市##": 6, "##朝日新聞##": 532, "訴訟": 120, "支える": 105, "国会": 102, "６": 75, "平成": 211, "）[": 137, "本年": 13, "来年": 37, "０": 204, "英子": 21, "しし": 9, "いこ": 50, "##8月19日##": 55, "世界チャンピオン": 12, "女子": 765, "500m": 56, "1000m": 9, "1500m": 21, "3000m": 10, "リレー": 40, "5種": 17, "逃げ切り": 9, "金メダル": 126, "銀メダル": 115, "五輪": 49, "延ばす": 6, "コツ": 21, "ベースボール": 25, "マガジン": 89, "japan": 45, "12月26日": 102, "白金": 13, "今昔物語": 9, "神崎": 35, "たろ": 69, "武将": 69, "莫": 13, "##阿久根市##": 30, "居": 183, "司": 97, "嘉": 15, "のっ": 19, "阿久根": 14, "バク": 16, "ネ": 18, "祢": 5, "##平家##": 12, "くむ": 9, "##大宰府##": 5, "従五位下": 13, "##肥前国##": 11, "領し": 9, "両院": 5, "成道": 6, "平安": 26, ")～": 13, "##文禄##": 39, "1593年": 6, "治め": 37, "領地": 81, "##家老##": 93, "順応": 15, "14代": 27, "世襲": 36, "断絶": 67, "殉じ": 5, "永年": 11, "末裔": 66, "山崎": 136, "大隅": 8, "平": 185, "成": 113, "秀": 48, "##漫画家##": 162, "##コミックビーム##": 11, "##ハルタ_(漫画誌)##": 8, "6月19日": 127, "ギャラリー": 69, "禁制": 25, "署": 79, "罪状": 15, "起訴": 51, "全面的": 48, "懲役": 42, "執行猶予": 25, "下さ": 43, "控訴": 30, "刑": 84, "##エンターブレイン##": 36, "##メディアファクトリー##": 27, "5巻": 129, "休止": 304, "虫": 89, "ジゼル": 5, "友達": 139, "なんて": 47, "Vol.1": 86, "淑女": 6, "ドレス": 32, "着替え": 26, "痴女": 23, "短編集": 114, "寒く": 9, "園": 150, "99": 188, "マコト": 15, "産経新聞": 79, "裁判": 236, "ツイート": 140, "12月24日": 126, "編集者": 78, "Santa": 57, "Maria": 101, "##カタルーニャ州##": 9, "##修道院##": 34, "##バルセロナ##": 15, "伯": 198, "##アラゴン王国##": 14, "1835年": 11, "荒廃": 56, "行なわ": 168, "修道士": 17, "デジタル大辞泉": 30, "公式ウェブサイト": 299, "政府観光局": 11, "かま": 26, "がり": 40, "うど": 8, "##蒲刈町##": 12, "##上蒲刈島##": 6, "##下蒲刈町##": 9, "##広域農道##": 5, "##安芸郡_(広島県)##": 6, "分散": 67, "果": 56, "##三之瀬##": 9, "農協": 23, "田戸": 7, "農家": 78, "##広島県道287号上蒲刈島循環線##": 5, "挟む": 19, "403": 11, "中央部": 131, "最短距離で": 6, "縦貫": 19, "全線": 341, "駐車": 43, "アプローチ": 86, "10%": 52, "勾配": 68, "カーブ": 97, "トンネル内": 8, "歩道": 80, "幅": 411, "車道": 44, "大浦": 16, "県道": 179, "58年": 70, "##蒲刈大橋##": 5, "##沖縄県##": 358, "##宮古島市##": 27, "690": 15, "橋上": 15, "西詰": 12, "直進": 43, "向": 58, "浜": 73, "バス停": 324, "54年": 54, "早かっ": 11, "小刻み": 7, "見通し": 58, "石畳": 7, "舗装": 38, "幹線道路": 29, "バイパス": 178, "路線バス": 93, "至近": 49, "19年": 406, "ようやく": 159, "駐車場": 195, "帰省": 22, "狭め": 7, "通る": 233, "自動車": 317, "行ける": 45, "ネック": 28, "新開": 7, "550": 31, "掘削": 30, "着工": 193, "具体": 138, "休憩": 54, "詰": 17, "海人": 15, "物産": 49, "##浄土真宗##": 31, "実業家": 81, "Les": 85, "Films": 22, "##映画会社##": 5, "配給会社": 6, "##ヌーヴェルヴァーグ##": 7, "立役者": 7, "ひとり": 153, "##エリック・ロメール##": 5, "##映画プロデューサー##": 33, "##バーベット・シュローダー##": 6, "菱形": 15, "##パリ##": 310, "22番": 20, "Pierre": 29, "er": 49, "Paris": 103, "42歳": 28, "ロメール": 14, "21歳": 61, "六つ": 57, "訓話": 10, "45分": 69, "中編": 12, "##ドキュメンタリー##": 63, "地中海": 19, "##シネマテーク・フランセーズ##": 14, "理事会": 39, "役員": 200, "映画界": 26, "80本": 5, "全作": 8, "映画作家": 6, "ゴダール": 9, "FILMS": 9, "DU": 10, "HOME": 21, "ふじの": 24, "##豊橋市##": 72, "##私立学校##": 34, "##高等学校##": 294, "girls": 18, "high": 24, "school": 19, "女子高": 14, "##1902年##": 90, "35年": 84, "##4月8日##": 55, "豊橋": 26, "裁縫": 17, "##1948年##": 267, "##3月31日##": 291, "食物": 37, "家政": 18, "##普通科_(学校)##": 71, "科目": 62, "福祉": 89, "##看護師##": 33, "##茶道##": 48, "##華道##": 16, "##英会話##": 6, "授業": 267, "特進": 26, "コース": 752, "国公立大学": 8, "##家庭科##": 10, "##調理師##": 5, "出席": 175, "日数": 62, "なけれ": 739, "免除": 55, "合格": 268, "資格": 267, "運動部": 21, "文化部": 26, "全国": 1161, "全国大会": 77, "63回": 10, "藤": 36, "新入生": 16, "鑑賞": 109, "##運動会##": 20, "##修学旅行##": 15, "##豊橋鉄道##": 6, "路面電車": 17, "宮沢": 24, "愛知": 33, "朝日新聞デジタル": 60, "中卒": 6, "教育施設": 8, "##日本の家庭に関する学科設置高等学校一覧##": 5, "##パーソンカメレオン##": 5, "##学名##": 99, "parsonii": 6, "##トカゲ##": 19, "##固有種##": 416, "ペリネ": 5, "メートル": 438, "オス": 81, "吻端": 6, "突起": 44, "メス": 100, "黄色": 156, "淡": 24, "青緑": 6, "クレスト": 14, "##1913年##": 116, "河川": 185, "降雨": 22, "食性": 34, "##昆虫##": 96, "爬虫類": 20, "卵生": 16, "亜種": 46, "飼育": 139, "カメレオン": 17, ")」『": 70, "クリーパー": 7, "12号": 59, "両生類": 11, "CITES": 9, "homepage": 11, "Appendices": 5, "##グラフ理論##": 32, "##最短経路問題##": 10, "いたん": 7, "problem": 11, "重み": 20, "最小": 86, "頂点": 76, "始点": 18, "##アルゴリズム##": 39, "Single": 58, "Source": 11, "Path": 5, "解く": 52, "がよく": 36, "Pair": 6, "減らす": 58, "最短": 143, "イントロダクション": 7, "{\\": 2797, "displaystyle": 1719, "}": 1859, "辺": 60, ")}": 172, "\\": 2166, "mathrm": 277, "{": 2685, "∈": 97, "≠": 22, "neq": 15, ")=": 94, "とおく": 5, "min": 28, "∣": 11, ")=\\": 54, "\\{\\": 7, ")+": 68, ")\\": 213, "mid": 15, "\\}}": 26, "速く": 54, "身近": 59, "応用": 140, "所要時間": 53, "エッジ": 37, "##NP完全問題##": 14, "##巡回セールスマン問題##": 7, "##NP困難##": 25, "K.": 225, "Kurt": 5, "James": 105, "Robert": 121, "April": 46, "Journal": 201, "ACM": 6, "213": 42, "223": 52, "1145": 5, "hdl": 15, "mi": 43, "l/c": 15, "bin": 11, "Richard": 88, "On": 155, "Quarterly": 10, "Applied": 20, "Mathematics": 35, "87": 205, "90": 265, "MR": 32, "January": 327, "1960": 80, "Route": 5, "through": 15, "Network": 47, "Management": 59, "Science": 135, "190": 46, "Johnson": 41, "Jr": 25, "1957": 71, "Investigation": 7, "Model": 36, "Techniques": 6, "Annual": 24, "Repo": 53, "rt": 76, "June": 42, "1956": 52, "July": 49, "Study": 24, "Systems": 33, "Cleveland": 6, "Ohio": 6, "Case": 27, "Institute": 94, "Technology": 49, "予報": 24, "テン": 47, "パーセント": 11, "あめ": 11, "5枚": 55, "##3月25日##": 86, "発売元": 111, "##みゆき_(漫画)##": 10, "##中学校##": 288, "##音楽_(教科)##": 6, "選曲": 64, "幅広い": 118, "放送権": 13, "##薬師丸ひろ子##": 8, "##映画##": 906, "スマッシュヒット": 11, "起死回生": 7, "狙い": 58, "作詞作曲": 15, "放送開始": 194, "6位": 114, "累計": 72, "売上": 160, "ヒット曲": 57, "チャートイン": 10, "知名度": 106, "引き上げ": 73, "ジャケット": 146, "イラスト": 306, "表裏一体": 6, "暫く": 22, "##7月21日##": 49, "##ザ・ベストテン##": 10, "今週": 37, "スポットライト": 9, "初登場": 362, "9位": 72, "##9月29日##": 65, "位": 549, "翌週": 47, "##10月6日##": 46, "10位": 75, "自分たち": 127, "抱く": 79, "手放し": 14, "新曲": 90, "思い起こさ": 6, "切ない": 5, "恋心": 29, "脱却": 22, "苦しん": 37, "後期": 385, "及ば": 57, "全盛期": 43, "バンド": 435, "##J-POP##": 32, "ジャンル": 216, "ヒットチャート": 6, "デュオ": 36, "蔭": 8, "みせ": 34, "##アミューズ##": 6, "マネージャー": 135, "変わり": 145, "##1月25日##": 43, "##コンパクトディスク##": 128, "両A面": 6, "思い出": 128, "再発売": 17, "c/w": 26, "次作": 26, "##アニメソング##": 21, "史上": 279, "##歌謡曲##": 26, "一曲": 9, "視聴": 136, "##教科書##": 22, "##キヤノン##": 60, "##プリンター##": 10, "CMソング": 88, "20年後": 8, "##サントリーフーズ##": 6, "##ボス_(コーヒー)##": 9, "懐かし": 39, "缶": 124, "パック": 84, "箱": 208, "1枚": 160, "8cm": 20, "貼付": 14, "30曲": 9, "第1弾": 73, "##香川照之##": 7, "おとな": 18, "サビ": 45, "香川": 42, "##萩田光雄##": 9, "テ": 58, "##山川啓介##": 8, "1968": 69, "チャート": 150, "インタラクティブ": 12, "別冊": 132, "##ザテレビジョン##": 20, "ポップス": 37, "HIT": 27, "ヒストリー": 20, "453": 12, "101": 163, "102": 112, "##9月22日##": 38, "放送回": 46, "パブリッシング": 16, "歌い": 115, "継が": 26, "名曲": 70, "10000": 22, "アソシエイツ": 5, "367": 25, "ユニバーサルミュージック": 10, "販売促進": 14, "##May_J.##": 6, "カバーアルバム": 35, "第3弾": 35, "歌う": 210, "1月5日": 142, "たじ": 7, "##パロディ##": 37, "##4コマ漫画##": 27, "##ギャグ漫画##": 9, "##月刊少年エース##": 6, "角川書店": 39, "4巻": 149, "シュール": 8, "コミカル": 24, "キュート": 6, "作風": 94, "アレンジ": 216, "サイ": 29, "チョコ": 30, "1巻": 350, "サイコ": 6, "原作者": 50, "あとがき": 44, "作者": 305, "所々": 21, "謎解き": 14, "雨宮": 21, "一彦": 11, "ひこ": 42, "伊園": 10, "パシリ": 11, "不幸": 78, "重なり": 33, "支給": 89, "食事": 163, "メニュー": 102, "誤っ": 94, "割ら": 6, "ハゲ": 14, "西園": 8, "肉体": 127, "内包": 45, "伸二": 37, "にし": 81, "しんじ": 15, "村田": 35, "友だち": 15, "送っ": 294, "髪型": 77, "転移": 32, "一面": 165, "人格": 57, "起こそ": 7, "ことごとく": 43, "終わっ": 399, "都庁": 8, "たどり着い": 18, "まち": 141, "コキ": 8, "年齢": 404, "寝": 76, "ヒゲ": 31, "タバコ": 50, "吸う": 14, "お酒": 18, "発動": 169, "波動": 15, "首謀": 47, "バレ": 33, "明夫": 7, "うめ": 25, "あきお": 12, "数え切れ": 5, "血液": 66, "無限": 82, "増殖": 77, "鬼頭": 6, "誤植": 13, "突っ込ま": 11, "お笑いコンビ": 34, "組ん": 239, "めぐみ": 52, "ダジャレ": 26, "笑う": 43, "切れる": 23, "うの": 18, "稀有": 13, "笑い": 96, "ミシェル": 23, "自由人": 10, "チョンマゲ": 6, "島津": 24, "まづ": 11, "ひさし": 10, "口調": 70, "ひ": 236, "絆創膏": 6, "塞い": 10, "田辺": 34, "なべ": 26, "↓": 14, "付く": 124, "長編": 137, "本家": 82, "ニセ": 17, "ナメ": 5, "かわいそう": 11, "きよし": 18, "丈夫": 34, "干潟": 12, "龍夫": 7, "がた": 65, "たつお": 7, "食玩": 5, "前世": 58, "金一": 5, "間違える": 20, "こい": 32, "しょく": 12, "顔面": 53, "作画": 184, "専属": 91, "金属": 147, "久保田": 31, "拓也": 18, "ひさ": 15, "ルビ": 9, "振っ": 37, "##幻戯書房##": 5, "げんき": 34, "##千代田区##": 344, "おく": 145, "##文芸##": 8, "##出版社##": 36, "##2月7日##": 53, "##小説家##": 165, "##有限会社##": 53, "辺見": 8, "創業者": 141, "田尻": 19, "文学": 348, "叢書": 118, "##Category:世界フィギュアスケート選手権##": 10, "せかい": 23, "##フィギュアスケート##": 122, "せんしゅけん": 13, "Figure": 6, "##3月22日##": 63, "##3月28日##": 77, "##ドルトムント##": 5, "ヴェストファーレン": 6, "アイスダンス": 19, "予選": 315, "各組": 17, "ショートプログラム": 22, "24人": 20, "フリースケーティング": 8, "オリジナルダンス": 7, "フリーダンス": 5, "男子シングル": 26, "2年連続": 109, "3度目": 82, "飾っ": 101, "女子シングル": 15, "##荒川静香##": 6, "ペア": 174, "10年ぶり": 18, "優勝者": 65, "##トリノオリンピック##": 6, "ミッドナイト": 14, "##ブルース##": 36, "OD": 17, "コンボ": 27, "##世界フィギュアスケート選手権##": 91, "英名": 57, "##ニューカレドニア##": 8, "魔物": 54, "愛好家": 26, "本島": 26, "固有種": 317, "胴長": 5, "体側": 24, "襞": 12, "輪郭": 19, "擬態": 14, "濃": 27, "赤褐色": 10, "暗色": 11, "斑": 36, "##ゼンマイ##": 10, "巻い": 36, "根元": 31, "留まる": 41, "滝": 84, "棲み": 9, "好む": 84, "水辺": 41, "地表": 72, "樹上": 11, "雑食": 6, "分けて": 20, "産む": 46, "孵化": 35, "悪魔": 208, "忌み嫌わ": 9, "野生動物": 13, "持ち出さ": 9, "入手": 256, "飼料": 19, "果物": 17, "準ずる": 29, "\".": 167, "Red": 108, "Threatened": 37, "Version": 144, "Union": 45, "Conservation": 18, "海老沼": 10, "136": 135, "139": 133, "148": 75, "ヤモリ": 5, "##誠文堂新光社##": 26, "仲間たち": 62, "フォト": 48, "新版": 202, "2月13日": 95, "35巻": 11, "Boo": 5, "ハードコア": 8, "6人": 141, "ロングヘアー": 7, "持ち込ん": 50, "メンバー全員": 22, "ダンス": 189, "##ショットガン##": 7, "##擬声語##": 5, "Too": 16, "Empire": 23, "略": 244, "##小錦八十吉_(6代)##": 5, "親類": 10, "擁し": 53, "末っ子": 23, "四股名": 14, "##高砂部屋##": 6, "在籍": 389, "Mafia": 5, "style": 18, "##ホルン##": 38, "##ラツィオ州##": 6, "##リエーティ県##": 11, "楽器": 182, "##ヴォルフガング・アマデウス・モーツァルト##": 67, "感銘": 39, "習い": 24, "##ローマ##": 136, "##ヴェネツィア##": 34, "奏者": 137, "49回": 29, "48回": 21, "音楽監督": 65, "##ベルリン・フィルハーモニー管弦楽団##": 11, "客員": 24, "招待": 144, "シルキー": 12, "LA": 34, "della": 24, "Milano": 12, "Il": 37, "del": 82, "Italian": 6, "Website": 54, "スイングアクスル": 11, "しき": 35, "##サスペンション##": 16, "##自動車##": 164, "##独立懸架##": 7, "駆動": 94, "初歩": 8, "##支点##": 7, "中心線": 5, "剛": 104, "結": 27, "伸縮": 17, "動力": 104, "スイング": 18, "レス": 19, "主流": 164, "輪": 199, "##駆動輪##": 46, "技術者": 63, "##1903年##": 81, "##開発##": 23, "##エンジニア##": 12, "復帰後": 40, "##1930年代##": 37, "世界初": 76, "##大量生産##": 11, "##1931年##": 180, "メルセデス": 12, "重用": 43, "選択肢": 85, "##空冷エンジン##": 5, "フォロワー": 5, "大挙": 5, "##流行##": 13, "乗り心地": 6, "##後輪駆動##": 5, "##荷重##": 23, "アップ": 149, "転倒": 55, "絶た": 25, "車両": 841, "##軍用車両##": 5, "汲む": 29, "多目的": 52, "##四輪駆動##": 32, "##アメリカ軍##": 158, "##フォード・モーター##": 27, "乗用車": 42, "横転": 5, "露呈": 18, "代わら": 18, "アーム": 42, "スプリング": 34, "プレート": 73, "適する": 10, "直交": 21, "不合理": 11, "左右方向": 5, "変形": 351, "車軸": 11, "リーフ": 9, "コイル": 56, "斜め": 98, "°": 144, "ストローク": 21, "安定性": 38, "押し上げる": 5, "回転": 363, "下げ": 101, "可": 185, "梁": 66, "##ばね##": 54, "かつら": 17, "おうこく": 8, "##10月##": 464, "##朝日放送ラジオ##": 56, "##日清食品##": 24, "一社提供": 19, "キャッチフレーズ": 41, "耳": 186, "##桂文枝_(6代目)##": 17, "国王": 234, "##リスナー##": 47, "##ペンネーム##": 29, "ネーム": 33, "##助手##": 5, "投稿": 193, "面白": 36, "町長": 48, "ステップアップ": 21, "常連": 63, "た人": 7, "はがき": 23, "FAX": 11, "受け付け": 36, "ケタ": 9, "##なんばグランド花月##": 8, "##ナイター##": 9, "放送休止": 24, "遅く": 69, "どれ": 110, "繰り下げ": 17, "三枝": 19, "##アナウンサー##": 416, "木下": 70, "代理": 176, "〔": 253, "〕": 246, "掟": 31, "題": 120, "突っ込む": 9, "つない": 32, "意識調査": 7, "クイズ": 144, "出題": 54, "想像": 79, "争奪": 67, "ひと": 117, "プレゼント": 158, "ひとりご": 5, "きっ": 52, "どんな": 137, "ツッコミ": 57, "歌詞": 343, "突っ込み": 14, "宛": 95, "##どうぶつ奇想天外!##": 5, "混ざっ": 12, "##みのもんた##": 8, "引い": 99, "にっぽん": 25, "##4月3日##": 89, "##3月29日##": 93, "##白##": 54, "##Ace_File##": 6, "イメージカラー": 5, "WHITE": 6, "STATION": 17, "##アイドル##": 233, "ユニット": 590, "週": 303, "替わる": 15, "ミッション": 173, "お便り": 16, "いしゃ": 7, "売り": 78, "まとめ役": 14, "告知": 131, "##ハドソン##": 64, "一社": 13, "ナレーション": 301, "##太田英明##": 5, "##月曜日##": 97, "##木曜日##": 64, "シングル曲": 56, "##浜田麻里##": 6, "##アリス##": 57, "Alice": 39, "高貴": 18, "女性名": 13, "Adelaide": 8, "異形": 34, "##欧米##": 31, "##暗号##": 88, "##アリス_(ヘッセン大公妃)##": 5, "##ヴィクトリア_(イギリス女王)##": 43, "次女": 93, "長女": 238, "##エリザベス2世##": 18, "##フィリップ_(エディンバラ公)##": 11, "ド": 106, "##ウガンダ##": 25, "##詩人##": 96, "##ピアニスト##": 46, "平和運動": 5, "##モデル_(職業)##": 111, "鰓": 8, "学者": 232, "教育者": 19, "##宣教師##": 22, "##心理学##": 37, "##児童虐待##": 6, "児童文学": 16, "##不思議の国のアリス##": 5, "主人公": 981, "##アリス_(フォークグループ)##": 36, "##谷村新司##": 27, "##堀内孝雄##": 6, "##矢沢透##": 5, "女性シンガー": 5, "ソングライター": 9, "##マジシャン_(奇術)##": 6, "ありす": 13, "##作家##": 130, "いとう": 57, "##ファッションモデル##": 41, "##ジャーナリスト##": 66, "##宝塚歌劇団##": 66, "##宙組##": 11, "娘役": 11, "##広瀬アリス##": 7, "ひろ": 86, "##広瀬すず##": 6, "##姉##": 10, "登場キャラクター": 36, "ロボット": 240, "トランスフォーマー": 15, "キャスター": 243, "携帯": 97, "僕ら": 32, "AI": 99, "212": 43, "B4": 20, "##バイオハザード_(映画)##": 14, "ハート": 66, "パチスロ": 15, "おばさん": 53, "絵本": 93, "ふん": 5, "わこ": 10, "##きんいろモザイク##": 16, "##ARIA_(漫画)##": 25, "キャンベル": 12, "##ライトノベル##": 47, "デフォルト": 40, "ティア": 11, "レイン": 37, "魔法少女": 6, "坂口": 21, "橘": 56, "切": 61, "野々村": 6, "格闘ゲーム": 11, "作中": 318, "##丹下桜##": 6, "あの日": 16, "##ウディ・アレン##": 6, "3DCG": 8, "邦題": 60, "未定": 39, "漫画作品": 37, "題名": 75, "動物病院": 14, "少年漫画": 8, "マルチ": 63, "##アドベンチャーゲーム##": 28, "##PlayStation_(ゲーム機)##": 63, "##山本弘_(作家)##": 7, "##SF小説##": 5, "##SBS_(韓国)##": 6, "##小惑星##": 70, "台風": 45, "##ギリシャ##": 34, "サッカークラブ": 24, "物理学": 37, "##三菱自動車工業##": 58, "販売店": 32, "販売会社": 44, "アダルトゲーム": 18, "##アリスソフト##": 11, "ブルー": 137, "##麻雀##": 32, "ルール": 263, "水道水": 7, "チェーン": 63, "こども": 61, "クイズ番組": 12, "ALICE": 6, "Individual": 11, "Equipment": 7, "En": 25, "Tropical": 12, "Storm": 14, "##ひ##": 33, "ヒ": 27, "##Category:仮名文字##": 97, "##音節##": 35, "##仮名_(文字)##": 83, "##モーラ##": 26, "##五十音図##": 16, "##い##": 312, "##い段##": 13, "##清音##": 5, "##濁音##": 6, "##び##": 5, "ピ": 7, "標準語": 26, "##子音##": 64, "##母音##": 42, "」:": 13, "##舌##": 14, "前部": 34, "近づけ": 14, "隙間": 41, "摩擦": 28, "通す": 57, "ç": 11, "唇": 58, "閉じ": 90, "破裂音": 6, "無声": 5, "##発音##": 142, "##五十音順##": 23, "27位": 13, "##いろは順##": 20, "##ゑ##": 62, "##も##": 11, "##平仮名##": 51, "字形": 75, "##草体##": 20, "##片仮名##": 84, "##旁##": 6, "##h##": 6, "##i##": 38, "##点字##": 17, "##通話表##": 17, "##モールス信号##": 16, "－－": 13, "##手旗信号##": 17, "ヘルプ": 36, "##や行##": 16, "後続": 58, "##拗音##": 14, "書く": 180, "ゃ": 14, "ゅ": 27, "ょ": 21, "言える": 230, "ぇ": 24, "##国際音声記号##": 10, "ʲ": 12, "],": 33, "̞": 5, "表せる": 27, "##火##": 21, "通じる": 59, "44番": 6, "部首": 10, "関連性": 34, "因ん": 108, "図案": 35, "##Unicode##": 29, "Rad": 9, "U": 322, "F1": 157, "相似": 8, "しまだ": 5, "すけ": 91, "おっ": 14, "あぶない": 19, "とうき": 11, "##金曜日##": 145, "オフ": 124, "6か月間": 5, "##島田紳助##": 13, "OG": 25, "先手": 26, "塾": 125, "マル": 54, "秘": 82, "先取り": 6, "必勝法": 10, "易く": 10, "伝授": 42, "キッズ": 29, "校門": 13, "狙え": 5, "東京都内": 18, "##クッキー##": 8, "兼ね": 134, "たて": 49, "配達": 50, "ライダー": 115, "##銀座##": 59, "スカウト": 143, "ちゃ": 69, "みき": 24, "レポーター": 70, "午後3時": 18, "前日": 119, "応募": 113, "正門": 36, "私物": 8, "リクエスト": 66, "テープ": 51, "品物": 16, "携え": 23, "放送中": 32, "##北斗の拳##": 26, "##さくまあきら##": 23, "##ケンシロウ##": 118, "競う": 61, "たた": 15, "耐久レース": 9, "有っ": 6, "気まぐれ": 16, "ファンタスティック": 20, "ブルース": 50, "始まら": 5, "帯番組": 13, "紳助": 5, "スケジュール": 118, "生放送": 136, "曜日": 121, "苦痛": 30, "辞め": 77, "連呼": 8, "聴取率": 9, "期間中": 123, "事前": 192, "##明石家さんま##": 34, "高校生": 158, "##松村邦洋##": 18, "素人": 99, "物まね": 12, "絶賛": 51, "Knock": 5, "Me": 193, "Tonight": 17, "##HOUND_DOG##": 6, "!」": 306, "研究会": 246, "##Myojo##": 21, "##集英社##": 378, "184": 35, "185": 47, "##カリスマ_(曖昧さ回避)##": 5, "ギリシア語": 21, "ドイツ語": 191, "社会学": 23, "資質": 22, "類型": 40, "成り立つ": 96, "キリスト教": 57, "賜物": 6, "恵み": 8, "格": 131, "強調": 172, "##カトリック教会##": 163, "車種": 120, "日本映画": 26, "女優": 316, "##郷ひろみ##": 17, "CHARISMA": 5, "##氷室京介##": 6, "ギャグ漫画": 9, "歌手": 334, "二次元": 10, "やまもと": 24, "しょうじ": 18, "##山口放送##": 32, "KRY": 20, "##気象予報士##": 14, "##柳井市##": 9, "##九州大学##": 16, "##ウェザーニューズ##": 16, "天気": 48, "番組内": 120, "有段者": 7, "風呂": 48, "旅行": 266, "街角": 21, "散策": 28, "##詰将棋##": 16, "プロフィールページ": 11, "関心": 198, "中学時代": 63, "手書き": 24, "高校時代": 119, "ミカタ": 5, "気象情報": 12, "ウェザー": 6, "##熱血テレビ##": 5, "お天気": 17, "Live": 199, "これから": 91, "##山本昇治##": 5, "発行者": 6, "図書": 177, "速報": 133, "立志": 14, "立柳": 5, "ダウンロード": 104, "chu": 5, "list": 53, "164": 68, "861": 6, "エナジー": 21, "vol.3": 45, "letter": 14, "アナウンス": 153, "1999年度": 11, "学位論文": 18, "4年生": 33, "Is": 72, "Woman": 8, "Master": 25, "CS放送": 27, "##フジテレビTWO##": 15, "放送終了後": 30, "##フジテレビオンデマンド##": 6, "##明治製菓##": 13, "菓子": 36, "##明治_(企業)##": 6, "藤崎": 26, "ノエル": 24, "女子大生": 45, "ナナ": 28, "ダンサー": 74, "中村": 223, "純情": 29, "アンドリュー": 16, "ローリー": 9, "貴族": 213, "葵": 66, "##りりィ##": 7, "カフェ": 111, "衝撃": 155, "友情": 121, "8月12日": 146, "Christmas": 28, "～(": 24, "12月16日": 113, "EPISODE": 31, "Valentin": 5, "Day": 87, "2月3日": 126, "フジ": 39, "##ト長調##": 23, "##ケッヘル番号##": 15, "##1782年##": 26, "##弦楽四重奏曲##": 22, "##フランツ・ヨーゼフ・ハイドン##": 16, "捧げ": 69, "6曲": 30, "##ハイドン・セット##": 11, "1曲": 59, "ハイドン": 5, "飾る": 75, "自筆譜": 16, "##ト_(音名)##": 63, "##ウィーン##": 74, "li": 6, "記さ": 335, "33分": 29, "##wikt:allegro##": 35, "##wikt:vivace##": 12, "##wikt:assai##": 6, "4分": 187, "##拍子##": 66, "##ソナタ形式##": 43, "主題": 281, "##ロ_(音名)##": 40, "##半音階##": 11, "##メヌエット##": 73, "リオ": 8, "##wikt:andante##": 16, "##ハ長調##": 26, "欠く": 45, "##wikt:molto##": 7, "##フーガ##": 18, "##ホ_(音名)##": 13, "##モチーフ_(音楽)##": 8, "551": 12, "楽譜": 111, "14番": 13, "387": 12, "Mozart": 8, "con": 33, "grazia": 6, "Arthur": 31, "##1867年##": 45, "##9月19日##": 47, "中流": 34, "三男": 170, "生まれる": 243, "志し": 43, "##ファンタジー##": 23, "挿絵": 111, "##ロンドン##": 215, "勤める": 38, "傍ら": 107, "スケッチ": 38, "##1892年##": 53, "25歳": 87, "勤め": 135, "はじめる": 35, "##1893年##": 48, "手がけ": 178, "生涯": 261, "一女": 8, "もうけ": 116, "##ミラノ##": 110, "金賞": 49, "生前": 115, "原画": 655, "##癌##": 95, "##1900年##": 93, "##1905年##": 112, "児童": 219, "のもの": 49, "##エドガー・アラン・ポー##": 7, "作品集": 89, "大人": 221, "妖精": 70, "1918年": 91, "1917年": 71, "ニーベルングの指環": 5, "Art": 68, "Tale": 5, "Myths": 11, "Legends": 9, "##稲荷駅##": 15, "##伏見区##": 16, "稲荷": 19, "##奈良線##": 100, "D0": 33, "##伏見稲荷大社##": 5, "最寄り": 87, "紅葉": 35, "##1879年##": 56, "##東海道本線##": 79, "大谷": 63, "##膳所駅##": 7, "1889年": 40, "##神戸駅_(兵庫県)##": 7, "##1921年##": 185, "馬場": 95, "切り替え": 159, "##桃山駅##": 25, "新線": 35, "##8月18日##": 39, "##1895年##": 74, "東海道線": 14, "1909年": 39, "##1月15日##": 48, "47年": 86, "振り替え": 12, "##2月16日##": 31, "##2月15日##": 42, "##プラットホーム##": 171, "配線": 63, "信号機": 35, "上り": 213, "竣工": 411, "造り": 66, "朱色": 5, "塗ら": 19, "備品": 15, "収蔵": 59, "##宇治駅_(JR西日本)##": 22, "##交通系ICカード全国相互利用サービス##": 12, "##特定都区市内##": 8, "##1940年代##": 12, "参道": 28, "##京阪本線##": 15, "##龍谷大学##": 8, "##京都市立伏見工業高等学校##": 7, "350m": 6, "##京都市営バス##": 25, "##京都市営バス横大路営業所##": 7, "##竹田駅_(京都府)##": 5, "##国道24号##": 6, "##東福寺駅##": 40, "行楽シーズン": 5, "国有鉄道": 24, "##山科駅##": 39, "138": 101, "1921": 29, "9号": 51, "天王寺": 37, "鉄道管理局": 47, "写真史": 11, "P2": 130, "変": 70, "せん": 254, "351": 15, "1月28日": 137, "伏見": 30, "セミナー": 56, "廃線跡": 10, "##みんなの経済新聞ネットワーク##": 8, "除": 28, "交通局": 13, "高速鉄道": 6, "４": 132, "３月": 22, "市バス": 7, "地下鉄": 91, "ダイヤ": 102, "##川島令三##": 16, "日本の鉄道": 35, "東海道": 30, "米原": 8, "めぐる": 319, "08": 581, "関西本線": 7, "草津線": 8, "おおさか東線": 7, "鉄": 225, "ぶら": 12, "ブックス": 86, "031": 16, "百科": 142, "##交通新聞社##": 20, "都市鉄道": 10, "5881": 9, "フランチャイズ": 19, "四国": 117, "方向性": 40, "##阪急阪神ホテルズ##": 10, "95m": 7, "瀬戸内海": 9, "一望": 19, "デッキ": 82, "##明仁##": 27, "##上皇后美智子##": 25, "来館": 12, "桟橋": 31, "稚内": 7, "SRC": 34, "1階": 222, "敷地": 229, "建築面積": 15, "0011": 7, "客室": 57, "定員": 105, "502": 19, "宴会場": 7, "1500": 64, "チャペル": 8, "2分": 175, "四国新聞": 6, "11月1日": 223, "阪急阪神": 23, "ズ": 74, "公式ページ": 114, "##フルート##": 57, "##チューリッヒ##": 171, "アンドレ": 25, "##パリ国立高等音楽・舞踊学校##": 8, "##ヴィルヘルム・フルトヴェングラー##": 6, "嘱望": 11, "フィル": 23, "退団": 238, "##ベルリン芸術大学##": 5, "##バーゼル##": 14, "後進": 55, "ニコレ": 6, "音楽家": 83, "ナチ": 16, "教師": 253, "駆り": 8, "ださ": 16, "ませ": 171, "##ヘルベルト・フォン・カラヤン##": 9, "つくし": 13, "ベルリン": 25, "無傷": 19, "作ろ": 33, "響き": 57, "丸み": 19, "帯び": 80, "異様": 26, "けれど": 21, "聞こえ": 41, "総体": 11, "際立つ": 8, "数少ない": 102, "##バロック音楽##": 9, "##現代音楽##": 24, "レパートリー": 39, "中でも": 83, "##ヨハン・ゼバスティアン・バッハ##": 23, "定評": 12, "新刊": 16, "音楽作品": 16, "##武満徹##": 17, "遺作": 31, "70歳": 41, "誕生日": 142, "音楽性": 54, "隆盛": 29, "功労者": 25, "クラシック": 70, "不滅": 21, "巨匠": 31, "斎藤": 111, "爾": 17, "武満": 12, "演奏家": 23, "音楽之友社": 18, "奏で": 20, "楽団": 16, "662": 9, "663": 10, "和子": 34, "自伝": 53, "春秋社": 26, "朝日新聞": 208, "12月4日": 120, "227": 46, "174": 75, "執筆": 352, "248": 24, "##弦楽四重奏曲第15番_(モーツァルト)##": 5, "##ニ短調##": 20, "##1783年##": 27, "2曲": 105, "##調##": 13, "モーツァルト": 25, "173": 46, "わかっ": 103, "##6月17日##": 47, "##死亡##": 54, "ちょうど": 62, "中旬": 20, "何者": 53, "##wikt:moderato##": 10, "##ヘ長調##": 20, "##三部形式##": 21, "##wikt:allegretto##": 12, "トリオ": 92, "##ニ長調##": 28, "##変奏曲##": 42, "旋律": 99, "##作品番号##": 46, "国際楽譜ライブラリープロジェクト": 39, "15番": 20, "421": 20, "417": 17, "Like": 33, "Virgin": 19, "##マドンナ_(歌手)##": 16, "自信": 77, "レコード会社": 59, "##デヴィッド・ボウイ##": 13, "チーフ": 72, "##音楽プロデューサー##": 52, "サポート": 352, "##ニューヨーク##": 272, "レコーディング": 227, "音楽的": 29, "##ニュー・ウェイヴ_(音楽)##": 6, "強力": 270, "批評": 78, "賛否両論": 12, "##Billboard_200##": 5, "2100": 10, "北米": 103, "即": 42, "完売": 21, "包ん": 32, "あふれ": 23, "500万": 44, "ドル": 233, "議論": 279, "単なる": 104, "##ポピュラー音楽##": 38, "リマスター": 13, "ボーナス・トラック": 13, "##ボーカル##": 167, "##バックグラウンドボーカル##": 5, "##ベース_(弦楽器)##": 87, "Brenda": 5, "King": 87, "レニー": 9, "##サクソフォン##": 6, "##ギター##": 237, "ロバート": 67, "##シンセサイザー##": 24, "Hardy": 6, "Jr.": 58, "Frank": 35, "##ドラムセット##": 131, "マシン": 213, "スティーヴン": 8, "Jason": 17, "##レコーディング・エンジニア##": 5, "ボブ": 26, "##アートディレクター##": 13, "Jeffrey": 8, "Kent": 11, "マリ": 64, "madonna": 7, "discography": 8, "index": 78, "album": 26, "albumId": 5, "biglobe": 7, "ne.jp": 30, "/~": 25, "up": 61, "September": 66, "Classic": 24, "Madonna": 21, "'”.": 16, "SOS": 10, "Publications": 24, "4月22日": 132, "Miller": 20, "Rolling": 10, "Stone": 27, "reviews": 10, "Reporter": 10, "Daily": 41, "ing": 137, "as": 167, "turn": 5, "Age": 35, "Media": 64, "8月11日": 109, "au": 72, "lifestyle": 5, "people": 33, "ru": 29, "119": 94, "Cross": 24, "Martha": 7, "LLC": 36, "0028": 6, "google": 137, "id": 304, "dq": 36, "like": 10, "a+": 25, "redir": 28, "esc": 28, "y": 754, "hl": 48, "ja": 72, "Inside": 15, "material": 21, "world": 105, "Queen": 37, "Pop": 13, "most": 12, "display": 5, "one": 31, "night": 9, "only": 29, "pop": 5, "exhibition": 10, "Associated": 10, "moments": 5, "382": 12, "Mary": 39, "Biography": 105, "Greenwood": 29, "Publishing": 66, "An": 104, "Simon": 31, "Schuster": 8, "Style": 37, "Book": 62, "Press": 443, "Allen": 21, "Carol": 12, "Companion": 13, "Two": 80, "Sales": 7, "あいち": 12, "けんど": 78, "##Category:愛知県道##": 5, "じんじゃ": 30, "##犬山市##": 49, "向山": 29, "若宮": 16, "##交差点##": 100, "##12月15日##": 46, "##上街道_(木曽街道)##": 5, "##愛知県道102号名古屋犬山線##": 7, "##名鉄小牧線##": 12, "出張所": 122, "##愛知県の県道一覧##": 8, "##伏見城##": 12, "南西部": 61, "##奈良鉄道##": 15, "##伏見駅_(京都府)##": 12, "##西本願寺##": 14, "荘": 134, "別荘": 75, "風景": 160, "桃山": 14, "寄付": 124, "500円": 51, "村名": 16, "堀内": 42, "##7月30日##": 45, "##明治天皇##": 43, "崩御": 34, "柩": 5, "御陵": 8, "高台": 36, "還っ": 6, "敷き詰め": 5, "乃木": 5, "土産物": 17, "日の丸": 10, "林立": 15, "日本中": 9, "10万": 86, "超え": 276, "8万人": 6, "第二次世界大戦": 61, "失い": 125, "商店街": 93, "消え": 218, "##11月3日##": 42, "##1896年##": 83, "##玉水駅##": 19, "38年": 120, "##関西鉄道##": 23, "##鉄道国有法##": 24, "##9月14日##": 41, "7両編成": 6, "弧": 34, "##3月20日##": 42, "支線": 54, "##昭和天皇##": 62, "即位": 284, "大礼": 5, "##11月25日##": 39, "道口": 8, "##4月23日##": 40, "##4月14日##": 37, "屋根": 188, "快速列車": 9, "減速": 55, "35km": 10, "備考": 64, "入線": 71, "臨時列車": 32, "折り返し運転": 7, "待避": 39, "多客": 12, "信号": 160, "標識": 69, "沿う": 21, "積み下ろし": 5, "スペース": 171, "##日本酒##": 15, "はいる": 29, "##近鉄京都線##": 11, "##京阪宇治線##": 11, "乗り換え": 45, "竹田": 17, "車庫": 99, "間隔": 95, "9番": 43, "中1": 28, "10番": 23, "何れ": 25, "停留所": 269, "300m": 34, "25号": 20, "経路": 289, "要する": 110, "近鉄": 125, "直通": 141, "7本": 19, "5本": 46, "休": 45, "みやこ路快速": 16, "##六地蔵駅##": 31, "##木幡駅_(JR西日本)##": 6, "1945年": 107, "大阪府内": 5, "3週間": 18, "##大林組##": 10, "##伊勢市駅##": 7, "老人": 119, "風土記": 13, "連合会": 102, "語りつぐ": 8, "シリーズ2": 6, "実行委員会": 94, "つむぎ": 9, "##曽根悟##": 46, "8号": 84, "明細": 7, "1913年": 60, "##国立国会図書館##": 49, "##近代デジタルライブラリー##": 6, "上狛": 5, "10月19日": 125, "##SAITO##": 14, "##4月9日##": 49, "##プロレスラー##": 61, "##覆面レスラー##": 6, "##リングネーム##": 15, "##スペル・シーサー##": 6, "斉藤": 75, "義之": 11, "よしゆき": 8, "##みちのくプロレス##": 10, "入門": 355, "デビュー前": 22, "1期生": 23, "引退試合": 17, "インストラクター": 21, "##12月10日##": 38, "屋内": 52, "球技場": 6, "タッグ": 182, "シーサー": 5, "一人物": 50, "絶え": 50, "一夜": 47, "現役復帰": 10, "対戦": 670, "とはいえ": 55, "##DRAGON_GATE##": 30, "ヨシ": 12, "5号": 129, "6号": 153, "##物部##": 7, "もののふ": 7, "朝廷": 73, "刑罰": 19, "携わっ": 90, "職業": 152, "氏族": 45, "系譜": 100, "##大化の改新##": 7, "##物部氏##": 46, "八十": 10, "紀": 118, "いか": 92, "こお": 9, "瓮": 5, "そ": 63, "を以て": 80, "祭神": 37, "まつり": 147, "しむ": 16, "平ら": 33, "土器": 20, "平たい": 15, "様": 449, "中巻": 15, "律令制": 5, "40人": 25, "##衛門府##": 14, "30人": 29, "20人": 46, "罪人": 15, "執行": 116, "あたっ": 78, "職務": 81, "麻呂": 26, "遅": 32, "武蔵": 27, "11月13日": 121, "##岩波文庫##": 73, "現代語": 24, "##講談社学術文庫##": 23, "完訳": 23, "辞典": 417, "947": 7, "##竹内理三##": 7, "1974年": 364, "岩波": 29, "がく": 46, "いちらん": 53, "##化学##": 59, "##学問##": 30, "##生化学##": 14, "無機": 12, "##電気化学##": 14, "##同位体##": 8, "##物理化学##": 7, "##有機化学##": 10, "##アレッツォ県##": 5, "Provincia": 23, "##アレッツォ##": 8, "##トスカーナ州##": 25, "県都": 53, "##エミリア＝ロマーニャ州##": 20, "##マルケ州##": 9, "##ウンブリア州##": 6, "東北東": 10, "州都": 37, "##フィレンツェ##": 69, "61km": 7, "北北西": 7, "180km": 7, "##フォルリ＝チェゼーナ県##": 6, "##ペーザロ・エ・ウルビーノ県##": 5, "##フィレンツェ県##": 7, "Località": 11, "abitata": 10, "人口統計": 13, "##サン・ジョヴァンニ・ヴァルダルノ##": 5, "##カスティリオーン・フィオレンティーノ##": 6, "017": 48, "コムーネ": 39, "1万人": 41, "左端": 19, "ISTAT": 13, "コード": 301, "地図": 276, "桁": 239, "統廃合": 32, "Fusione": 5, "comuni": 52, "italiani": 56, ")（": 391, "詩人": 122, "人文学": 7, "15世紀": 32, "6世紀": 17, "数学者": 32, "会計": 51, "移る": 92, "16世紀": 52, "経済学者": 18, "映画監督": 69, "コメディアン": 14, "##国立統計研究所_(イタリア)##": 830, "Tavola": 551, "Superficie": 274, "territoriale": 274, "Kmq": 274, "dettaglio": 551, "comunale": 277, "Censimento": 551, "イタリア語": 880, "Total": 290, "Resident": 287, "Population": 305, "sex": 296, "marital": 277, "status": 307, "Popolazione": 277, "residente": 277, "loc": 277, "abitate": 277, "##変ロ長調##": 22, "##ルートヴィヒ・ヴァン・ベートーヴェン##": 94, "##1811年##": 11, "##ピアノ三重奏曲##": 7, "献呈": 26, "大公": 161, "ふさわしく": 12, "優雅": 33, "堂々": 41, "気品": 6, "曲想": 12, "必須": 98, "アマチュア": 104, "ピアニスト": 43, "初演": 122, "##ピアノ##": 243, "作曲者": 74, "身分": 88, "つながり": 66, "##1814年##": 14, "##4月11日##": 34, "ウィーン": 22, "Kaiser": 5, "ベートーヴェン": 18, "弾き": 39, "##ヴァイオリン##": 119, "##チェロ##": 53, "弾い": 38, "乱暴": 19, "そのもの": 327, "公": 524, "40分": 82, "拍子": 119, "。\"": 17, "##ニ_(音名)##": 39, "##イ_(音名)##": 143, "右手": 154, "##オクターヴ奏法##": 14, "##音階##": 25, "落ち着い": 55, "弦楽器": 18, "和声": 23, "補っ": 18, "##変ホ長調##": 16, "ソナタ": 28, "済ませ": 23, "##コーダ_(音楽)##": 24, "##アルペッジョ##": 19, "##ユニゾン##": 12, "華やか": 38, "終わる": 225, "明るい": 100, "##スケルツォ##": 20, "緩やか": 49, "##wikt:presto##": 10, "##ロンド形式##": 10, "符": 69, "効果的": 26, "快活": 12, "Trio": 10, "Op.": 80, "##3月30日##": 93, "30歳": 55, "キャップ": 56, "両サイド": 11, "プレー": 251, "##サッカーフランス代表##": 23, "貴重": 112, "バック": 147, "招集": 56, "##オリンピック・リヨン##": 7, "1993": 249, "994": 15, "997": 16, "##オリンピック・マルセイユ##": 11, "##FCジロンダン・ボルドー##": 6, "010": 83, "##リーグ・アン##": 14, "##クープ・ドゥ・ラ・リーグ##": 5, "##トロフェ・デ・シャンピオン##": 5, "紙": 207, "##ISO_14230##": 5, "診断": 188, "コネクタ": 35, "##国際標準化機構##": 84, "走行中": 16, "##アクセルペダル##": 8, "##燃費##": 13, "メーター": 24, "エコ": 62, "vehicles": 5, "--": 162, "Diagnostic": 6, "systems": 12, "ar": 76, "Physical": 35, "layer": 44, "link": 17, "Application": 8, "related": 9, "ISO": 24, "TC": 7, "今井": 134, "邦子": 31, "まい": 93, "##1890年##": 61, "##5月31日##": 63, "##7月15日##": 73, "##徳島市##": 40, "##アララギ##": 16, "明日香": 27, "##新聞記者##": 5, "##立憲政友会##": 39, "##衆議院議員##": 56, "##事務次官##": 14, "甥": 151, "##1857年##": 34, "##官吏##": 11, "##和歌##": 31, "##徳島県##": 122, "課長": 164, "25年": 247, "父母": 55, "郷里": 31, "##長野県##": 366, "##下諏訪町##": 5, "祖父母": 21, "憧れ": 160, "##詩##": 91, "度重なる": 40, "閃き": 13, "##洗礼##": 12, "##賛美歌##": 11, "西洋文化": 6, "老い": 34, "看": 8, "##函館市##": 50, "補任": 17, "断ち": 5, "がたく": 14, "家出": 43, "選者": 25, "頼っ": 45, "門下生": 20, "一端": 33, "看病": 10, "尽くし": 54, "上京": 149, "記者": 204, "見出さ": 34, "代議士": 27, "節子": 32, "作歌": 18, "子育て": 37, "夫婦生活": 5, "葛藤": 23, "歌わ": 96, "愛人": 99, "二児": 7, "京都": 356, "毎朝": 16, "便所": 13, "掃除": 44, "苦しい": 23, "修行": 181, "帰宅": 43, "大正元年": 11, "早くも": 17, "日記": 309, "大正5年": 20, "##1916年##": 101, "入会": 109, "先輩": 227, "##島木赤彦##": 5, "大正": 168, "忠実": 101, "歌風": 9, "若い": 289, "情熱": 79, "写実": 11, "重んじ": 17, "心情": 23, "境地": 23, "##斎藤茂吉##": 40, "研鑽": 15, "積ん": 64, "退会": 60, "歌誌": 9, "主宰": 141, "国文学": 29, "女流": 68, "姪": 62, "助力": 23, "##万葉集##": 38, "随筆": 57, "全力": 49, "走り": 123, "疎開": 45, "湯田": 6, "心臓麻痺": 6, "59歳": 10, "理性": 21, "激しく": 148, "揺れ動く": 6, "菩提寺": 16, "小石川": 11, "静岡県": 27, "富士": 81, "霊園": 8, "葬": 35, "戒名": 12, "釈": 9, "楽": 124, "##中山道##": 42, "茶屋": 31, "松屋": 9, "歌集": 185, "光": 480, "慕": 11, "こぼれ": 9, "梅": 72, "全集": 205, "随想": 5, "評釈": 9, "万葉": 17, "真木": 23, "谿": 7, "山水": 23, "向う": 8, "堪え": 9, "不倫": 51, "裏面": 31, "千野": 6, "日本文学": 19, "##工藤寛正##": 5, "臨終": 11, "墓碑": 14, "東京堂出版": 35, "独": 97, "Die": 68, "der": 108, "Braun": 11, "ローラ": 28, "3本": 182, "西ドイツ": 11, "##ベルリン##": 100, "ヘルマン": 15, "戸籍": 28, "半日": 13, "背負っ": 36, "闇市": 8, "バー": 121, "親友": 206, "ベティ": 11, "ウィリー": 16, "ビル": 492, "妊娠": 111, "ベッド": 49, "立ち向かう": 41, "放心": 6, "瓶": 55, "殴り": 27, "米軍兵士": 6, "罪": 194, "尋問": 21, "被っ": 85, "自白": 10, "投獄": 38, "待ち": 64, "誓う": 31, "堕胎": 5, "繊維": 72, "オズワルト": 6, "秘書": 113, "復興": 211, "突き止め": 13, "交わす": 17, "疾患": 85, "一軒家": 11, "買い": 81, "結婚生活": 25, "遺言": 54, "開封": 17, "いた事": 81, "明かさ": 78, "1954年": 143, "ワールドカップ": 40, "故意": 31, "ガス爆発": 5, "ブラウン": 48, "カール": 66, "ジョージ": 141, "バード": 38, "医師": 232, "7月19日": 128, "KINENOTE": 193, "オールムービー": 70, "IMDb": 232, "安": 68, "泰": 43, "アン": 94, "##12月6日##": 42, "##9月16日##": 31, "##大韓帝国##": 16, "##平壌##": 25, "渡日": 10, "正則": 73, "渡米": 49, "##フィラデルフィア##": 57, "音楽学校": 19, "渡欧": 13, "留学": 173, "アジア人": 14, "##リヒャルト・シュトラウス##": 16, "##ブダペスト##": 9, "卒業後": 337, "回り": 113, "交響楽団": 17, "##指揮_(音楽)##": 19, "##国籍##": 39, "幻想曲": 15, "終曲": 7, "合唱": 63, "##李承晩##": 11, "大統領": 178, "滞在": 176, "##マヨルカ島##": 5, "##7月8日##": 46, "遺灰": 5, "国立": 142, "##音楽之友社##": 30, "##満洲国##": 9, "10周年": 99, "フィルム": 150, "##親日派##": 11, "持ち上がっ": 15, "##4月30日##": 56, "##親日人名辞典##": 6, "加える": 104, "##4月29日##": 42, "市民団体": 8, "ならびに": 54, "##校歌##": 21, "組合": 231, "会長": 618, "葬ら": 64, "改葬": 6, "反逆": 25, "声楽": 34, "アリラン": 5, "峠": 99, "野原": 12, "百合": 24, "1934": 41, "1935年": 115, "交響詩": 9, "降": 46, "管弦楽": 33, "1936": 44, "1937年": 116, "1944年": 109, "紛失": 32, "祝典": 9, "1940年代": 20, "愛国": 14, "志士": 5, "追悼": 121, "器楽": 14, "舞曲": 7, "松": 136, "“(": 18, "朝鮮語": 126, "중앙일보": 7, "崔": 16, "承": 19, "喜": 34, "##東亜日報##": 9, "donga": 7, "service": 17, "?b": 11, "11月9日": 100, "SANKEI": 12, "DIGITAL": 22, "朝鮮日報": 22, "破": 91, "尚早": 9, "中央日報": 24, "死刑": 42, "##コクーン_(映画)##": 6, "Cocoon": 8, "##アメリカ合衆国の映画##": 57, "星人": 72, "##アカデミー視覚効果賞##": 7, "アート": 112, "##アカデミー助演男優賞##": 6, "##フロリダ##": 6, "老人ホーム": 10, "余生": 22, "人組": 26, "楽しみ": 81, "空き": 39, "室内": 78, "プール": 124, "無断": 49, "ウォルター": 28, "クルーザー": 13, "船長": 43, "ジャック": 225, "雇い": 14, "覆わ": 107, "海中": 46, "不審": 19, "がる": 42, "明かす": 43, "宇宙人": 68, "はるか": 111, "繭": 10, "眠っ": 29, "忍び込む": 6, "スリル": 14, "住人": 111, "留守": 36, "沈め": 23, "泳い": 18, "生気": 6, "気付い": 65, "穏やか": 68, "夜遊び": 6, "活力": 15, "隣家": 5, "効能": 16, "活性": 69, "衰弱": 26, "不死": 16, "戻し": 91, "回収": 148, "宇宙船": 48, "待っ": 77, "旅立つ": 28, "##リチャード・D・ザナック##": 6, "##特殊メイク##": 5, "ブライアン": 28, "視覚効果": 13, "##インダストリアル・ライト&マジック##": 5, "吹替": 194, "##日本航空##": 51, "機内上映版": 10, "全身": 140, "スーツ": 174, "発光": 37, "実体": 90, "重力": 46, "精巧": 22, "外皮": 6, "保養地": 5, "同胞": 21, "来訪": 26, "名優": 8, "パート": 263, "##Rotten_Tomatoes##": 22, "20件": 5, "10点満点": 7, "##Metacritic##": 20, "賛否": 6, "混在": 62, "100点": 30, "##allcinema##": 10, "心地": 6, "ラストシーン": 18, "あまりに": 116, "しれ": 139, "##ヒューム・クローニン##": 5, "7部": 8, "ノミネート": 129, "##学研##": 32, "パロディ": 90, "よみ": 29, "える": 51, "救える": 5, "?」": 85, "剣": 324, "かざす": 6, "##Box_Office_Mojo##": 24, "##Amazon.com##": 21, "Reviews": 24, "TCM": 6, "Database": 132, "##占い##": 12, "卜": 6, "##漢字##": 209, "##部首##": 56, "##DAOKO##": 6, "##チキンラン##": 5, "Chicken": 15, "Run": 38, "チキン": 13, "鶏": 36, "強欲": 8, "囚人": 37, "ジンジャー": 7, "皆": 106, "試みる": 62, "所要": 26, "ロッキー": 17, "予告編": 33, "##青山穣##": 5, "##優香##": 9, "マック": 19, "ファーガソン": 23, "ニック": 49, "Own": 24, "Universal": 16, "Pictures": 17, "Blu": 41, "ray": 44, "セル": 45, "3月6日": 115, "##スタットクーロン##": 8, "stat": 8, "##クーロン##": 22, "##CGS単位系##": 12, "##電荷##": 27, "##物理単位##": 94, "静": 69, "でん": 76, "unit": 19, "##ベンジャミン・フランクリン##": 8, "フランクリン": 21, "Fr": 25, "##CGS静電単位系##": 5, "一般化": 20, "真空": 42, "互いに": 134, "等しい": 69, "##ダイン##": 8, "毎秒": 18, "アブ": 5, "ab": 71, "##国際単位系##": 24, "SI": 109, "10倍": 33, "換算": 65, "≈": 25, "##クーロンの法則##": 8, "係数": 107, "電流": 64, "q": 344, "r": 900, "={\\": 54, "frac": 934, "_{": 1922, "}}{": 148, "^{": 684, "}}}}": 70, "物体": 116, "##質量##": 61, "##長さ##": 11, "##時間##": 142, "##7月23日##": 53, "##ウィーン・フィルハーモニー管弦楽団##": 16, "##チューバ##": 59, "##ウィーン国立音楽大学##": 7, "##第一共和国_(オーストリア)##": 5, "##ヴィオラ##": 17, "##トロンボーン##": 42, "##コンサートマスター##": 11, "入団": 360, "招聘": 81, "人として": 40, "日本初演": 12, "透明": 74, "ダイレクト": 17, "追究": 6, "ダーク": 61, "一線": 44, "画し": 25, "エチュード": 6, "##リヒャルト・ワーグナー##": 36, "##ニーベルングの指環##": 9, "直筆": 26, "譜": 117, "名盤": 9, "BB": 66, "##ヨーゼフ・フンメル##": 6, "Gerhard": 6, "幾多": 18, "Unit": 18, "Evolutionary": 9, "East": 53, "University": 357, "State": 50, "Europe": 89, "English": 73, "Speaking": 7, "Service": 76, "電子機器": 19, "くじ": 42, "##京阪電気鉄道##": 64, "##京都市交通局##": 26, "##京都市営地下鉄##": 18, "##京都市営地下鉄東西線##": 11, "乗り入れ": 149, "京阪": 104, "##宇治市##": 30, "六地蔵": 21, "所在": 347, "KH": 14, "##山科川##": 19, "##1889年##": 127, "##町村制##": 52, "以東": 33, "地蔵": 39, "西北西": 16, "めぐり": 94, "増発": 42, "##列車交換##": 25, "400m": 55, "一般道路": 8, "##PiTaPa##": 26, "##スルッとKANSAI##": 17, "50年間": 10, "##1917年##": 128, "大洪水": 11, "##1934年##": 171, "2度": 202, "水害": 45, "##1953年##": 207, "浸水": 52, "頻発": 47, "被災": 56, "基本計画": 42, "築造": 28, "小栗栖": 8, "堤防": 71, "醍醐": 16, "##石田駅_(京都府)##": 8, "造成": 87, "変電所": 8, "沿線": 159, "ターミナル": 197, "##中書島駅##": 13, "##宇治駅_(京阪)##": 34, "停電": 13, "鴨川": 13, "##8月11日##": 47, "逆流": 12, "京阪神急行電鉄": 6, "##阪急電鉄##": 37, "梅雨前線": 7, "##3月6日##": 40, "##9月25日##": 68, "34年": 123, "##8月13日##": 24, "##9月17日##": 48, "発令": 44, "家屋": 61, "41年": 102, "嵩上げ": 8, "橋梁": 86, "架け": 91, "バスターミナル": 39, "用地": 76, "##1981年##": 576, "56年": 70, "ブロック": 238, "待合室": 141, "61年": 93, "水洗": 7, "22年": 355, "##車椅子##": 23, "##オストメイト##": 8, "##バリアフリー##": 40, "建設工事": 19, "##5月10日##": 51, "##ダイヤ改正##": 68, "##3月8日##": 53, "##3月9日##": 49, "##11月26日##": 34, "大津": 73, "短絡": 32, "##滋賀県##": 659, "1926年": 61, "7月14日": 137, "出願": 31, "1927年": 76, "10月28日": 119, "起業": 21, "敷設": 128, "境": 238, "盛土": 7, "造ら": 94, "5両編成": 5, "##改札##": 58, "2階": 186, "階": 134, "階段": 99, "##京阪バス##": 46, "日野": 44, "##京都京阪バス##": 18, "御蔵": 9, "タクシー": 137, "地平": 17, "さい": 59, "移築": 85, "200m": 85, "##高架駅##": 47, "10億": 29, "8億": 6, "残り": 351, "空い": 33, "櫛": 9, "ゴム": 90, "強度": 107, "あわせ": 152, "拡幅": 61, "開始予定": 20, "##普通列車##": 79, "##快速列車##": 107, "##地下駅##": 5, "##ホームドア##": 10, "留置線": 25, "ステーション": 100, "わすれ": 13, "券": 152, "出入口": 103, "入口": 388, "タイル": 21, "営業所": 415, "MOMO": 9, "テラス": 19, "##近鉄百貨店##": 6, "営": 80, "栗栖": 7, "クリーン": 19, "焼却": 28, "発電": 97, "電力": 169, "蒸気": 57, "環境保全": 17, "合理化": 36, "焼却炉": 10, "公共施設": 36, "温水プール": 11, "図書館": 343, "支流": 96, "上流": 180, "##大津市##": 81, "汚水": 7, "##下水処理場##": 11, "窒素": 19, "除去": 112, "屋上": 53, "##太陽光発電##": 18, "総合病院": 19, "浄化": 48, "##バス停留所##": 77, "八条口": 6, "15時": 37, "108号": 7, "東御": 21, "蔵山": 22, "118": 69, "左回り": 12, "128": 120, "右回り": 16, "なごみ": 15, "22号": 15, "蚊": 15, "##醍醐バスターミナル##": 5, "312": 27, "烏丸": 30, "五条": 5, "107": 129, "117": 99, "127": 74, "ノンストップ": 19, "イトーヨーカドー": 5, "6番": 85, "5番": 86, "西行": 6, "##ぎょうせい##": 18, "10月14日": 116, "淀川": 7, "275": 41, "277": 27, "治水": 27, "文理閣": 6, "鉄道ピクトリアル": 9, "##電気車研究会##": 27, "増刊号": 63, "124": 65, "口絵": 5, "シリーズ1": 6, "付け替え": 17, "広報誌": 24, "無効": 130, "情報誌": 25, "ESS": 11, "Vol.4": 43, ")[": 46, "起工式": 16, "##11月11日##": 52, "10月24日": 146, "2月17日": 93, "3月12日": 122, "273": 23, "曽根悟": 57, "分冊百科": 51, "公営鉄道": 21, "私鉄": 130, "週刊朝日": 107, "若林": 32, "正博": 8, "探る": 51, "紀要": 106, "連載記事": 14, "夢幻": 9, "軌道": 221, "転落": 79, "防げ": 10, "柵": 55, "知恵": 60, "各社": 148, "定例": 18, "会見": 118, "2月22日": 139, "JR西": 8, "economy": 18, "6割": 19, "##Response.##": 8, "乗降人員": 97, "白書": 48, "80万人": 7, "取組": 45, "持込": 18, "ごみ": 18, "川島令三": 9, "寺田裕一": 17, "改訂": 199, "データブック": 17, "##ネコ・パブリッシング##": 19, "7770": 11, "336": 17, "情報局": 30, "##1894年##": 62, "##5月21日##": 47, "日本一": 117, "##長寿##": 8, "##高知県##": 90, "住居": 112, "入所": 68, "こんなに": 28, "口癖": 41, "午後4時": 12, "9か月": 6, "##日刊スポーツ##": 92, "nikkansports.com": 77, "general": 19, "tp": 22, "##サービスエリア##": 16, "##湖南高速道路##": 14, "食堂": 75, "コンビニエンスストア": 13, "ガソリンスタンド": 17, "LPG": 11, "充填": 49, "順天": 8, "休憩所": 26, "北面": 9, "ジョン": 192, "61": 193, "南山": 24, "キル": 8, "IC": 219, "SA": 40, "韓国語": 32, "##サイバーストーカー##": 10, "##ストーカー##": 23, "しつこく": 6, "行為": 378, "##サイバー犯罪##": 7, "##電子掲示板##": 26, "##ソーシャル・ネットワーキング・サービス##": 33, "##ウィキ##": 6, "##インターネットコミュニティ##": 5, "揉め事": 14, "断片": 35, "##検索エンジン##": 12, "##個人情報##": 21, "勤務先": 13, "割り出し": 13, "匿名": 36, "##嫌がらせ##": 11, "##匿名掲示板##": 5, "扇動": 27, "加害者": 29, "膨れ": 16, "上がる": 116, "恋愛感情": 14, "ごく": 192, "##ネットいじめ##": 6, "##炎上_(ネット用語)##": 20, "騒動": 128, "発端": 42, "実像": 32, "パターン": 199, "介し": 134, "##ハッカー##": 6, "最終段階": 11, "物理的": 47, "ストーキング": 21, "俗": 23, "不特定多数": 11, "巧妙": 9, "義憤": 5, "対象者": 48, "い者": 10, "仕立て": 66, "上げる": 172, "俗に": 41, "##ラジコン##": 11, "開示": 10, "##民事訴訟##": 12, "物理": 158, "検挙": 33, "民事": 87, "刑事": 295, "被害者": 211, "迫ら": 55, "最悪": 64, "##自殺##": 61, "追いやら": 16, "##総務省##": 108, "平成27年": 100, "情報通信": 24, "##ウェブサイト##": 64, "晒す": 7, "Webサイト": 35, "悪用": 32, "デマ": 18, "流す": 68, "##名誉毀損##": 23, "信用毀損": 5, "反応": 334, "引き出す": 33, "書き込ん": 9, "探し出し": 7, "##誹謗中傷##": 10, "回る": 51, "或いは": 59, "書き込む": 13, "だり": 94, "掲示板": 49, "いつまでも": 17, "追求": 87, "延々と": 8, "第三者": 27, "##スパム_(メール)##": 7, "送信": 125, "暴露": 52, "当たる": 295, "事柄": 43, "ウイルス": 68, "##パーソナルコンピュータ##": 54, "乗っ取る": 5, "収集": 134, "金銭": 69, "奪取": 79, "持ち出し": 25, "消去": 27, "毀損": 6, "##住所##": 10, "覗き": 22, "汚物": 8, "撒き": 9, "散らし": 11, "住宅": 322, "器物": 8, "損壊": 12, "出前": 15, "注文": 95, "##YouTuber##": 19, "##ニコニコ生放送##": 38, "公開放送": 7, "敢行": 36, "売名": 7, "囲い": 25, "介在": 17, "機材": 86, "盗撮": 14, "憔悴": 6, "詐取": 5, "暴力": 123, "沙汰": 24, "拡散": 76, "囲い込み": 8, "遊戯": 33, "法改正": 19, "ネット上": 28, "平成28年": 86, "12月6日": 146, "法律案": 9, "平成29年": 98, "1月3日": 104, "充足": 16, "同法": 23, "2条": 33, "掲げる": 65, "面会": 70, "名誉": 171, "害する": 12, "性的": 52, "書き込み": 32, "規制対象": 9, "禁止命令": 5, "見直し": 111, "6月14日": 139, "罰則": 13, "100万円": 67, "罰金": 50, "自衛": 22, "買わ": 40, "不用意": 8, "氏名": 53, "書き込ま": 16, "中々": 10, "管理者": 56, "アップロード": 8, "現状": 146, "法的": 73, "動い": 59, "IT": 69, "弁護士": 156, "ナビ": 73, "急変": 7, "対処法": 6, "罵倒": 29, "ダイヤモンド": 37, "7月27日": 100, "Cafe": 23, "##サイバースペース##": 21, "##菖蒲湯##": 15, "ゆ": 60, "##5月5日##": 48, "菖蒲": 22, "##根##": 19, "##風呂##": 18, "人さまざま": 5, "刻ん": 21, "邪": 43, "払う": 37, "##薬草##": 11, "##梁_(南朝)##": 12, "長寿": 37, "変わり目": 5, "習俗": 14, "宮廷": 139, "##1533年##": 12, "祝": 58, "しや": 10, "さし": 25, "枕": 21, "解き": 15, "浴": 15, "庶民": 63, "意外": 51, "##江戸##": 216, "綴っ": 26, "家で": 51, "長屋": 24, "楽しん": 53, "銭湯": 13, "かな": 64, "祝儀": 13, "番台": 108, "入り口": 79, "仕": 16, "貼り": 43, "温泉": 159, "退散": 9, "沸かし": 7, "入浴": 25, "暑い": 14, "締める": 15, "##精油##": 33, "成分": 152, "和らげる": 5, "保": 67, "湿": 5, "薬効": 8, "望む": 120, "##薬局##": 14, "心身": 28, "リラックス": 12, "俳人": 8, "##俳句##": 32, "下関": 20, "歳時記": 23, "寸": 32, "いれる": 6, "遡っ": 21, "1980": 152, "566": 16, "金子": 48, "必携": 11, "奥野": 13, "1838": 6, "15巻": 27, "枻": 6, "芳賀": 16, "1907": 27, "192": 49, "高広": 30, "続群書類従完成会": 5, "書誌": 242, "戎光祥出版": 14, "一生": 50, "作法": 29, "##PHP研究所##": 142, "569": 17, "美肌": 8, "ヵ月": 66, "!!』": 42, "PHP文庫": 19, "附録": 17, "齋": 7, ");": 43, "図画": 9, "長谷": 11, "堤": 48, "補": 112, "1838年": 11, "##天保##": 91, "五月": 48, "教育委員会": 136, "1956年": 146, "11501": 21, "粋": 22, "武夫": 7, "亞": 29, "書房": 129, "1907年": 45, "明治40年": 23, "##保育社##": 14, "642": 47, "行事": 126, "272": 30, "##ふ##": 17, "フ": 24, "##う段##": 6, "ブ": 14, "##う##": 86, "突き出す": 8, "ɸ": 7, "]）": 65, "ファ": 18, "フィ": 5, "フェ": 11, "フォ": 5, "違": 15, "##こ##": 8, "ぐ": 27, "仰ぐ": 19, "28位": 11, "32位": 7, "##け##": 5, "左上": 25, "若し": 5, "広辞苑": 9, "##f##": 9, "##u##": 15, "富士山": 22, "##変体仮名##": 6, "-」": 83, "ヘル": 19, "ローマ字": 19, "一般に": 20, "外国語": 23, "音写": 9, "歯": 71, "摩擦音": 5, "笑": 40, "離れる": 66, "字体": 27, "外来語": 12, "ローマ字表記": 6, "カナダ": 99, "カルガリー": 10, "スカイライン": 14, "ウエスト": 25, "タワー": 67, "ツインタワー": 21, "ケーブル": 79, "補助": 160, "プラザ": 95, "ビルディング": 26, "スクエア": 31, "市庁舎": 38, "##超高層ビル##": 10, "エン": 24, "ポリス": 17, "男の子": 66, "##雛祭り##": 7, "桃": 36, "祝わ": 6, "##和暦##": 6, "おこなわ": 64, "##グレゴリオ暦##": 23, "##長男##": 14, "総出": 9, "盛大": 19, "次子": 11, "縁者": 15, "招か": 80, "お祝い": 22, "贈ら": 117, "着せ": 28, "##左石駅##": 8, "##佐世保市##": 88, "##松浦鉄道##": 22, "##松浦鉄道西九州線##": 18, "##柚木線##": 7, "##3月27日##": 84, "##佐世保鉄道##": 5, "##相浦駅##": 8, "大野": 93, "おの": 50, "##10月7日##": 52, "##4月20日##": 54, "届出": 97, "##松浦駅##": 7, "##8月30日##": 42, "##改軌##": 15, "##佐世保駅##": 22, "##7月9日##": 31, "##九州旅客鉄道##": 80, "第三セクター": 5, "ずれ": 59, "##佐世保市役所##": 9, "##伊万里駅##": 16, "##長崎県立佐世保西高等学校##": 5, "発券": 41, "定期券": 55, "回数券": 19, "##西肥自動車##": 15, "待合所": 32, "##元日##": 11, "付記": 30, "事項": 145, "タブレット": 7, "通": 250, "票": 191, "金属製": 18, "円盤": 46, "##閉塞_(鉄道)##": 15, "閉塞": 17, "##鉄道信号機##": 9, "黄色い": 60, "場内": 27, "渦巻き": 7, "挿し": 12, "代用": 61, "平成20年": 115, "たこ": 42, "商工": 28,
[...]
